{
  "version": "1.0",
  "truncation": null,
  "padding": null,
  "added_tokens": [
    {
      "id": 0,
      "content": "<UNK>",
      "single_word": false,
      "lstrip": false,
      "rstrip": false,
      "normalized": false,
      "special": true
    },
    {
      "id": 1,
      "content": "<PAD>",
      "single_word": false,
      "lstrip": false,
      "rstrip": false,
      "normalized": false,
      "special": true
    },
    {
      "id": 2,
      "content": "<BOS>",
      "single_word": false,
      "lstrip": false,
      "rstrip": false,
      "normalized": false,
      "special": true
    },
    {
      "id": 3,
      "content": "<EOS>",
      "single_word": false,
      "lstrip": false,
      "rstrip": false,
      "normalized": false,
      "special": true
    }
  ],
  "normalizer": {
    "type": "NFKC"
  },
  "pre_tokenizer": {
    "type": "ByteLevel",
    "add_prefix_space": false,
    "trim_offsets": true,
    "use_regex": true
  },
  "post_processor": null,
  "decoder": {
    "type": "ByteLevel",
    "add_prefix_space": true,
    "trim_offsets": true,
    "use_regex": true
  },
  "model": {
    "type": "BPE",
    "dropout": null,
    "unk_token": null,
    "continuing_subword_prefix": null,
    "end_of_word_suffix": null,
    "fuse_unk": false,
    "byte_fallback": false,
    "ignore_merges": false,
    "vocab": {
      "<UNK>": 0,
      "<PAD>": 1,
      "<BOS>": 2,
      "<EOS>": 3,
      "!": 4,
      "\"": 5,
      "#": 6,
      "$": 7,
      "%": 8,
      "&": 9,
      "'": 10,
      "(": 11,
      ")": 12,
      "*": 13,
      "+": 14,
      ",": 15,
      "-": 16,
      ".": 17,
      "/": 18,
      "0": 19,
      "1": 20,
      "2": 21,
      "3": 22,
      "4": 23,
      "5": 24,
      "6": 25,
      "7": 26,
      "8": 27,
      "9": 28,
      ":": 29,
      ";": 30,
      "<": 31,
      "=": 32,
      ">": 33,
      "?": 34,
      "@": 35,
      "A": 36,
      "B": 37,
      "C": 38,
      "D": 39,
      "E": 40,
      "F": 41,
      "G": 42,
      "H": 43,
      "I": 44,
      "J": 45,
      "K": 46,
      "L": 47,
      "M": 48,
      "N": 49,
      "O": 50,
      "P": 51,
      "Q": 52,
      "R": 53,
      "S": 54,
      "T": 55,
      "U": 56,
      "V": 57,
      "W": 58,
      "X": 59,
      "Y": 60,
      "Z": 61,
      "[": 62,
      "\\": 63,
      "]": 64,
      "^": 65,
      "_": 66,
      "`": 67,
      "a": 68,
      "b": 69,
      "c": 70,
      "d": 71,
      "e": 72,
      "f": 73,
      "g": 74,
      "h": 75,
      "i": 76,
      "j": 77,
      "k": 78,
      "l": 79,
      "m": 80,
      "n": 81,
      "o": 82,
      "p": 83,
      "q": 84,
      "r": 85,
      "s": 86,
      "t": 87,
      "u": 88,
      "v": 89,
      "w": 90,
      "x": 91,
      "y": 92,
      "z": 93,
      "{": 94,
      "|": 95,
      "}": 96,
      "~": 97,
      "¡": 98,
      "¢": 99,
      "£": 100,
      "¤": 101,
      "¥": 102,
      "¦": 103,
      "§": 104,
      "¨": 105,
      "©": 106,
      "ª": 107,
      "«": 108,
      "¬": 109,
      "®": 110,
      "¯": 111,
      "°": 112,
      "±": 113,
      "²": 114,
      "³": 115,
      "´": 116,
      "µ": 117,
      "¶": 118,
      "·": 119,
      "¸": 120,
      "¹": 121,
      "º": 122,
      "»": 123,
      "¼": 124,
      "½": 125,
      "¿": 126,
      "Â": 127,
      "Ã": 128,
      "Ä": 129,
      "Å": 130,
      "È": 131,
      "É": 132,
      "Ë": 133,
      "Ì": 134,
      "Î": 135,
      "Ï": 136,
      "Ð": 137,
      "Ñ": 138,
      "Ö": 139,
      "×": 140,
      "á": 141,
      "â": 142,
      "å": 143,
      "ç": 144,
      "é": 145,
      "ï": 146,
      "ð": 147,
      "ĉ": 148,
      "Ċ": 149,
      "Ġ": 150,
      "Ģ": 151,
      "ģ": 152,
      "Ĥ": 153,
      "ĥ": 154,
      "Ħ": 155,
      "ħ": 156,
      "Ĩ": 157,
      "ĩ": 158,
      "Ī": 159,
      "ī": 160,
      "Ĭ": 161,
      "ĭ": 162,
      "Į": 163,
      "į": 164,
      "İ": 165,
      "ı": 166,
      "Ĳ": 167,
      "ĳ": 168,
      "Ĵ": 169,
      "ĵ": 170,
      "Ķ": 171,
      "ķ": 172,
      "ĸ": 173,
      "Ĺ": 174,
      "ĺ": 175,
      "Ļ": 176,
      "ļ": 177,
      "Ľ": 178,
      "ľ": 179,
      "Ŀ": 180,
      "ŀ": 181,
      "Ł": 182,
      "ł": 183,
      "Ń": 184,
      "in": 185,
      "Ġt": 186,
      "Ġa": 187,
      "he": 188,
      "re": 189,
      "on": 190,
      "Ġs": 191,
      "er": 192,
      "ing": 193,
      "ti": 194,
      "en": 195,
      "Ġc": 196,
      "es": 197,
      "nd": 198,
      "Ġthe": 199,
      "or": 200,
      "Ġp": 201,
      "al": 202,
      "Ġw": 203,
      "it": 204,
      "Ġand": 205,
      "ed": 206,
      "Ġf": 207,
      "ou": 208,
      "at": 209,
      "an": 210,
      "Ġb": 211,
      "Ġto": 212,
      "Ġo": 213,
      "Ġin": 214,
      "Ġd": 215,
      "is": 216,
      "Ġm": 217,
      "ar": 218,
      "tion": 219,
      "le": 220,
      "om": 221,
      "Ġe": 222,
      "ic": 223,
      "Ġof": 224,
      "as": 225,
      "ent": 226,
      "Ġre": 227,
      "Ġh": 228,
      "ro": 229,
      "ly": 230,
      "Ġl": 231,
      "ac": 232,
      "st": 233,
      "ve": 234,
      "ec": 235,
      "id": 236,
      "ation": 237,
      "Ġth": 238,
      "il": 239,
      "et": 240,
      "im": 241,
      "Ġg": 242,
      "ig": 243,
      "Ġu": 244,
      "Ġn": 245,
      "ce": 246,
      "ver": 247,
      "--": 248,
      "ol": 249,
      "ĠT": 250,
      "ay": 251,
      "Ġst": 252,
      "se": 253,
      "Ġcon": 254,
      "ow": 255,
      "ur": 256,
      "ir": 257,
      "Ġhe": 258,
      "ul": 259,
      "ess": 260,
      "ers": 261,
      "ot": 262,
      "Ġfor": 263,
      "ad": 264,
      "am": 265,
      "Ġex": 266,
      "ĠS": 267,
      "ith": 268,
      "el": 269,
      "Ġpro": 270,
      "uc": 271,
      "ment": 272,
      "ab": 273,
      "Ġit": 274,
      "Ġy": 275,
      "Ġcom": 276,
      "pp": 277,
      "Ġwith": 278,
      "ts": 279,
      "Ġon": 280,
      "ate": 281,
      "our": 282,
      "ity": 283,
      "Ġen": 284,
      "ut": 285,
      "ag": 286,
      "ri": 287,
      "ĠA": 288,
      "Ġas": 289,
      "ain": 290,
      "res": 291,
      "her": 292,
      "Ġwas": 293,
      "Ġv": 294,
      "ter": 295,
      "Ġal": 296,
      "us": 297,
      "qu": 298,
      "Ġbe": 299,
      "ke": 300,
      "if": 301,
      "'s": 302,
      "tic": 303,
      "ore": 304,
      "Ġwh": 305,
      "and": 306,
      "un": 307,
      "ĠC": 308,
      "----": 309,
      "Ġr": 310,
      "Ġor": 311,
      "igh": 312,
      "ion": 313,
      "ĠThe": 314,
      "em": 315,
      "Ġthat": 316,
      "ĠH": 317,
      "ĠI": 318,
      "oc": 319,
      "Ġan": 320,
      "Ġac": 321,
      "ĠB": 322,
      "rou": 323,
      "Ġis": 324,
      "od": 325,
      "out": 326,
      "iz": 327,
      "pl": 328,
      "Ġle": 329,
      "ations": 330,
      "Ġtr": 331,
      "ant": 332,
      "tive": 333,
      "ting": 334,
      "ld": 335,
      "ure": 336,
      "Ġsa": 337,
      "os": 338,
      "Ġpl": 339,
      "are": 340,
      "ap": 341,
      "rom": 342,
      "Ġch": 343,
      "ust": 344,
      "ies": 345,
      "ĠM": 346,
      "Ġad": 347,
      "um": 348,
      "ance": 349,
      "Ġint": 350,
      "op": 351,
      "for": 352,
      "th": 353,
      "Ġtheir": 354,
      "Ġde": 355,
      "Ġim": 356,
      "Ġcan": 357,
      "ial": 358,
      "ere": 359,
      "ard": 360,
      "all": 361,
      "gh": 362,
      "Ġsh": 363,
      "Ġcomp": 364,
      "Ġse": 365,
      "ud": 366,
      "pec": 367,
      "Ġne": 368,
      "tions": 369,
      "ous": 370,
      "ch": 371,
      "per": 372,
      "ĠP": 373,
      "iti": 374,
      "og": 375,
      "end": 376,
      "Ġyou": 377,
      "ĠF": 378,
      "vid": 379,
      "ist": 380,
      "age": 381,
      "able": 382,
      "ves": 383,
      "Ġres": 384,
      "Ġha": 385,
      "king": 386,
      "ill": 387,
      "ally": 388,
      "ĠW": 389,
      "ĠL": 390,
      "ign": 391,
      "Ġat": 392,
      "ther": 393,
      "Ġcont": 394,
      "hen": 395,
      "ating": 396,
      "ort": 397,
      "Ġher": 398,
      "Ġli": 399,
      "Ġinc": 400,
      "enti": 401,
      "Ġyour": 402,
      "Ġthis": 403,
      "ong": 404,
      "ip": 405,
      "ĠE": 406,
      "Ġso": 407,
      "ome": 408,
      "Ġup": 409,
      "On": 410,
      "Ġun": 411,
      "Ġimp": 412,
      "di": 413,
      "Ġus": 414,
      "Ġapp": 415,
      "ff": 416,
      "ile": 417,
      "Ġall": 418,
      "Ġby": 419,
      "cess": 420,
      "ine": 421,
      "Ġlo": 422,
      "ack": 423,
      "ĠD": 424,
      "Ġwor": 425,
      "ight": 426,
      "Ġare": 427,
      "form": 428,
      "very": 429,
      "Ġthey": 430,
      "ful": 431,
      "est": 432,
      "Ġem": 433,
      "ans": 434,
      "ould": 435,
      "ĠHe": 436,
      "Ġwe": 437,
      "Ġsuc": 438,
      "nt": 439,
      "ces": 440,
      "ence": 441,
      "Ġfrom": 442,
      "Ġj": 443,
      "Ġpar": 444,
      "Ġ\"": 445,
      "ĠR": 446,
      "Ġsu": 447,
      "ide": 448,
      "Ġman": 449,
      "ents": 450,
      "ue": 451,
      "ge": 452,
      "ost": 453,
      "Ġtim": 454,
      "Ġ(": 455,
      "Ġdis": 456,
      "--------": 457,
      "ual": 458,
      "Ġcl": 459,
      "act": 460,
      "vel": 461,
      "ities": 462,
      "ving": 463,
      "ated": 464,
      "Ġhis": 465,
      "Ġshe": 466,
      "ep": 467,
      "Ġab": 468,
      "Ġstr": 469,
      "ind": 470,
      "ach": 471,
      "Ġcons": 472,
      "uring": 473,
      "ven": 474,
      "ĠShe": 475,
      "ors": 476,
      "ok": 477,
      "ments": 478,
      "Ġplay": 479,
      "Ġcomm": 480,
      "ress": 481,
      "ility": 482,
      "rough": 483,
      "ĠTh": 484,
      "Ġpr": 485,
      "ake": 486,
      "Ġsp": 487,
      "ib": 488,
      "nder": 489,
      "ical": 490,
      "Ġro": 491,
      "ry": 492,
      "Ġoff": 493,
      "duc": 494,
      "ific": 495,
      "ily": 496,
      "Ġthere": 497,
      "Ġtime": 498,
      "Ġgo": 499,
      "Ġinto": 500,
      "Ġsaid": 501,
      "Ġk": 502,
      "ra": 503,
      "Ġpre": 504,
      "ted": 505,
      "Ġits": 506,
      "Ġcre": 507,
      "ie": 508,
      "Ġme": 509,
      "ary": 510,
      "ace": 511,
      "ĠG": 512,
      "ious": 513,
      "The": 514,
      "Ġfe": 515,
      "ved": 516,
      "Ġper": 517,
      "ire": 518,
      "ive": 519,
      "round": 520,
      "Ġthese": 521,
      "ell": 522,
      "âĢ": 523,
      "Ġday": 524,
      "ures": 525,
      "ail": 526,
      "Ġprovid": 527,
      "ks": 528,
      "Ġthem": 529,
      "Ġsc": 530,
      "ential": 531,
      "Ġover": 532,
      "ast": 533,
      "ech": 534,
      "Ġser": 535,
      "Ġlike": 536,
      "ĠJ": 537,
      "Ġout": 538,
      "Ġsuch": 539,
      "oy": 540,
      "lec": 541,
      "one": 542,
      "Ġar": 543,
      "Ġunder": 544,
      "Ġbet": 545,
      "Ġins": 546,
      "ĠThey": 547,
      "tim": 548,
      "Ġop": 549,
      "ens": 550,
      "ked": 551,
      "Ġthrough": 552,
      "ass": 553,
      "anc": 554,
      "ose": 555,
      "Ġnot": 556,
      "ates": 557,
      "Ġdes": 558,
      "ning": 559,
      "ĠN": 560,
      "Ġsm": 561,
      "Ġrec": 562,
      "Ġhave": 563,
      "ater": 564,
      "Ġam": 565,
      "Ġhel": 566,
      "Ġqu": 567,
      "tional": 568,
      "Ġother": 569,
      "One": 570,
      "Ġinter": 571,
      "tain": 572,
      "oth": 573,
      "Ġwhen": 574,
      "ound": 575,
      "ati": 576,
      "Ġcol": 577,
      "Ġrel": 578,
      "Ġhad": 579,
      "ice": 580,
      "Ġexper": 581,
      "Ġbut": 582,
      "we": 583,
      "av": 584,
      "Ġhelp": 585,
      "itt": 586,
      "ark": 587,
      "Ġspec": 588,
      "here": 589,
      "Ġrem": 590,
      "Ġreg": 591,
      "les": 592,
      "ĠU": 593,
      "Ġwhile": 594,
      "ite": 595,
      "ings": 596,
      "Ġincl": 597,
      "ond": 598,
      "Ġsign": 599,
      "'t": 600,
      "Ġag": 601,
      "ular": 602,
      "ple": 603,
      "ons": 604,
      "ĠThis": 605,
      "ia": 606,
      "ak": 607,
      "ame": 608,
      "echn": 609,
      "ich": 610,
      "Ġco": 611,
      "ĠIt": 612,
      "ll": 613,
      "hed": 614,
      "Ġmore": 615,
      "Ġmom": 616,
      "Ġkn": 617,
      "Ġexpl": 618,
      "ative": 619,
      "pport": 620,
      "velop": 621,
      "enc": 622,
      "als": 623,
      "Ġabout": 624,
      "olog": 625,
      "Ġens": 626,
      "Ġsome": 627,
      "vers": 628,
      "hip": 629,
      "row": 630,
      "Ġhow": 631,
      "ĠBy": 632,
      "ult": 633,
      "ough": 634,
      "Ġcould": 635,
      "au": 636,
      "ord": 637,
      "vol": 638,
      "Ġdec": 639,
      "ase": 640,
      "Ġdo": 641,
      "lic": 642,
      "Ġacc": 643,
      "get": 644,
      "Ġtrans": 645,
      "Ġeff": 646,
      "ower": 647,
      "gr": 648,
      "Ġnew": 649,
      "Ġte": 650,
      "rib": 651,
      "ten": 652,
      "Ġcommun": 653,
      "ild": 654,
      "ittle": 655,
      "Ġsy": 656,
      "ions": 657,
      "own": 658,
      "Ġtechn": 659,
      "Ġhapp": 660,
      "ward": 661,
      "hing": 662,
      "Ġwill": 663,
      "ĠĊ": 664,
      "Ġinclud": 665,
      "Ġconc": 666,
      "ect": 667,
      "ruc": 668,
      "way": 669,
      "ĠO": 670,
      "stand": 671,
      "ges": 672,
      "Ġlittle": 673,
      "my": 674,
      "ear": 675,
      "Ġour": 676,
      "ory": 677,
      "Ġass": 678,
      "Ġwho": 679,
      "Ġpot": 680,
      "sel": 681,
      "Ġtre": 682,
      "iqu": 683,
      "Ġrep": 684,
      "art": 685,
      "ience": 686,
      "Ġhigh": 687,
      "Ġrequ": 688,
      "In": 689,
      "Ġdevelop": 690,
      "ever": 691,
      "ween": 692,
      "fere": 693,
      "ider": 694,
      "Ġone": 695,
      "Ġinst": 696,
      "ues": 697,
      "alth": 698,
      "Ġdi": 699,
      "Ġdisc": 700,
      "Ġpos": 701,
      "Ġadv": 702,
      "Ġthan": 703,
      "Ġbetween": 704,
      "pt": 705,
      "Ġcare": 706,
      "Ġindi": 707,
      "riend": 708,
      "Ġboth": 709,
      "Ġbec": 710,
      "gan": 711,
      "Ġvery": 712,
      "Ġvar": 713,
      "ness": 714,
      "Ġhas": 715,
      "low": 716,
      "ateg": 717,
      "Ġno": 718,
      "vidual": 719,
      "Ġke": 720,
      "ĠIn": 721,
      "ased": 722,
      "Ġwant": 723,
      "ise": 724,
      "Ġindividual": 725,
      "ub": 726,
      "Ġwhat": 727,
      "tiv": 728,
      "Ġneed": 729,
      "ob": 730,
      "Ġfun": 731,
      "ĠAs": 732,
      "Ġval": 733,
      "its": 734,
      "Ġbr": 735,
      "ability": 736,
      "ef": 737,
      "Ġsignific": 738,
      "**": 739,
      "Once": 740,
      "Ġmay": 741,
      "old": 742,
      "ational": 743,
      "Ġeng": 744,
      "Ġprom": 745,
      "so": 746,
      "Ġbu": 747,
      "aking": 748,
      "Ġaround": 749,
      "tr": 750,
      "Ġind": 751,
      "Ġback": 752,
      "Ġfriend": 753,
      "Ġupon": 754,
      "Ġlook": 755,
      "ices": 756,
      "ize": 757,
      "Ġlead": 758,
      "hes": 759,
      "stem": 760,
      "Ġallow": 761,
      "Ġadd": 762,
      "Ġwithin": 763,
      "ount": 764,
      "Ġpers": 765,
      "ys": 766,
      "Ġsee": 767,
      "iness": 768,
      "ering": 769,
      "Ġwere": 770,
      "ĠâĢ": 771,
      "Ġany": 772,
      "Ġbig": 773,
      "Ġwhich": 774,
      "Ġduring": 775,
      "Ġmain": 776,
      "Ġsec": 777,
      "ty": 778,
      "Ġhealth": 779,
      "ms": 780,
      "ared": 781,
      "Ġevery": 782,
      "tical": 783,
      "Ġalso": 784,
      "Ġprocess": 785,
      "aging": 786,
      "ands": 787,
      "Ġ2": 788,
      "over": 789,
      "other": 790,
      "Ġhappy": 791,
      "allen": 792,
      "Ġsk": 793,
      "Ġset": 794,
      "ros": 795,
      "Ġexam": 796,
      "Ġhim": 797,
      "Ġproduc": 798,
      "urther": 799,
      "Ġdesign": 800,
      "arket": 801,
      "Ġgr": 802,
      "Ġdif": 803,
      "Ġsur": 804,
      "----------------": 805,
      "Ġdel": 806,
      "ang": 807,
      "ights": 808,
      "Ġappro": 809,
      "ren": 810,
      "ade": 811,
      "Ġpol": 812,
      "Ġsaw": 813,
      "Ġconsider": 814,
      "Ġunderstand": 815,
      "lus": 816,
      "led": 817,
      "Ġpotential": 818,
      "Ġinvol": 819,
      "irst": 820,
      "Ġstrateg": 821,
      "Ġvarious": 822,
      "ata": 823,
      "tern": 824,
      "irl": 825,
      "Ġchallen": 826,
      "ital": 827,
      "Ġexp": 828,
      "Ġsignificant": 829,
      "Ġdem": 830,
      "ric": 831,
      "Ġbus": 832,
      "Ġ-": 833,
      "Ġmod": 834,
      "Ġbo": 835,
      "Ġincre": 836,
      "Ġpres": 837,
      ".\"": 838,
      "ĠCh": 839,
      "izing": 840,
      "Ġfin": 841,
      "ood": 842,
      "ages": 843,
      "Ġpartic": 844,
      "Ġph": 845,
      "Ġwhere": 846,
      "ish": 847,
      "Ġprof": 848,
      "Ġ1": 849,
      "ized": 850,
      "ĠâĢĵ": 851,
      "Ġorgan": 852,
      "Ġprac": 853,
      "Ġref": 854,
      "Ġsystem": 855,
      "Ġsoc": 856,
      "Ġgirl": 857,
      "ĠLily": 858,
      "oin": 859,
      "ines": 860,
      "Ġgen": 861,
      "ree": 862,
      "Ġmo": 863,
      "ĠAd": 864,
      "Ġbl": 865,
      "Ġmake": 866,
      "Ġlear": 867,
      "ey": 868,
      "ited": 869,
      "less": 870,
      "yp": 871,
      "Ġev": 872,
      "Ġloc": 873,
      "Ġcap": 874,
      "ribut": 875,
      "ĠFor": 876,
      "Ġmed": 877,
      "Ġpe": 878,
      "Ġexc": 879,
      "ern": 880,
      "agement": 881,
      "Ġmet": 882,
      "ustom": 883,
      "Ġstud": 884,
      "ĠOne": 885,
      "arm": 886,
      "Ġif": 887,
      "Ġwork": 888,
      "ible": 889,
      "Ġimport": 890,
      "ug": 891,
      "Ġlong": 892,
      "ately": 893,
      "ross": 894,
      "ered": 895,
      "Ġmarket": 896,
      "ĠK": 897,
      "ber": 898,
      "xt": 899,
      "til": 900,
      "ĠSt": 901,
      "Ġresp": 902,
      "Ġfl": 903,
      "ective": 904,
      "ft": 905,
      "ling": 906,
      "ici": 907,
      "Ġdet": 908,
      "Ġagain": 909,
      "Ġfac": 910,
      "ition": 911,
      "Ġinform": 912,
      "Ġenc": 913,
      "Ġvis": 914,
      "Ġdata": 915,
      "Ġeven": 916,
      "Ġsuccess": 917,
      "por": 918,
      "Ġess": 919,
      "ct": 920,
      "ality": 921,
      "ew": 922,
      "pect": 923,
      "!\"": 924,
      "Ġimpro": 925,
      "Ġworld": 926,
      "Ġbusiness": 927,
      "ĠThese": 928,
      "Ġwould": 929,
      "Ġgrow": 930,
      "wards": 931,
      "dition": 932,
      "ocus": 933,
      "ication": 934,
      "ances": 935,
      "ique": 936,
      "Ġlet": 937,
      "erg": 938,
      "Ġsol": 939,
      "owever": 940,
      "Ġenh": 941,
      "wor": 942,
      "Ġfost": 943,
      "Ġben": 944,
      "Ġserv": 945,
      "nec": 946,
      "ently": 947,
      "fter": 948,
      "ick": 949,
      "Ġinf": 950,
      "Ġsaf": 951,
      "ange": 952,
      "Ġknow": 953,
      "Ġmight": 954,
      "Ġmaintain": 955,
      "Ġfind": 956,
      "Ġdiffere": 957,
      "Ġgu": 958,
      "tit": 959,
      "pportun": 960,
      "Ġcustom": 961,
      "Ġwanted": 962,
      "Ġperform": 963,
      "omet": 964,
      "Ġob": 965,
      "ci": 966,
      "oun": 967,
      "Ġthose": 968,
      "Ġfound": 969,
      "ĠTim": 970,
      "br": 971,
      ").": 972,
      "Ġperson": 973,
      "Ġtw": 974,
      "fore": 975,
      "up": 976,
      "Ġfocus": 977,
      "Ġcomple": 978,
      "Ġcontin": 979,
      "Ġaccess": 980,
      "wn": 981,
      "self": 982,
      "Ġinves": 983,
      "hile": 984,
      "ax": 985,
      "Ġed": 986,
      "Ġeach": 987,
      "Ġway": 988,
      "Ġamong": 989,
      "Ġopportun": 990,
      "lusion": 991,
      "Ġsub": 992,
      "Ġstar": 993,
      "ov": 994,
      "ath": 995,
      "Ġsim": 996,
      "Ġorganiz": 997,
      "ĠY": 998,
      "uch": 999,
      "ety": 1000,
      "Ġexplore": 1001,
      "âĤ": 1002,
      "Ġincluding": 1003,
      "âĤ¬": 1004,
      "Ġgre": 1005,
      "Ã¢": 1006,
      "Ġpower": 1007,
      "ency": 1008,
      "Ġdown": 1009,
      "ather": 1010,
      "Ġoften": 1011,
      "Ġconf": 1012,
      "ĠV": 1013,
      "Ġfriends": 1014,
      "Ġaut": 1015,
      "Ġhome": 1016,
      "Ġunique": 1017,
      "oring": 1018,
      "iss": 1019,
      "Ġessential": 1020,
      "Ġgl": 1021,
      "Ġtake": 1022,
      "ology": 1023,
      "Ġent": 1024,
      "rap": 1025,
      "Ġcruc": 1026,
      "Ġmany": 1027,
      "Ġcar": 1028,
      "Ġmin": 1029,
      "ources": 1030,
      "ences": 1031,
      "ollow": 1032,
      "tics": 1033,
      "Ġcrucial": 1034,
      "iew": 1035,
      "Ġbenef": 1036,
      "iting": 1037,
      "omething": 1038,
      "Ġemp": 1039,
      "arch": 1040,
      "Ġsomething": 1041,
      "Ġspecial": 1042,
      "Ġsmil": 1043,
      "Ġwent": 1044,
      "Ġcur": 1045,
      "aw": 1046,
      "Ġcontribut": 1047,
      "Ġform": 1048,
      "ploy": 1049,
      "ying": 1050,
      "ession": 1051,
      "ural": 1052,
      "omes": 1053,
      "ĠCon": 1054,
      "ols": 1055,
      "ties": 1056,
      "Ġremain": 1057,
      "adi": 1058,
      "ilities": 1059,
      "ature": 1060,
      "Ġtyp": 1061,
      "Ġspecific": 1062,
      "ution": 1063,
      "Ġtoget": 1064,
      "Ġtogether": 1065,
      "str": 1066,
      "te": 1067,
      "Ġid": 1068,
      "Ġcle": 1069,
      "Ġtowards": 1070,
      "ams": 1071,
      "abor": 1072,
      "iron": 1073,
      "),": 1074,
      "Ġdid": 1075,
      "Ġjust": 1076,
      "Ġ20": 1077,
      "Ġear": 1078,
      "Ġatt": 1079,
      "Ġreal": 1080,
      "ffor": 1081,
      "utions": 1082,
      "Ġtoo": 1083,
      "ĠĠ": 1084,
      "Ġthough": 1085,
      "Ġinn": 1086,
      "Ġmade": 1087,
      "ĠHowever": 1088,
      "Ġiss": 1089,
      "Ġfeel": 1090,
      "oreover": 1091,
      "Ġthen": 1092,
      "Ġrole": 1093,
      "Ġdue": 1094,
      "Ġindividuals": 1095,
      "Ġpur": 1096,
      "Ġfollow": 1097,
      "Ġele": 1098,
      "ied": 1099,
      "line": 1100,
      "Ġacross": 1101,
      "Ġbeh": 1102,
      "Ġmem": 1103,
      "Ġend": 1104,
      "Ġfact": 1105,
      "Ġfam": 1106,
      "Ġopen": 1107,
      "cc": 1108,
      "Ġeffective": 1109,
      "atform": 1110,
      "Ġoper": 1111,
      "ird": 1112,
      "Ġmust": 1113,
      "Ġbuild": 1114,
      "Ġsmiled": 1115,
      "Ġav": 1116,
      "Ġmul": 1117,
      "Ġaddress": 1118,
      "viron": 1119,
      "Ġexperience": 1120,
      "Ġlif": 1121,
      "Ġdist": 1122,
      "Ġidenti": 1123,
      "ics": 1124,
      "Ġbeen": 1125,
      "ware": 1126,
      "Ġpri": 1127,
      "ris": 1128,
      "Ġtwo": 1129,
      "Ġdevelopment": 1130,
      "Ġusing": 1131,
      "amed": 1132,
      "Ġconnec": 1133,
      "pped": 1134,
      "Ġkey": 1135,
      "Ġrequire": 1136,
      "asing": 1137,
      "ining": 1138,
      "ĠWith": 1139,
      "Ġfr": 1140,
      "Ġoffer": 1141,
      "itive": 1142,
      "ĠAn": 1143,
      "egr": 1144,
      "acy": 1145,
      "Ġown": 1146,
      "Ġoverall": 1147,
      "Ġgener": 1148,
      "Ġprot": 1149,
      "eld": 1150,
      "ave": 1151,
      "ets": 1152,
      "urn": 1153,
      "Ġrelations": 1154,
      "Ġoffers": 1155,
      "Ġskill": 1156,
      "ĠBut": 1157,
      "elt": 1158,
      "hether": 1159,
      "Ġext": 1160,
      "Ġdifferent": 1161,
      "Ġpart": 1162,
      "ble": 1163,
      "ways": 1164,
      "Ġfunc": 1165,
      "Ġenviron": 1166,
      "Ġchallenges": 1167,
      "Ġeduc": 1168,
      "Ġdep": 1169,
      "atch": 1170,
      "ditionally": 1171,
      "Ġyear": 1172,
      "Ġplatform": 1173,
      "uss": 1174,
      "oci": 1175,
      "Ġsever": 1176,
      "Ġest": 1177,
      "omm": 1178,
      "Ġprovide": 1179,
      "Ġensuring": 1180,
      "Ġcareful": 1181,
      "Ġapplic": 1182,
      "Ġprofession": 1183,
      "Ġequ": 1184,
      "Ġaway": 1185,
      "Ġbre": 1186,
      "Ġstand": 1187,
      "day": 1188,
      "labor": 1189,
      "Ġhum": 1190,
      "Ġshow": 1191,
      "Ġnec": 1192,
      "Ġmulti": 1193,
      "Ġsupport": 1194,
      "ants": 1195,
      "more": 1196,
      "Ġbefore": 1197,
      "eg": 1198,
      "Ġconclusion": 1199,
      "verse": 1200,
      "ield": 1201,
      "Ġnum": 1202,
      "Ġhand": 1203,
      "Ġasked": 1204,
      "Ġdecis": 1205,
      "Ġunderstanding": 1206,
      "Ġtra": 1207,
      "?\"": 1208,
      "ental": 1209,
      "Ġemploy": 1210,
      "Ġpromot": 1211,
      "ibility": 1212,
      "Ġbetter": 1213,
      "Ġinnov": 1214,
      "Ġexperi": 1215,
      "abl": 1216,
      "ĠWhile": 1217,
      "Ġopportunities": 1218,
      "Ġbro": 1219,
      "erm": 1220,
      "ogn": 1221,
      "air": 1222,
      "ases": 1223,
      "Ġloved": 1224,
      "St": 1225,
      "Ġseveral": 1226,
      "oking": 1227,
      "hips": 1228,
      "by": 1229,
      "Ġpractic": 1230,
      "Ġparticular": 1231,
      "Ġlooked": 1232,
      "Ġrespons": 1233,
      "Ġgrowth": 1234,
      "Ġregard": 1235,
      "red": 1236,
      "Ġris": 1237,
      "Ġintegr": 1238,
      "Ġproviding": 1239,
      "Ġcompan": 1240,
      "Ġcho": 1241,
      "Ġboy": 1242,
      "omp": 1243,
      "Ġcreate": 1244,
      "Ġnamed": 1245,
      "ertain": 1246,
      "Ġensure": 1247,
      "Ġlevel": 1248,
      "Ġfelt": 1249,
      "Ġchar": 1250,
      "Ġexample": 1251,
      "Ġreduc": 1252,
      "cep": 1253,
      "Ġprogr": 1254,
      "Ġran": 1255,
      "ories": 1256,
      "ĠAdditionally": 1257,
      "jec": 1258,
      ",\"": 1259,
      "Ġgood": 1260,
      "Ġanal": 1261,
      "Ġrele": 1262,
      "Ġget": 1263,
      "con": 1264,
      "Ġenab": 1265,
      "Ġusers": 1266,
      "Ġmus": 1267,
      "ĠWhen": 1268,
      "Ġiniti": 1269,
      "Ġcult": 1270,
      "tis": 1271,
      "Ġfurther": 1272,
      "Ġche": 1273,
      "Ġrese": 1274,
      "ike": 1275,
      "erest": 1276,
      "Ġthought": 1277,
      "Ġpop": 1278,
      "ination": 1279,
      "Ġshould": 1280,
      "Ġresources": 1281,
      "ead": 1282,
      "ture": 1283,
      "Ġfirst": 1284,
      "Ġnecess": 1285,
      "ape": 1286,
      "aterial": 1287,
      "Ġthroughout": 1288,
      "akes": 1289,
      "Ġposs": 1290,
      "Ġstrategies": 1291,
      "den": 1292,
      "Ġrepres": 1293,
      "ouse": 1294,
      "Ġpub": 1295,
      "Ġwal": 1296,
      "Ġbest": 1297,
      "els": 1298,
      "Ġstarted": 1299,
      "Ġindust": 1300,
      "ĠPro": 1301,
      "bers": 1302,
      "Ġpersonal": 1303,
      "ording": 1304,
      "ically": 1305,
      "ump": 1306,
      "Ġmean": 1307,
      "ished": 1308,
      "ism": 1309,
      "Ġmon": 1310,
      "ization": 1311,
      "Ġsocial": 1312,
      "par": 1313,
      "Ġservices": 1314,
      "Ġweb": 1315,
      "Ġpi": 1316,
      "Ġpass": 1317,
      "Ġhist": 1318,
      "ople": 1319,
      "Ġplan": 1320,
      "Ġproper": 1321,
      "ĠEn": 1322,
      "Ġprev": 1323,
      "ock": 1324,
      "ancing": 1325,
      "Ġwell": 1326,
      "Ġlearn": 1327,
      "Ġdri": 1328,
      "elf": 1329,
      "Ġassoci": 1330,
      "orpor": 1331,
      "Ġbel": 1332,
      "pects": 1333,
      "Ġcollabor": 1334,
      "ltim": 1335,
      "Ġeffor": 1336,
      "Ġuse": 1337,
      "ĠSo": 1338,
      "Ġinformation": 1339,
      "Th": 1340,
      "anced": 1341,
      "Ġpolic": 1342,
      "Ġsupp": 1343,
      "Ġimm": 1344,
      "ires": 1345,
      "ourn": 1346,
      "Ġtop": 1347,
      "Ġinstance": 1348,
      "atures": 1349,
      "amp": 1350,
      "00": 1351,
      "urthermore": 1352,
      "Ġpractices": 1353,
      "Ġalways": 1354,
      "Ġmuch": 1355,
      "Ġmaterial": 1356,
      "ging": 1357,
      "Ġleg": 1358,
      "Ġdef": 1359,
      "ner": 1360,
      "ier": 1361,
      "Ġmost": 1362,
      "ĠBen": 1363,
      "Ġdiscuss": 1364,
      "Ġperformance": 1365,
      "Ġcontro": 1366,
      "Ġstrong": 1367,
      "Ġdig": 1368,
      "Ġmanagement": 1369,
      "Ġcri": 1370,
      "Ġsti": 1371,
      "outs": 1372,
      "Ġful": 1373,
      "Ġimportant": 1374,
      "Ġaim": 1375,
      "Ġide": 1376,
      "ending": 1377,
      "ually": 1378,
      "An": 1379,
      "Ġsmall": 1380,
      "Ġcommit": 1381,
      "Ġalong": 1382,
      "lement": 1383,
      "Ġbird": 1384,
      "Ġneeds": 1385,
      "Ġcall": 1386,
      "Ġestabl": 1387,
      "Ġpeople": 1388,
      "Ġbased": 1389,
      "Ġtradi": 1390,
      "Ġinsights": 1391,
      "Ġcompon": 1392,
      "ook": 1393,
      "Ġdoes": 1394,
      "Ġonly": 1395,
      "to": 1396,
      "Ġbeing": 1397,
      "ĠMoreover": 1398,
      "Ġsystems": 1399,
      "Ġactiv": 1400,
      "Ġissues": 1401,
      "und": 1402,
      "Ġresul": 1403,
      "Ġeffici": 1404,
      "ense": 1405,
      "Ġanother": 1406,
      "Ġsit": 1407,
      "Ġinterest": 1408,
      "Ġpati": 1409,
      "ilar": 1410,
      "ltimately": 1411,
      "yond": 1412,
      "lying": 1413,
      "Ġbeyond": 1414,
      "Ġdire": 1415,
      "ane": 1416,
      "Ġallows": 1417,
      "Ġimpact": 1418,
      "onstr": 1419,
      "Ġfactors": 1420,
      "Ġafter": 1421,
      "âĢĶ": 1422,
      "Ġcommunity": 1423,
      "Ġidentif": 1424,
      "Ġcollec": 1425,
      "ause": 1426,
      "ancial": 1427,
      "Ġintern": 1428,
      "Ġold": 1429,
      "ĠEx": 1430,
      "hod": 1431,
      "Ġoptim": 1432,
      "ples": 1433,
      "lu": 1434,
      "Ġread": 1435,
      "ĠLet": 1436,
      "Ġcommunication": 1437,
      "Ġstay": 1438,
      "Ġcr": 1439,
      "Ġdev": 1440,
      "ĠUn": 1441,
      "ĠTimmy": 1442,
      "Ġcost": 1443,
      "ats": 1444,
      "Ġdemonstr": 1445,
      "Ġimprove": 1446,
      "Ġexcited": 1447,
      "Ġtri": 1448,
      "Ġput": 1449,
      "Ġagainst": 1450,
      "##": 1451,
      "ots": 1452,
      "Ġapproach": 1453,
      "Ġdeep": 1454,
      "Ġbenefits": 1455,
      "Ġwhy": 1456,
      "Ġtal": 1457,
      "Ġtools": 1458,
      "ee": 1459,
      "ored": 1460,
      "feren": 1461,
      "'re": 1462,
      "Ġthings": 1463,
      "Step": 1464,
      "Ġcomplex": 1465,
      "aring": 1466,
      "Ġwater": 1467,
      "Ġminim": 1468,
      "go": 1469,
      "hie": 1470,
      "Ġmy": 1471,
      "ided": 1472,
      "Ġgain": 1473,
      "Ġcompe": 1474,
      "Ġconsist": 1475,
      "iques": 1476,
      "As": 1477,
      "ugg": 1478,
      "Ġcreating": 1479,
      "ledge": 1480,
      "Ġfostering": 1481,
      "ix": 1482,
      "avig": 1483,
      "Ġregarding": 1484,
      "ĠFurthermore": 1485,
      "Ġmeas": 1486,
      "Ġrest": 1487,
      "Ġclos": 1488,
      "Ġwa": 1489,
      "Ġpublic": 1490,
      "Ġplaying": 1491,
      "uture": 1492,
      "Ġassociated": 1493,
      "Ġinclude": 1494,
      "urity": 1495,
      "Ġsuccessful": 1496,
      "Ġred": 1497,
      "Ġhighl": 1498,
      "Ġinvest": 1499,
      "ior": 1500,
      "Ġ**": 1501,
      "Ġcomes": 1502,
      "Ġlife": 1503,
      "ĠAm": 1504,
      "Ġenvironment": 1505,
      "Ġcent": 1506,
      "Ġchild": 1507,
      "Ġused": 1508,
      "Ġprin": 1509,
      "Ġjourn": 1510,
      "Ġachie": 1511,
      "Ġseeking": 1512,
      "Ġskills": 1513,
      "Ġaff": 1514,
      "ards": 1515,
      "Ġsignificantly": 1516,
      "Ġbusinesses": 1517,
      "Ġorganizations": 1518,
      "Ġvalue": 1519,
      "Ġmethod": 1520,
      "Ġcour": 1521,
      "Ġaspects": 1522,
      "Ġes": 1523,
      "Ġtechnology": 1524,
      "ĠTom": 1525,
      "ced": 1526,
      "ins": 1527,
      "Ġlocal": 1528,
      "fic": 1529,
      "Ġcome": 1530,
      "Ġlearning": 1531,
      "Ġpark": 1532,
      "Ġcor": 1533,
      "rop": 1534,
      "Ġfinancial": 1535,
      "Ġfle": 1536,
      "Ġrecogn": 1537,
      "Ġconcern": 1538,
      "ays": 1539,
      "oh": 1540,
      "ilit": 1541,
      "tract": 1542,
      "ĠAl": 1543,
      "Ġchan": 1544,
      "ian": 1545,
      "Ġsetting": 1546,
      "Ġhuman": 1547,
      "Ġdigital": 1548,
      "roup": 1549,
      "Ġothers": 1550,
      "Ġresearch": 1551,
      "Ġtraditional": 1552,
      "Ġavail": 1553,
      "selves": 1554,
      "Ġbecome": 1555,
      "oot": 1556,
      "Ġouts": 1557,
      "tice": 1558,
      "Ġdiverse": 1559,
      "Ġallowing": 1560,
      "joy": 1561,
      "Ġnet": 1562,
      "erous": 1563,
      "Ġaud": 1564,
      "Ġfuture": 1565,
      "Ġyears": 1566,
      "Ġonline": 1567,
      "iv": 1568,
      "Ġrun": 1569,
      "ined": 1570,
      "Ġlim": 1571,
      "Ġcontinu": 1572,
      "Ġmaintaining": 1573,
      "Ġ3": 1574,
      "Ġtechniques": 1575,
      "reng": 1576,
      "Ġ&": 1577,
      "Ġimportance": 1578,
      "Ġmultiple": 1579,
      "action": 1580,
      "ger": 1581,
      "Ġseem": 1582,
      "ĠYou": 1583,
      "Ġuser": 1584,
      "Ġtail": 1585,
      "To": 1586,
      "Ġencour": 1587,
      "Ġimplement": 1588,
      "Ġcra": 1589,
      "ĠTo": 1590,
      "sequ": 1591,
      "ograp": 1592,
      "Ġrequires": 1593,
      "ex": 1594,
      "Ġpresent": 1595,
      "Ġbal": 1596,
      "Ġenjoy": 1597,
      "aling": 1598,
      "ists": 1599,
      "ink": 1600,
      "ject": 1601,
      "Ġsw": 1602,
      "Ġquality": 1603,
      "Ġstill": 1604,
      "Ġteam": 1605,
      "Ġcomb": 1606,
      "Ġstep": 1607,
      "ired": 1608,
      "Ġkeep": 1609,
      "Ġtar": 1610,
      "ators": 1611,
      "ĠFrom": 1612,
      "iring": 1613,
      "lect": 1614,
      "Ġphys": 1615,
      "Ġlar": 1616,
      "aining": 1617,
      "Ġtrust": 1618,
      "erv": 1619,
      "Ġincreasing": 1620,
      "Ġinvolves": 1621,
      "Ġdon": 1622,
      "plic": 1623,
      "atives": 1624,
      "ream": 1625,
      "Ġself": 1626,
      "Ġfeatures": 1627,
      "Ġprovides": 1628,
      "ĠThrough": 1629,
      "Ġplatforms": 1630,
      "ĠAnd": 1631,
      "ili": 1632,
      "Ġincorpor": 1633,
      "ars": 1634,
      "ries": 1635,
      "Ġutil": 1636,
      "Ġparticip": 1637,
      "ash": 1638,
      "ection": 1639,
      "Ġnavig": 1640,
      "Ġsoft": 1641,
      "Ġleading": 1642,
      "Ġoutside": 1643,
      "Ġdr": 1644,
      "care": 1645,
      "view": 1646,
      "tives": 1647,
      "Ġstreng": 1648,
      "Ġguid": 1649,
      "Ġknowledge": 1650,
      "Ġstudents": 1651,
      "Ġpiec": 1652,
      "Ġstruc": 1653,
      "work": 1654,
      "Ġdirect": 1655,
      "Ġ'": 1656,
      "Ġdecided": 1657,
      "Ġpoin": 1658,
      "Ġret": 1659,
      "Ġvalu": 1660,
      "Ġinflu": 1661,
      "Ġcontribute": 1662,
      "ny": 1663,
      "Ġsad": 1664,
      "Ġlaw": 1665,
      "Ġprim": 1666,
      "ze": 1667,
      "ĠWe": 1668,
      "Ġtoday": 1669,
      "ember": 1670,
      "Ġquick": 1671,
      "Ġmar": 1672,
      "Ġmarketing": 1673,
      "Ġindustry": 1674,
      "fact": 1675,
      "cept": 1676,
      "Ġpat": 1677,
      "oud": 1678,
      "Ġpo": 1679,
      "Ġless": 1680,
      "Ġaspect": 1681,
      "Ġwr": 1682,
      "Ġlands": 1683,
      "Ġoptions": 1684,
      "tention": 1685,
      "Ġmen": 1686,
      "aces": 1687,
      "hold": 1688,
      "Ġcontrol": 1689,
      "Ġgot": 1690,
      "When": 1691,
      "udden": 1692,
      "Ġappre": 1693,
      "Ġfil": 1694,
      "Ġgi": 1695,
      "Ġsurround": 1696,
      "Ġtarget": 1697,
      "Ġcount": 1698,
      "Ġfield": 1699,
      "Ġmat": 1700,
      "fort": 1701,
      "aches": 1702,
      "Ġremains": 1703,
      "alu": 1704,
      "Ġlooking": 1705,
      "pite": 1706,
      "Ġwhether": 1707,
      "ograph": 1708,
      "eed": 1709,
      "Ġshare": 1710,
      "cho": 1711,
      "ners": 1712,
      "acing": 1713,
      "Ġdetail": 1714,
      "Ġeas": 1715,
      "Ġrelationships": 1716,
      "Ġfore": 1717,
      "ason": 1718,
      "Ġhard": 1719,
      "Ġadap": 1720,
      "pping": 1721,
      "ological": 1722,
      "Ġmodern": 1723,
      "Ġefforts": 1724,
      "uce": 1725,
      "Ġmove": 1726,
      "err": 1727,
      "gress": 1728,
      "ditions": 1729,
      "Ġconsum": 1730,
      "Ġeducation": 1731,
      "Ġplace": 1732,
      "Ġtransform": 1733,
      "read": 1734,
      "Ġlandsc": 1735,
      "But": 1736,
      "inal": 1737,
      "Ġcli": 1738,
      "be": 1739,
      "Ġcertain": 1740,
      "Ġtransp": 1741,
      "Ġsug": 1742,
      "Ġgover": 1743,
      "Ġlist": 1744,
      "Ġlevels": 1745,
      "uck": 1746,
      "ergy": 1747,
      "orts": 1748,
      "Ġright": 1749,
      "Ġcomponents": 1750,
      "Ġappreci": 1751,
      "Ġsafety": 1752,
      "Ġcame": 1753,
      "Ġel": 1754,
      "Ġgroup": 1755,
      "Ġelements": 1756,
      "Ġpain": 1757,
      "yn": 1758,
      "Ġrelev": 1759,
      "actions": 1760,
      "Ġview": 1761,
      "isting": 1762,
      "io": 1763,
      "Ġfamily": 1764,
      "Ġmaking": 1765,
      "Ġdeli": 1766,
      "Ġbroad": 1767,
      "ĠIm": 1768,
      "ishing": 1769,
      "elling": 1770,
      "Ġanaly": 1771,
      "Ġclear": 1772,
      "Ġpic": 1773,
      "Ġmembers": 1774,
      "Ġrepresent": 1775,
      "ank": 1776,
      "Ġemo": 1777,
      "Ġthree": 1778,
      "Ġregul": 1779,
      "Ġeffectively": 1780,
      "istic": 1781,
      "aster": 1782,
      "Ġtreat": 1783,
      "Ġmedia": 1784,
      "ufact": 1785,
      "ĠTr": 1786,
      "Ġuntil": 1787,
      "roduc": 1788,
      ".,": 1789,
      "Ġroom": 1790,
      "Ġfollowing": 1791,
      "Another": 1792,
      "Ġparticularly": 1793,
      "Ġpopular": 1794,
      "Ġnumerous": 1795,
      "Ġnever": 1796,
      "Ġtrend": 1797,
      "Ġmind": 1798,
      "Ġcompeti": 1799,
      "term": 1800,
      "Ġques": 1801,
      "Ġconcerns": 1802,
      "Ġavailable": 1803,
      "pos": 1804,
      "Ġve": 1805,
      "erc": 1806,
      "aren": 1807,
      "ĠEm": 1808,
      "ohn": 1809,
      "Ġded": 1810,
      "Ġtree": 1811,
      "Ġserve": 1812,
      "Ġpoli": 1813,
      "iety": 1814,
      "Ġsun": 1815,
      "ale": 1816,
      "Ġconst": 1817,
      "Ġemerg": 1818,
      "Ġpriv": 1819,
      "az": 1820,
      "Ġmess": 1821,
      "ove": 1822,
      "Ġextract": 1823,
      "ched": 1824,
      "atic": 1825,
      "ron": 1826,
      "Ġrather": 1827,
      "âĢĻ": 1828,
      "Ġexperiences": 1829,
      "Ġpositive": 1830,
      "rent": 1831,
      "Ġconditions": 1832,
      "Ġprocesses": 1833,
      "Ġvers": 1834,
      "auti": 1835,
      "First": 1836,
      "Ġcommitment": 1837,
      "ource": 1838,
      "Ġbecause": 1839,
      "Ġdecision": 1840,
      "Ġmeaning": 1841,
      "hat": 1842,
      "Ġtook": 1843,
      "back": 1844,
      "oid": 1845,
      "Ġnecessary": 1846,
      "ĠAt": 1847,
      "Ġwithout": 1848,
      "Ġsafe": 1849,
      "Ġdog": 1850,
      "avor": 1851,
      "Ġcase": 1852,
      "has": 1853,
      "ince": 1854,
      "Ġhig": 1855,
      "Ġsust": 1856,
      "Ġpay": 1857,
      "time": 1858,
      "aus": 1859,
      "Ġlau": 1860,
      "Ġshared": 1861,
      "Ġcommon": 1862,
      "Ġbehind": 1863,
      "vis": 1864,
      "uddenly": 1865,
      "Ġmaterials": 1866,
      "Ġnear": 1867,
      "Ġsl": 1868,
      "Ġlight": 1869,
      "acter": 1870,
      "Ġund": 1871,
      "Ġsecurity": 1872,
      "Ġenhance": 1873,
      "jects": 1874,
      "Ġwebs": 1875,
      "Ġglob": 1876,
      "Ġsolutions": 1877,
      "irit": 1878,
      "Ġoutc": 1879,
      "Ġyourself": 1880,
      "Ġ201": 1881,
      "vity": 1882,
      "Ġrece": 1883,
      "Ġcritical": 1884,
      "Ġensures": 1885,
      "Ġpromoting": 1886,
      "Ġcloser": 1887,
      "Ġrob": 1888,
      "Ġdesigned": 1889,
      "Ġevents": 1890,
      "com": 1891,
      "Ġanim": 1892,
      "ĠHis": 1893,
      "hens": 1894,
      "Ġbuilding": 1895,
      "Ġmanufact": 1896,
      "Ġrecent": 1897,
      "ext": 1898,
      "Ġhold": 1899,
      "Ġstory": 1900,
      "Ġareas": 1901,
      "Ġhouse": 1902,
      "Ġbehav": 1903,
      "ises": 1904,
      "ration": 1905,
      "irc": 1906,
      "ĠGod": 1907,
      "Ġcat": 1908,
      "Ġstri": 1909,
      "Ġill": 1910,
      "ĠEvery": 1911,
      "versity": 1912,
      "Ġvaluable": 1913,
      "Ġscen": 1914,
      "Ġservice": 1915,
      "Ġattention": 1916,
      "Ġexploring": 1917,
      "Ġmental": 1918,
      "Ġclass": 1919,
      "Ġtas": 1920,
      "abilities": 1921,
      "Ġadvent": 1922,
      "Ġserves": 1923,
      "ees": 1924,
      "Ġinside": 1925,
      "Ġenti": 1926,
      "Ġapplications": 1927,
      "hor": 1928,
      "Ġultimately": 1929,
      "Ġstate": 1930,
      "of": 1931,
      "Ġsens": 1932,
      "Ġincreased": 1933,
      "Ġcustomer": 1934,
      "pr": 1935,
      "Ġsitu": 1936,
      "Ġdra": 1937,
      "ĠAcc": 1938,
      "Ġhaving": 1939,
      "Ġocc": 1940,
      "Ġsustain": 1941,
      "Ġprovided": 1942,
      "Ġtem": 1943,
      "Ġdoc": 1944,
      "Ġpress": 1945,
      "ara": 1946,
      "Ġlove": 1947,
      "ph": 1948,
      "Ġball": 1949,
      "Ġenergy": 1950,
      "Ġjourney": 1951,
      "Ġground": 1952,
      "Ġselec": 1953,
      "ously": 1954,
      "Ġembr": 1955,
      "Ġscared": 1956,
      "ynam": 1957,
      "Ġengagement": 1958,
      "ck": 1959,
      "autiful": 1960,
      "Ġact": 1961,
      "ones": 1962,
      "ody": 1963,
      "Ġemphas": 1964,
      "Ġlay": 1965,
      "amm": 1966,
      "Ġhealthcare": 1967,
      "Ġcul": 1968,
      "Ġinstit": 1969,
      "Ġbelie": 1970,
      "Ġconnections": 1971,
      "Ġadvant": 1972,
      "Ġproducts": 1973,
      "Ġdidn": 1974,
      "Ġbeautiful": 1975,
      "Ġnow": 1976,
      "Ġemb": 1977,
      "Ġhelps": 1978,
      "Ġleaders": 1979,
      "Ġsound": 1980,
      "Ġaccur": 1981,
      "Ġfunctional": 1982,
      "Ġmakes": 1983,
      "Ġshap": 1984,
      "Ġaltern": 1985,
      "Ġdeterm": 1986,
      "Ġcommunities": 1987,
      "Ġengaging": 1988,
      "Ġfacilit": 1989,
      "aries": 1990,
      "Ġprofessionals": 1991,
      "elines": 1992,
      "Ġperf": 1993,
      "Ġworking": 1994,
      "Ġinv": 1995,
      "Ġdad": 1996,
      "Ġgame": 1997,
      "ĠInd": 1998,
      "Ġeveryone": 1999,
      "ret": 2000,
      "Ġphysical": 2001,
      "Ġfund": 2002,
      "Ġthemselves": 2003,
      "Ġsurrounding": 2004,
      "Ġvalues": 2005,
      "Ġprogress": 2006,
      "Ġinformed": 2007,
      "ral": 2008,
      "Ġfood": 2009,
      "Ġmeet": 2010,
      "Ġgovern": 2011,
      "Ġhigher": 2012,
      "Ġey": 2013,
      "ames": 2014,
      "Ġaddressing": 2015,
      "Ġevol": 2016,
      "izes": 2017,
      "Ġenables": 2018,
      "Ġability": 2019,
      "Ġproduct": 2020,
      "Ġprior": 2021,
      "Ġyet": 2022,
      "Ġappe": 2023,
      "Ġbecomes": 2024,
      "nderstand": 2025,
      "osing": 2026,
      "na": 2027,
      "inary": 2028,
      "Ġtailored": 2029,
      "ters": 2030,
      "Ġgreat": 2031,
      "Ġcalled": 2032,
      "ferences": 2033,
      "Ġcontent": 2034,
      "min": 2035,
      "Ġvital": 2036,
      "Ġquickly": 2037,
      "cy": 2038,
      "ĠAr": 2039,
      "osp": 2040,
      "Ġliked": 2041,
      "Ġmusic": 2042,
      "aching": 2043,
      "Ġcustomers": 2044,
      "Ġcry": 2045,
      "Ġinsp": 2046,
      "ologies": 2047,
      "Ġrelevant": 2048,
      "entially": 2049,
      "ĠRes": 2050,
      "Ġsty": 2051,
      "echan": 2052,
      "Ġmethods": 2053,
      "orn": 2054,
      "Ġface": 2055,
      "Ġhere": 2056,
      "Ġtravel": 2057,
      "Ġpolicy": 2058,
      "Ġarti": 2059,
      "Ġpowerful": 2060,
      "ele": 2061,
      "Åĵ": 2062,
      "Ġclean": 2063,
      "pective": 2064,
      "Ġcollaboration": 2065,
      "eric": 2066,
      "Ġclose": 2067,
      "Ġoutcomes": 2068,
      "oss": 2069,
      "Ġcharacter": 2070,
      "Ġste": 2071,
      "Ġknew": 2072,
      "Ġvisual": 2073,
      "side": 2074,
      "Ġregular": 2075,
      "atory": 2076,
      "part": 2077,
      "ission": 2078,
      "Ġheard": 2079,
      "the": 2080,
      "ites": 2081,
      "Ġpattern": 2082,
      "aps": 2083,
      "Ġbeg": 2084,
      "ĠMan": 2085,
      "Ġactivities": 2086,
      "Lily": 2087,
      "Ġturn": 2088,
      "Ġfocusing": 2089,
      "ium": 2090,
      "going": 2091,
      "Ġever": 2092,
      "ĠSp": 2093,
      "ĠThere": 2094,
      "Ġsimilar": 2095,
      "now": 2096,
      "ditional": 2097,
      "Ġcouldn": 2098,
      "Ġresults": 2099,
      "Ġenhancing": 2100,
      "ument": 2101,
      "ute": 2102,
      "Ġprograms": 2103,
      "ends": 2104,
      "Ġevalu": 2105,
      "Ġcompany": 2106,
      "pecial": 2107,
      "Ġtherap": 2108,
      "Ġra": 2109,
      "So": 2110,
      "co": 2111,
      "Ġpost": 2112,
      "Ġspirit": 2113,
      "astly": 2114,
      "Ġadapt": 2115,
      "Ġrisks": 2116,
      "Ġfre": 2117,
      "aged": 2118,
      "Ġprofessional": 2119,
      "ising": 2120,
      "ips": 2121,
      "Ġupd": 2122,
      "anging": 2123,
      "Ġsal": 2124,
      "Ġcirc": 2125,
      "Ġreli": 2126,
      "Ġsing": 2127,
      "--------------------------------": 2128,
      "Ġvia": 2129,
      "iod": 2130,
      "ened": 2131,
      "Ġevid": 2132,
      "Ġconven": 2133,
      "Ġhead": 2134,
      "Ġdynam": 2135,
      "Ġresult": 2136,
      "It": 2137,
      "Ġrates": 2138,
      "Ġearly": 2139,
      "ict": 2140,
      ":**": 2141,
      "Ġincorporating": 2142,
      "Ġcompre": 2143,
      "ĠChris": 2144,
      "conom": 2145,
      "orting": 2146,
      "Ġexce": 2147,
      "Ġplays": 2148,
      "Ġlandscape": 2149,
      "Ġelec": 2150,
      "Ġtimes": 2151,
      "ster": 2152,
      "Ġalign": 2153,
      "Ġcurrent": 2154,
      "Ġchange": 2155,
      "Ġnature": 2156,
      "ĠComp": 2157,
      "Ġreflec": 2158,
      "abb": 2159,
      "active": 2160,
      "ma": 2161,
      "Ġlies": 2162,
      "Ġappear": 2163,
      "ensive": 2164,
      "Ġknown": 2165,
      "Ġrisk": 2166,
      "asts": 2167,
      "Ġplayed": 2168,
      "encies": 2169,
      "Ġrobust": 2170,
      "pri": 2171,
      "Ġinvolved": 2172,
      "Ġnext": 2173,
      "ended": 2174,
      "Ġfull": 2175,
      "Ġwind": 2176,
      "Ġcaus": 2177,
      "Ġcompared": 2178,
      "Ġengage": 2179,
      "TM": 2180,
      "Ġfoster": 2181,
      "Ġpartners": 2182,
      "Ġaccount": 2183,
      "Ġbalance": 2184,
      "roud": 2185,
      "Ġtrends": 2186,
      "ĠDe": 2187,
      "Ġmeasures": 2188,
      "Ġperfect": 2189,
      "ĠChristi": 2190,
      "Ġgreater": 2191,
      "Ġprevent": 2192,
      "Ġevent": 2193,
      "Ġsoftware": 2194,
      "Ġnon": 2195,
      "Con": 2196,
      "ball": 2197,
      "orm": 2198,
      "Ġprec": 2199,
      "eper": 2200,
      "Ġsince": 2201,
      "Ġbrand": 2202,
      "Ġspecifically": 2203,
      "ches": 2204,
      "asting": 2205,
      "thing": 2206,
      "ury": 2207,
      "Ġsym": 2208,
      "Ġorganization": 2209,
      "Ġcultural": 2210,
      "ĠJack": 2211,
      "Ġmedical": 2212,
      "irt": 2213,
      "ciples": 2214,
      "At": 2215,
      "Key": 2216,
      "ĠÃ¢": 2217,
      "inally": 2218,
      "Ġmechan": 2219,
      "ĠWhether": 2220,
      "Ġdecisions": 2221,
      "Ġproud": 2222,
      "omen": 2223,
      "pro": 2224,
      "Ġexpress": 2225,
      "plications": 2226,
      "iny": 2227,
      "Ġtypically": 2228,
      "Ġplanning": 2229,
      "Ġalike": 2230,
      "ounter": 2231,
      "Ġheart": 2232,
      "Ġspace": 2233,
      "Ġhistory": 2234,
      "ĠCons": 2235,
      "ĠMom": 2236,
      "Ġinnovation": 2237,
      "Ġcompanies": 2238,
      "fer": 2239,
      "Ġfill": 2240,
      "Ġadditional": 2241,
      "Ġintric": 2242,
      "Ġdeliver": 2243,
      "sy": 2244,
      "Ġgoals": 2245,
      "Ġaccording": 2246,
      "Ġvol": 2247,
      "Ġongoing": 2248,
      "Ġprinciples": 2249,
      "Ġ4": 2250,
      "Ġnar": 2251,
      "Ġhistor": 2252,
      "Ġglobal": 2253,
      "Ġcamp": 2254,
      "agn": 2255,
      "der": 2256,
      "uid": 2257,
      "sts": 2258,
      "Ġexpect": 2259,
      "Ġmention": 2260,
      "tise": 2261,
      "Ġfoot": 2262,
      "Ġautom": 2263,
      "ios": 2264,
      "Ġ5": 2265,
      "Ġnat": 2266,
      "ĠSim": 2267,
      "itions": 2268,
      "Ġrepl": 2269,
      "ĠAfter": 2270,
      "Ġworth": 2271,
      "icate": 2272,
      "ulation": 2273,
      "Ġachieve": 2274,
      "opped": 2275,
      "Ġreducing": 2276,
      "ĠAmeric": 2277,
      "tig": 2278,
      "Ġenabling": 2279,
      "Ġchildren": 2280,
      "Ġlives": 2281,
      "ĠSh": 2282,
      "ĠCl": 2283,
      "tures": 2284,
      "Ġpast": 2285,
      "ĠRe": 2286,
      "Ġcosts": 2287,
      "Ġfree": 2288,
      "Ġcontr": 2289,
      "ox": 2290,
      "Ġcut": 2291,
      "Ġinnovative": 2292,
      "Ġbroader": 2293,
      "bility": 2294,
      "hers": 2295,
      "Ġart": 2296,
      "Ġcore": 2297,
      "Ġname": 2298,
      "verage": 2299,
      "ĠOn": 2300,
      "Ġeconom": 2301,
      "Ġbook": 2302,
      "Ġinternational": 2303,
      "Ġinstead": 2304,
      "Ġscho": 2305,
      "Ġtaking": 2306,
      "Ġvo": 2307,
      "Ġcarefully": 2308,
      "Ġcomfort": 2309,
      "**:": 2310,
      "ĠAccording": 2311,
      "Ġsays": 2312,
      "Ġsearch": 2313,
      "Ġmanaging": 2314,
      "Ġtraining": 2315,
      "Ġrecord": 2316,
      "enced": 2317,
      "Ġcraf": 2318,
      "Ġrequirements": 2319,
      "Ġfar": 2320,
      "ĠHer": 2321,
      "Ġda": 2322,
      "Ġstrategic": 2323,
      "Ġexisting": 2324,
      "Ġadop": 2325,
      "Ġflex": 2326,
      "plif": 2327,
      "just": 2328,
      "axim": 2329,
      "Ġhop": 2330,
      "ening": 2331,
      "Ġharm": 2332,
      "Ġmeans": 2333,
      "Ġmommy": 2334,
      "Now": 2335,
      "Ġcal": 2336,
      "ĠDes": 2337,
      "nderstanding": 2338,
      "ident": 2339,
      "urt": 2340,
      "Ġproble": 2341,
      "Ġjoin": 2342,
      "'ll": 2343,
      "hy": 2344,
      "Ġconvers": 2345,
      "istance": 2346,
      "Ġamid": 2347,
      "Ġtou": 2348,
      "Ġdam": 2349,
      "icial": 2350,
      "ides": 2351,
      "Ġclients": 2352,
      "edi": 2353,
      "Ġmonit": 2354,
      "Ġassess": 2355,
      "Ġlarge": 2356,
      "Ġincreasingly": 2357,
      "based": 2358,
      "iet": 2359,
      "making": 2360,
      "ighting": 2361,
      "Ġmere": 2362,
      "ains": 2363,
      "Ġappropri": 2364,
      "works": 2365,
      "Ġsteps": 2366,
      "Ġlea": 2367,
      "Ġkind": 2368,
      "ewel": 2369,
      "Ġpatterns": 2370,
      "Ġconcept": 2371,
      "quality": 2372,
      "Ġbar": 2373,
      "ilience": 2374,
      "ĠIf": 2375,
      "Ġcomput": 2376,
      "Ġter": 2377,
      "asc": 2378,
      "veness": 2379,
      "Ġsum": 2380,
      "Ġtoy": 2381,
      "urance": 2382,
      "pecially": 2383,
      "Ġchallenging": 2384,
      "oll": 2385,
      "ĠReg": 2386,
      "Ġyoun": 2387,
      "porary": 2388,
      "Ġaimed": 2389,
      "Ġshif": 2390,
      "Ġpossible": 2391,
      "ects": 2392,
      "Ġones": 2393,
      "Ġperiod": 2394,
      "Ġsatis": 2395,
      "Ġdeeper": 2396,
      "Ġdraw": 2397,
      "ĠSam": 2398,
      "Ġmor": 2399,
      "Ġorig": 2400,
      "angu": 2401,
      "ecting": 2402,
      "Ġvi": 2403,
      "Ġbox": 2404,
      "Ġdistin": 2405,
      "Ġcomprehens": 2406,
      "Ġtold": 2407,
      "Ġtypes": 2408,
      "Ġinclus": 2409,
      "Ġcourse": 2410,
      "Ġdive": 2411,
      "Ġitself": 2412,
      "Ġactive": 2413,
      "uly": 2414,
      "iter": 2415,
      "Ġidea": 2416,
      "cri": 2417,
      "not": 2418,
      "Ġflow": 2419,
      "Ġconduc": 2420,
      "Ġchanges": 2421,
      "Ġquestions": 2422,
      "Ġespecially": 2423,
      "Ġtoys": 2424,
      "Ġcontinue": 2425,
      "Ġinvolve": 2426,
      "Ġmaxim": 2427,
      "Ġrich": 2428,
      "Ġgave": 2429,
      "Ġremember": 2430,
      "iliar": 2431,
      "ules": 2432,
      "ground": 2433,
      "Ġpros": 2434,
      "Ġhighlights": 2435,
      "Ġ19": 2436,
      "Ġcy": 2437,
      "Ġwond": 2438,
      "Ġgard": 2439,
      "Ġworks": 2440,
      "Ġdelve": 2441,
      "Ġlegal": 2442,
      "Ġpotentially": 2443,
      "Ġresilience": 2444,
      "Ġmeaningful": 2445,
      "Ġbegin": 2446,
      "Ġfa": 2447,
      "Ġfew": 2448,
      "Ġstudy": 2449,
      "ĠComm": 2450,
      "Ġdirectly": 2451,
      "zing": 2452,
      "let": 2453,
      "room": 2454,
      "Ġsatisf": 2455,
      "Ġposition": 2456,
      "ĠPl": 2457,
      "Ġteams": 2458,
      "cer": 2459,
      "Ġsharing": 2460,
      "ode": 2461,
      "outh": 2462,
      "Ġtrad": 2463,
      "Ġstrength": 2464,
      "tif": 2465,
      "Ġpolicies": 2466,
      "Ġpath": 2467,
      "Ġdoing": 2468,
      "holders": 2469,
      "ote": 2470,
      "ĠBe": 2471,
      "Ġrelated": 2472,
      "Ġdevices": 2473,
      "Ġclim": 2474,
      "Ġefficiency": 2475,
      "Ġaware": 2476,
      "Ġexpertise": 2477,
      "Ġopportunity": 2478,
      "aim": 2479,
      "Ġ`": 2480,
      "Ġstrategy": 2481,
      "Ġdifferen": 2482,
      "Ġexec": 2483,
      "ĠJohn": 2484,
      "Ġpractice": 2485,
      "Ġsure": 2486,
      "urs": 2487,
      "Ġcontext": 2488,
      "Ġauthor": 2489,
      "Ġsecure": 2490,
      "Ġbehavior": 2491,
      "Ġculture": 2492,
      "Ġz": 2493,
      "ugged": 2494,
      "Ġconstruc": 2495,
      "ived": 2496,
      "Ġwarm": 2497,
      "amless": 2498,
      "Ġplayers": 2499,
      "ellow": 2500,
      "Ġair": 2501,
      "ĠApp": 2502,
      "Ġstake": 2503,
      "Ġtes": 2504,
      "Ġcapabilities": 2505,
      "Ġidentify": 2506,
      "Ġpiece": 2507,
      "Ġthre": 2508,
      "ĠAc": 2509,
      "ush": 2510,
      "Ġempower": 2511,
      "Ġnatural": 2512,
      "app": 2513,
      "put": 2514,
      "Ġvide": 2515,
      "face": 2516,
      "ems": 2517,
      "Ġjob": 2518,
      "Ġsubst": 2519,
      "Ġfeeling": 2520,
      "Ġvisit": 2521,
      "Ġoperations": 2522,
      "Ġways": 2523,
      "Ġcontem": 2524,
      "lo": 2525,
      "ĠCol": 2526,
      "Ġregion": 2527,
      "Ġsignificance": 2528,
      "Ġsmo": 2529,
      "Ġpack": 2530,
      "Ġinj": 2531,
      "Ġpreferences": 2532,
      "ĠInst": 2533,
      "Ġexpand": 2534,
      "itle": 2535,
      "This": 2536,
      "Ġbreak": 2537,
      "Ġtried": 2538,
      "Ġtruly": 2539,
      "Ġseamless": 2540,
      "They": 2541,
      "Ġreput": 2542,
      "Ġfeed": 2543,
      "Ġresponsible": 2544,
      "Ġhands": 2545,
      "force": 2546,
      "inating": 2547,
      "Ġbi": 2548,
      "Ġheav": 2549,
      "Ġreach": 2550,
      "hic": 2551,
      "Ġliving": 2552,
      "Ġimproved": 2553,
      "Ġestablish": 2554,
      "ded": 2555,
      "Ġbas": 2556,
      "elebr": 2557,
      "Ġgarden": 2558,
      "Ġsil": 2559,
      "Ġbody": 2560,
      "Ġlangu": 2561,
      "Ġproced": 2562,
      "Ġconfid": 2563,
      "Ġamidst": 2564,
      "aff": 2565,
      "Ġadjust": 2566,
      "Ġavoid": 2567,
      "Ġstream": 2568,
      "Ġmentioned": 2569,
      "Ġneeded": 2570,
      "ysis": 2571,
      "Ġinstitutions": 2572,
      "Ġreve": 2573,
      "Ġlots": 2574,
      "Ġanimals": 2575,
      "Ġpromote": 2576,
      "Ġfavor": 2577,
      "Ġbear": 2578,
      "Let": 2579,
      "Ġsection": 2580,
      "Ġdemand": 2581,
      "ounts": 2582,
      "Ġprimary": 2583,
      "What": 2584,
      "Ġing": 2585,
      "Ġthanked": 2586,
      "Ġjewel": 2587,
      "Ġhowever": 2588,
      "Ġtechnologies": 2589,
      "Ġoptimal": 2590,
      "Moreover": 2591,
      "Ġseason": 2592,
      "pected": 2593,
      "rel": 2594,
      "Ġlow": 2595,
      "Ġaction": 2596,
      "ĠOr": 2597,
      "Ġapplication": 2598,
      "iance": 2599,
      "Ġwatch": 2600,
      "Ġshort": 2601,
      "Ġsky": 2602,
      "Ġevidence": 2603,
      "Ġwebsite": 2604,
      "uit": 2605,
      "Ġproduction": 2606,
      "Ġsolid": 2607,
      "Ġobs": 2608,
      "rant": 2609,
      "Ġfast": 2610,
      "Ġtreatment": 2611,
      "dy": 2612,
      "icious": 2613,
      "ours": 2614,
      "Ġpatients": 2615,
      "rep": 2616,
      "sequently": 2617,
      "Ġtext": 2618,
      "Ġapproaches": 2619,
      "Ġrefers": 2620,
      "ole": 2621,
      "Ġsame": 2622,
      "emic": 2623,
      "Ġyoung": 2624,
      "Ġsomeone": 2625,
      "Ġforms": 2626,
      "Ġspe": 2627,
      "Ġchann": 2628,
      "Ġseen": 2629,
      "Lastly": 2630,
      "Ġtry": 2631,
      "Ġunc": 2632,
      "Ġembracing": 2633,
      "hood": 2634,
      "ised": 2635,
      "ucy": 2636,
      "Ġsoon": 2637,
      "Ġconsistent": 2638,
      "Ġentire": 2639,
      "Ġrange": 2640,
      "Ġcultiv": 2641,
      "Ġnarra": 2642,
      "iences": 2643,
      "Ġsense": 2644,
      "play": 2645,
      "ĠĠĠĠ": 2646,
      "Ġsources": 2647,
      "Ġcelebr": 2648,
      "Ġsets": 2649,
      "Ġcand": 2650,
      "arily": 2651,
      "Ġet": 2652,
      "ĠSuch": 2653,
      "Ġstakeholders": 2654,
      "Ġengine": 2655,
      "Ġshaping": 2656,
      "tle": 2657,
      "erson": 2658,
      "hentic": 2659,
      "Ġterms": 2660,
      "Ġfit": 2661,
      "Ġinterven": 2662,
      "tivity": 2663,
      "Ġreview": 2664,
      "anti": 2665,
      "acts": 2666,
      "ustr": 2667,
      "ilt": 2668,
      "Ġenable": 2669,
      "Ġeducational": 2670,
      "Ġfunction": 2671,
      "Ġreturn": 2672,
      "Ġapart": 2673,
      "Ġdial": 2674,
      "Ġindic": 2675,
      "ĠChristian": 2676,
      "itc": 2677,
      "ĠMax": 2678,
      "idents": 2679,
      "Firstly": 2680,
      "onse": 2681,
      "Ġhistorical": 2682,
      "Ġmach": 2683,
      "Ġpurch": 2684,
      "Ġrepresents": 2685,
      "Ġpatient": 2686,
      "ghed": 2687,
      "Ġinitiatives": 2688,
      "clusion": 2689,
      "oration": 2690,
      "orough": 2691,
      "Ġneg": 2692,
      "ean": 2693,
      "ery": 2694,
      "Ġmis": 2695,
      "Ġeth": 2696,
      "Ġhugged": 2697,
      "Ġprojects": 2698,
      "ĠNew": 2699,
      "Ġrequired": 2700,
      "Ġshowc": 2701,
      "Ġlaughed": 2702,
      "Ġthereby": 2703,
      "Ġfrequ": 2704,
      "Ġappropriate": 2705,
      "aut": 2706,
      "Ġqual": 2707,
      "Ġforward": 2708,
      "Ġann": 2709,
      "ont": 2710,
      "ternal": 2711,
      "Ġexpos": 2712,
      "Ġproperty": 2713,
      "Ġlearned": 2714,
      "Ġsettings": 2715,
      "Ġnavigate": 2716,
      "Ġproject": 2717,
      "ibilities": 2718,
      "Ġroles": 2719,
      "Ġhost": 2720,
      "Ġmanufacturing": 2721,
      "Ġsn": 2722,
      "me": 2723,
      "Ġma": 2724,
      "Ġrights": 2725,
      "Ġresulting": 2726,
      "minist": 2727,
      "Ġrout": 2728,
      "Ġpret": 2729,
      "ds": 2730,
      "Ġsqu": 2731,
      "Ġwat": 2732,
      "Ġdeb": 2733,
      "times": 2734,
      "Ġthin": 2735,
      "Ġarea": 2736,
      "Ġcolor": 2737,
      "Ġbra": 2738,
      "Ġpred": 2739,
      "Ġfeature": 2740,
      "Ġenvironments": 2741,
      "Ġimplementing": 2742,
      "Ġspiritual": 2743,
      "sych": 2744,
      "ule": 2745,
      "ĠInt": 2746,
      "Ġrespect": 2747,
      "Ġstrugg": 2748,
      "Ġremind": 2749,
      "Ġconnection": 2750,
      "ĠTitle": 2751,
      "Ġjump": 2752,
      "Ġbound": 2753,
      "Ġpreser": 2754,
      "Ġenvironmental": 2755,
      "Ġcater": 2756,
      "Ġang": 2757,
      "Ġlived": 2758,
      "Ġmanage": 2759,
      "Ġswe": 2760,
      "Ġbed": 2761,
      "Ġinstall": 2762,
      "Ġcred": 2763,
      "Ġemotional": 2764,
      "Ġdeveloping": 2765,
      "ĠQ": 2766,
      "Ġimpress": 2767,
      "Ġcreative": 2768,
      "Ġadvanced": 2769,
      "Ġadventure": 2770,
      "ingly": 2771,
      "Ġdom": 2772,
      "Ġhar": 2773,
      "Ġsociety": 2774,
      "Ġcapable": 2775,
      "Ġpolitical": 2776,
      "aign": 2777,
      "ek": 2778,
      "oph": 2779,
      "though": 2780,
      "20": 2781,
      "Ġline": 2782,
      "Ġlocation": 2783,
      "Ġgroups": 2784,
      "int": 2785,
      "Ġenough": 2786,
      "ĠSara": 2787,
      "Ġconsumers": 2788,
      "Ġequip": 2789,
      "ĠSome": 2790,
      "Ġdespite": 2791,
      "Ġadvance": 2792,
      "Ġpurs": 2793,
      "Ġinterp": 2794,
      "'m": 2795,
      "Ġelectr": 2796,
      "man": 2797,
      "Ġwide": 2798,
      "ender": 2799,
      "Ġvoice": 2800,
      "Ġlog": 2801,
      "fully": 2802,
      "Ġarr": 2803,
      "Ġtasks": 2804,
      "Ġexh": 2805,
      "Ġlower": 2806,
      "Ġbenefit": 2807,
      "Ġstandards": 2808,
      "Ġcollective": 2809,
      "augh": 2810,
      "use": 2811,
      "rown": 2812,
      "Ġdetails": 2813,
      "Ġnice": 2814,
      "irm": 2815,
      "acks": 2816,
      "Ġsugges": 2817,
      "Ġexcell": 2818,
      "Ġcross": 2819,
      "Ġstories": 2820,
      "ystem": 2821,
      "ator": 2822,
      "isms": 2823,
      "Ġissue": 2824,
      "Ġage": 2825,
      "icated": 2826,
      "Ġestablished": 2827,
      "cl": 2828,
      "itig": 2829,
      "rup": 2830,
      "However": 2831,
      "oe": 2832,
      "Ġrig": 2833,
      "Ġgoing": 2834,
      "Ġalternative": 2835,
      "Ġinvesting": 2836,
      "Ġjewelry": 2837,
      "Ġonto": 2838,
      "Ġkept": 2839,
      "eration": 2840,
      "Ġfair": 2841,
      "Ġexcep": 2842,
      "Ġfail": 2843,
      "Ġfunctionality": 2844,
      "Ġfire": 2845,
      "Ġstress": 2846,
      "ĠThen": 2847,
      "Ġparties": 2848,
      "crib": 2849,
      "acking": 2850,
      "Ġbuy": 2851,
      "Ġresponse": 2852,
      "tenance": 2853,
      "Ġtype": 2854,
      "Ġwar": 2855,
      "Ġfall": 2856,
      "Ġmob": 2857,
      "aced": 2858,
      "ify": 2859,
      "Ġdialog": 2860,
      "uing": 2861,
      "ung": 2862,
      "Ġexpectations": 2863,
      "ades": 2864,
      "apid": 2865,
      "Ġprivacy": 2866,
      "Ġawareness": 2867,
      "ĠPr": 2868,
      "Ġphot": 2869,
      "Ġtransport": 2870,
      "Ġcontemporary": 2871,
      "Mom": 2872,
      "Ġ$": 2873,
      "oor": 2874,
      "Ġthorough": 2875,
      "Ġinvestig": 2876,
      "redi": 2877,
      "Ġstat": 2878,
      "ĠIs": 2879,
      "Ġcomplete": 2880,
      "Ġauthentic": 2881,
      "Ġstructure": 2882,
      "Conclusion": 2883,
      "Ġfaith": 2884,
      "ulner": 2885,
      "Ġexerc": 2886,
      "Ġcompl": 2887,
      "Ġrelationship": 2888,
      "Ġexperienced": 2889,
      "###": 2890,
      "Ġpieces": 2891,
      "Ġtool": 2892,
      "epend": 2893,
      "Ġfaced": 2894,
      "Ġver": 2895,
      "utes": 2896,
      "ativity": 2897,
      "Ġtechnical": 2898,
      "``": 2899,
      "Ġexciting": 2900,
      "Ġcompetitive": 2901,
      "Ġunders": 2902,
      "cle": 2903,
      "ony": 2904,
      "ĠCo": 2905,
      "Ġreduce": 2906,
      "ĠCont": 2907,
      "Ġalongside": 2908,
      "Ġcampaign": 2909,
      "Ġsle": 2910,
      "uff": 2911,
      "ultane": 2912,
      "Ġdaily": 2913,
      "oney": 2914,
      "ĠConsequently": 2915,
      "Ġdriving": 2916,
      "Ġstrengt": 2917,
      "Ġeasy": 2918,
      "ĠTheir": 2919,
      "enses": 2920,
      "Ġchallenge": 2921,
      "Ġinitial": 2922,
      "Ġwalking": 2923,
      "ude": 2924,
      "Ġinterests": 2925,
      "Ġleft": 2926,
      "ĠPh": 2927,
      "Ġmodels": 2928,
      "Ġonce": 2929,
      "Ġtrue": 2930,
      "Ġaudiences": 2931,
      "Ġadvantages": 2932,
      "Ġcomprehensive": 2933,
      "head": 2934,
      "ffic": 2935,
      "Ġpoints": 2936,
      "Ġfilled": 2937,
      "Ġtest": 2938,
      "Ġdevelopers": 2939,
      "prise": 2940,
      "Ġprocedures": 2941,
      "Ġmaster": 2942,
      "Ġmoment": 2943,
      "olly": 2944,
      "Ġvulner": 2945,
      "ured": 2946,
      "Ġoffering": 2947,
      "Ġnod": 2948,
      "Ġactions": 2949,
      "ĠUnderstanding": 2950,
      "Ġprioriti": 2951,
      "ĠSimilar": 2952,
      "itable": 2953,
      "Ġhot": 2954,
      "lier": 2955,
      "ids": 2956,
      "Ġsched": 2957,
      "Yes": 2958,
      "bo": 2959,
      "Ġside": 2960,
      "Ġprep": 2961,
      "akers": 2962,
      "Ġpossess": 2963,
      "pose": 2964,
      "Ġmut": 2965,
      "Ġstore": 2966,
      "onds": 2967,
      "ĠOver": 2968,
      "arents": 2969,
      "Ġdedicated": 2970,
      "Ġeyes": 2971,
      "ĠGo": 2972,
      "ĠGr": 2973,
      "Ġlimit": 2974,
      "Ġtast": 2975,
      "ĠSc": 2976,
      "ails": 2977,
      "Ġanalysis": 2978,
      "Ġsingle": 2979,
      "Ġtouch": 2980,
      "Ġsumm": 2981,
      "Ġdur": 2982,
      "ulations": 2983,
      "Ġimplications": 2984,
      "Ġcloud": 2985,
      "Ġcontributing": 2986,
      "Ġversati": 2987,
      "Ġ6": 2988,
      "Ġable": 2989,
      "Ġarg": 2990,
      "Ġcontinuous": 2991,
      "Ġsmooth": 2992,
      "Ġequipment": 2993,
      "Ġscenar": 2994,
      "Ġeat": 2995,
      "encing": 2996,
      "Ġintegration": 2997,
      "Ġframe": 2998,
      "being": 2999,
      "Ġcell": 3000,
      "Ġbur": 3001,
      "Ġprevious": 3002,
      "Ġingredi": 3003,
      "rs": 3004,
      "Ġacad": 3005,
      "ompass": 3006,
      "By": 3007,
      "Ġimag": 3008,
      "Ġinfr": 3009,
      "Ġinvestment": 3010,
      "ption": 3011,
      "Ġdest": 3012,
      "oming": 3013,
      "Ġhol": 3014,
      "Ġloss": 3015,
      "ĠThat": 3016,
      "Ġinvolving": 3017,
      "Ġreduced": 3018,
      "land": 3019,
      "ps": 3020,
      "ructure": 3021,
      "Ġgiven": 3022,
      "orry": 3023,
      "Ġexternal": 3024,
      "ticed": 3025,
      "Ġsimple": 3026,
      "Ġflew": 3027,
      "Ġmum": 3028,
      "ĠEach": 3029,
      "ĠRec": 3030,
      "Ġsuper": 3031,
      "Ġguidance": 3032,
      "ultaneously": 3033,
      "wide": 3034,
      "Ġpsych": 3035,
      "Ġbegan": 3036,
      "ified": 3037,
      "Ġscre": 3038,
      "ĠUs": 3039,
      "Ġrequiring": 3040,
      "Ġbackground": 3041,
      "Ġge": 3042,
      "Ġenhanced": 3043,
      "Ġrunning": 3044,
      "Ġchannels": 3045,
      "Ġrapid": 3046,
      "Ġbrave": 3047,
      "herent": 3048,
      "Ġconflic": 3049,
      "Ġappreciation": 3050,
      "ament": 3051,
      "Ġreson": 3052,
      "Ġexamine": 3053,
      "ected": 3054,
      "ably": 3055,
      "Ġnotable": 3056,
      "Ġgreen": 3057,
      "Ġhor": 3058,
      "ĠMed": 3059,
      "Ġillustr": 3060,
      "Ġviol": 3061,
      "Ġloud": 3062,
      "Ġvirt": 3063,
      "ticip": 3064,
      "Ġarri": 3065,
      "Ġconcer": 3066,
      "Ġwalked": 3067,
      "ux": 3068,
      "Ġproviders": 3069,
      "ĠAss": 3070,
      "Ġmaintenance": 3071,
      "Ġmotiv": 3072,
      "Ġimproving": 3073,
      "Ġlanguage": 3074,
      "He": 3075,
      "Ġmill": 3076,
      "Ġgra": 3077,
      "Ġintricate": 3078,
      "Ġfig": 3079,
      "ĠAll": 3080,
      "Ġconsidering": 3081,
      "Ġeffort": 3082,
      "Ġnetwork": 3083,
      "Ġgovernment": 3084,
      "Ġadminist": 3085,
      "atively": 3086,
      "Ġflexibility": 3087,
      "orous": 3088,
      "Ġwin": 3089,
      "Ġmag": 3090,
      "Ġhid": 3091,
      "Ġnight": 3092,
      "Ġresource": 3093,
      "ĠRem": 3094,
      "Ġinfluence": 3095,
      "Ġvehic": 3096,
      "Ġimprovement": 3097,
      "Ġtalent": 3098,
      "Ġcontinued": 3099,
      "ĠTherefore": 3100,
      "Ġcircum": 3101,
      "come": 3102,
      "ivers": 3103,
      "ĠBr": 3104,
      "Ġplayer": 3105,
      "Ġenth": 3106,
      "Ġnavigating": 3107,
      "Ġpoint": 3108,
      "Ġappreciate": 3109,
      "Tim": 3110,
      "Ġcreativity": 3111,
      "Ġbright": 3112,
      "ables": 3113,
      "ĠIts": 3114,
      "Ġarch": 3115,
      "Ġdiscover": 3116,
      "Ġcareer": 3117,
      "ĠBob": 3118,
      "Ġpeace": 3119,
      "Ġschool": 3120,
      "Ġgather": 3121,
      "Ġstaff": 3122,
      "ĠLucy": 3123,
      "Ġencompass": 3124,
      "Ġprogram": 3125,
      "Ġsatisfaction": 3126,
      "Ġhelping": 3127,
      "Ġmodel": 3128,
      "Ġpressure": 3129,
      "Ġleadership": 3130,
      "Ġreliable": 3131,
      "II": 3132,
      "ding": 3133,
      "usi": 3134,
      "Ġoffered": 3135,
      "Ġren": 3136,
      "Ġresol": 3137,
      "Ġconsideration": 3138,
      "Ġextra": 3139,
      "Ġlisten": 3140,
      "Ġri": 3141,
      "ached": 3142,
      "ension": 3143,
      "Ġdiffic": 3144,
      "Ġprotection": 3145,
      "onic": 3146,
      "Ġdim": 3147,
      "apter": 3148,
      "Ġadvoc": 3149,
      "Ġnoise": 3150,
      "ĠAmerican": 3151,
      "ull": 3152,
      "Ġminimizing": 3153,
      "Ġaffor": 3154,
      "Ġsales": 3155,
      "cent": 3156,
      "ged": 3157,
      "gest": 3158,
      "ores": 3159,
      "Ġtable": 3160,
      "Ġparents": 3161,
      "Ġur": 3162,
      "Ġexamining": 3163,
      "eral": 3164,
      "ife": 3165,
      "Ġplans": 3166,
      "Ġnecessit": 3167,
      "Ġtoward": 3168,
      "Ġevolving": 3169,
      "Ġmaj": 3170,
      "For": 3171,
      "mit": 3172,
      "Ġbud": 3173,
      "ĠStr": 3174,
      "Ġsometimes": 3175,
      "Ġseek": 3176,
      "Ġimmedi": 3177,
      "Ġsubstanti": 3178,
      "ĠInstead": 3179,
      "Ġenthusi": 3180,
      "ah": 3181,
      "Ġunderlying": 3182,
      "Ġbecame": 3183,
      "Ġhy": 3184,
      "Ġsuff": 3185,
      "Ġcutting": 3186,
      "know": 3187,
      "where": 3188,
      "ĠZ": 3189,
      "Ġstor": 3190,
      "Ġinsurance": 3191,
      "rics": 3192,
      "Ġidentity": 3193,
      "Ġchoose": 3194,
      "Finally": 3195,
      "pris": 3196,
      "Ġisn": 3197,
      "Ġdoor": 3198,
      "arency": 3199,
      "Ġproblem": 3200,
      "Ġbase": 3201,
      "Ġlive": 3202,
      "Ġfosters": 3203,
      "ĠSimilarly": 3204,
      "hel": 3205,
      "Ġcop": 3206,
      "ager": 3207,
      "Ġparam": 3208,
      "Ġgrowing": 3209,
      "Ġearlier": 3210,
      "Ġstructures": 3211,
      "roduction": 3212,
      "ming": 3213,
      "uments": 3214,
      "pecific": 3215,
      "esthe": 3216,
      "Ġnoticed": 3217,
      "Ġsole": 3218,
      "Ġsustainable": 3219,
      "Ġeconomic": 3220,
      "You": 3221,
      "Ġexist": 3222,
      "Ġintr": 3223,
      "ops": 3224,
      "Ġcompati": 3225,
      "Ġclaim": 3226,
      "Ġcolle": 3227,
      "Ġcook": 3228,
      "Ġcircumst": 3229,
      "ient": 3230,
      "ĠBl": 3231,
      "Ġrecomm": 3232,
      "Ġincrease": 3233,
      "Ġnumber": 3234,
      "Ġcrim": 3235,
      "cing": 3236,
      "Ġsorry": 3237,
      "unch": 3238,
      "oint": 3239,
      "Ġfamiliar": 3240,
      "Ġopened": 3241,
      "Ġtopics": 3242,
      "Ġefficient": 3243,
      "Ġdocument": 3244,
      "Ġvideo": 3245,
      "Ġsepar": 3246,
      "Ġdialogue": 3247,
      "Ġsay": 3248,
      "Ġemerging": 3249,
      "itation": 3250,
      "Ġblue": 3251,
      "Ġmonth": 3252,
      "uel": 3253,
      "odies": 3254,
      "Ġinteractions": 3255,
      "rist": 3256,
      "Ġstopped": 3257,
      "âĢĿ": 3258,
      "ĠDevelop": 3259,
      "overy": 3260,
      "Ġcases": 3261,
      "Ġinherent": 3262,
      "Ġdemands": 3263,
      "Ġready": 3264,
      "ipped": 3265,
      "xim": 3266,
      "Ġacqu": 3267,
      "ĠWor": 3268,
      "Ġhighly": 3269,
      "Ġdistinct": 3270,
      "Ġdamage": 3271,
      "ĠPer": 3272,
      "cepts": 3273,
      "Ġmonitoring": 3274,
      "Ġtax": 3275,
      "Ġbit": 3276,
      "Ġpharm": 3277,
      "That": 3278,
      "Tom": 3279,
      "Ġsus": 3280,
      "Ġfasc": 3281,
      "Ġland": 3282,
      "Ġrelig": 3283,
      "Ġguide": 3284,
      "Ġdedication": 3285,
      "Ġboundaries": 3286,
      "Ġwonder": 3287,
      "Ġwomen": 3288,
      "Ġvib": 3289,
      "Ġeverything": 3290,
      "aly": 3291,
      "Ġbat": 3292,
      "Ġdise": 3293,
      "Ġpresence": 3294,
      "Ġlarger": 3295,
      "Ġcircumstances": 3296,
      "ction": 3297,
      "like": 3298,
      "ither": 3299,
      "Ġstart": 3300,
      "ĠSu": 3301,
      "Ġacknow": 3302,
      "Ġhimself": 3303,
      "set": 3304,
      "uild": 3305,
      "Ġmitig": 3306,
      "ĠSuddenly": 3307,
      "Ġsolution": 3308,
      "Ġregulations": 3309,
      "auty": 3310,
      "Ġport": 3311,
      "Ġalone": 3312,
      "Ġusage": 3313,
      "ĠGuid": 3314,
      "Ġmechanisms": 3315,
      "Ġexceptional": 3316,
      "tiveness": 3317,
      "Ġdat": 3318,
      "ĠAnna": 3319,
      "Ġprotect": 3320,
      "Ġmatch": 3321,
      "Ġexch": 3322,
      "Ġobjec": 3323,
      "vision": 3324,
      "Ġsect": 3325,
      "arc": 3326,
      "Ġencourages": 3327,
      "Ġfacilitate": 3328,
      "Ġsolely": 3329,
      "uts": 3330,
      "Ġdesired": 3331,
      "iversity": 3332,
      "uries": 3333,
      "ĠSec": 3334,
      "Ġhealthy": 3335,
      "Ġreceive": 3336,
      "Ġsize": 3337,
      "aceu": 3338,
      "Ġemployees": 3339,
      "Ġchoosing": 3340,
      "Ġguidelines": 3341,
      "rim": 3342,
      "Ġdoll": 3343,
      "ayer": 3344,
      "Ġcannot": 3345,
      "ĠDa": 3346,
      "Ġcurious": 3347,
      "Ġthri": 3348,
      "Ġattr": 3349,
      "Ġwalk": 3350,
      "Ġaesthe": 3351,
      "Ġsituation": 3352,
      "Ġerr": 3353,
      "Ġslow": 3354,
      "atis": 3355,
      "ler": 3356,
      "Ġten": 3357,
      "Ġcompet": 3358,
      "Ġindepend": 3359,
      "athy": 3360,
      "Ġelev": 3361,
      "Ġaccurate": 3362,
      "Ġrigorous": 3363,
      "uine": 3364,
      "Ġgold": 3365,
      "Ġvac": 3366,
      "Ġclin": 3367,
      "Ġtransparency": 3368,
      "coming": 3369,
      "ersonal": 3370,
      "Ġfour": 3371,
      "Ġfish": 3372,
      "aper": 3373,
      "Int": 3374,
      "val": 3375,
      "aken": 3376,
      "Ġbuilt": 3377,
      "Ġsimultaneously": 3378,
      "ference": 3379,
      "Ġcou": 3380,
      "ighb": 3381,
      "Ġaddition": 3382,
      "Ġsports": 3383,
      "Ġsweet": 3384,
      "esus": 3385,
      "Ġstability": 3386,
      "une": 3387,
      "Ġprogramm": 3388,
      "Ġdemonstrate": 3389,
      "Ġnetworks": 3390,
      "Ġupdates": 3391,
      "af": 3392,
      "onom": 3393,
      "acting": 3394,
      "Ġutilizing": 3395,
      "Ġhours": 3396,
      "ume": 3397,
      "Ġworldwide": 3398,
      "000": 3399,
      "Ġsituations": 3400,
      "Ġopp": 3401,
      "Ġmiss": 3402,
      "Ġgive": 3403,
      "Ġbeauty": 3404,
      "ĠCan": 3405,
      "yal": 3406,
      "ama": 3407,
      "Ġthemes": 3408,
      "ups": 3409,
      "Ġdrive": 3410,
      "Ġoccur": 3411,
      "Ġchapter": 3412,
      "Ġconstit": 3413,
      "Ġcover": 3414,
      "Ġtemper": 3415,
      "Ġshape": 3416,
      "itiz": 3417,
      "Ġreport": 3418,
      "Ġstyle": 3419,
      "Ġafford": 3420,
      "Ġyield": 3421,
      "Ġorder": 3422,
      "Ġartic": 3423,
      "Ġrecip": 3424,
      "Ġhandling": 3425,
      "Ġsensitive": 3426,
      "Ġclosely": 3427,
      "zy": 3428,
      "Ġsite": 3429,
      "Ġgames": 3430,
      "Ġanti": 3431,
      "astructure": 3432,
      "ensions": 3433,
      "Ġsmile": 3434,
      "Ġ202": 3435,
      "Ġintegrating": 3436,
      "ĠEng": 3437,
      "Ġaudience": 3438,
      "iving": 3439,
      "Ġtac": 3440,
      "Ġthing": 3441,
      "---": 3442,
      "Ġnews": 3443,
      "Ġparticipants": 3444,
      "ĠConsider": 3445,
      "Ġcateg": 3446,
      "ĠChrist": 3447,
      "Ġstudies": 3448,
      "Ġexposure": 3449,
      "Ġcard": 3450,
      "Ġhug": 3451,
      "Ġvary": 3452,
      "Ġlik": 3453,
      "Ġprem": 3454,
      "ĠJesus": 3455,
      "ĠâĢľ": 3456,
      "Ġfunctions": 3457,
      "Ġadvantage": 3458,
      "Ġtherapy": 3459,
      "Ġdynamics": 3460,
      "Ġmil": 3461,
      "igence": 3462,
      "Ġitems": 3463,
      "Ġvari": 3464,
      "Ġspecialized": 3465,
      "Ġfully": 3466,
      "Ġselecting": 3467,
      "earch": 3468,
      "Ġlonger": 3469,
      "Ġdiscussions": 3470,
      "Ġfeedback": 3471,
      "Ġtransportation": 3472,
      "Ġmajor": 3473,
      "sh": 3474,
      "Ġtakes": 3475,
      "Ġconcepts": 3476,
      "Ġdemonstrates": 3477,
      "Ġprepar": 3478,
      "Ġwellbeing": 3479,
      "Ġwait": 3480,
      "oke": 3481,
      "acity": 3482,
      "ĠJane": 3483,
      "avors": 3484,
      "Ġfamil": 3485,
      "Ġchoices": 3486,
      "Ġminimize": 3487,
      "Ġple": 3488,
      "essions": 3489,
      "Ġrabb": 3490,
      "Ġappeal": 3491,
      "Suddenly": 3492,
      "duce": 3493,
      "ned": 3494,
      "sw": 3495,
      "alle": 3496,
      "ows": 3497,
      "Ġamaz": 3498,
      "Ġpresents": 3499,
      "Ġsupporting": 3500,
      "ina": 3501,
      "Ġcounter": 3502,
      "Ġrein": 3503,
      "Ġlin": 3504,
      "Ġinstruc": 3505,
      "Ġgenuine": 3506,
      "Ġdepending": 3507,
      "Ġelse": 3508,
      "ulate": 3509,
      "Ġagree": 3510,
      "Ġsho": 3511,
      "Ġneighb": 3512,
      "Ġoption": 3513,
      "ĠStud": 3514,
      "Ġdelivering": 3515,
      "Ġoriginal": 3516,
      "Ġsubstantial": 3517,
      "isy": 3518,
      "ĠDis": 3519,
      "icient": 3520,
      "Ġinfrastructure": 3521,
      "Ġterm": 3522,
      "umb": 3523,
      "Ġofficial": 3524,
      "Ġcomponent": 3525,
      "Ġmix": 3526,
      "Ġhon": 3527,
      "rog": 3528,
      "acies": 3529,
      "Ġpropos": 3530,
      "Ġhair": 3531,
      "ribution": 3532,
      "Ġalle": 3533,
      "ummy": 3534,
      "Ġshiny": 3535,
      "------------": 3536,
      "Ġincludes": 3537,
      "Ġcompetition": 3538,
      "Ġhope": 3539,
      "Ġcandid": 3540,
      "Ġspaces": 3541,
      "Ġarts": 3542,
      "Ġcontinues": 3543,
      "Ġcontributes": 3544,
      "Ġstatus": 3545,
      "word": 3546,
      "Ġbad": 3547,
      "Ġsmart": 3548,
      "Ġpassage": 3549,
      "Ġstrengthen": 3550,
      "nel": 3551,
      "Ġlot": 3552,
      "Ġconsistently": 3553,
      "Ġsleep": 3554,
      "aceutical": 3555,
      "port": 3556,
      "Ġheld": 3557,
      "ĠĠĠ": 3558,
      "Ġproperties": 3559,
      "Ġconfidence": 3560,
      "Ġadvancements": 3561,
      "oms": 3562,
      "Ġjud": 3563,
      "Ġexploration": 3564,
      "Ġtraffic": 3565,
      "Ġwhite": 3566,
      "ĠLe": 3567,
      "taining": 3568,
      "Ġadding": 3569,
      "Ġactivity": 3570,
      "Ġrain": 3571,
      "rought": 3572,
      "Ġeffects": 3573,
      "Ġtalk": 3574,
      "fill": 3575,
      "Ġ7": 3576,
      "Ġalloc": 3577,
      "Ġoperating": 3578,
      "Ġdepth": 3579,
      "Ġingredients": 3580,
      "equ": 3581,
      "eth": 3582,
      "Ġasp": 3583,
      "ĠHow": 3584,
      "Ġabilities": 3585,
      "Ġdiagn": 3586,
      "Ġlimited": 3587,
      "eng": 3588,
      "Ġthink": 3589,
      "Ġsci": 3590,
      "Ġfootball": 3591,
      "oon": 3592,
      "Ġec": 3593,
      "Ġcapital": 3594,
      "wa": 3595,
      "eline": 3596,
      "Ġconfig": 3597,
      "Ġobjectives": 3598,
      "ring": 3599,
      "ĠThus": 3600,
      "Ġmedic": 3601,
      "Ġowners": 3602,
      "Ġchoice": 3603,
      "19": 3604,
      "itch": 3605,
      "ifying": 3606,
      "Ġtrack": 3607,
      "Ġabove": 3608,
      "ĠIns": 3609,
      "Ġfinding": 3610,
      "isd": 3611,
      "Ġartis": 3612,
      "assion": 3613,
      "Ġartists": 3614,
      "Ġwood": 3615,
      "Ġdone": 3616,
      "iration": 3617,
      "Ġjoy": 3618,
      "Ġbutter": 3619,
      "Ġpurpose": 3620,
      "Ġmatter": 3621,
      "Ġcredit": 3622,
      "Ġmutual": 3623,
      "Ġstandard": 3624,
      "rect": 3625,
      "place": 3626,
      "Ġfoundation": 3627,
      "Ġencouraging": 3628,
      "Ġstorage": 3629,
      "arant": 3630,
      "Ġlat": 3631,
      "Ġintroduc": 3632,
      "ĠFirst": 3633,
      "Ġcreation": 3634,
      "Ġnovel": 3635,
      "egu": 3636,
      "Ġvirtual": 3637,
      "Ġbrought": 3638,
      "Ġloyal": 3639,
      "Ġemail": 3640,
      "Ġclient": 3641,
      "Ġeye": 3642,
      "Ġdynamic": 3643,
      "Ġscienti": 3644,
      "mb": 3645,
      "reg": 3646,
      "ceed": 3647,
      "Ġlever": 3648,
      "Ġweak": 3649,
      "Ġourselves": 3650,
      "bye": 3651,
      "Ġla": 3652,
      "iors": 3653,
      "tition": 3654,
      "Ġfix": 3655,
      "ĠTips": 3656,
      "Ġconsequ": 3657,
      "eli": 3658,
      "Ġansw": 3659,
      "ogle": 3660,
      "ĠDr": 3661,
      "Ġdelicious": 3662,
      "Ġcountry": 3663,
      "Ġpicked": 3664,
      "ĠX": 3665,
      "Ġtur": 3666,
      "Ġcatch": 3667,
      "ision": 3668,
      "Ġmission": 3669,
      "olic": 3670,
      "ĠTechn": 3671,
      "ained": 3672,
      "Ġbring": 3673,
      "Ġachieving": 3674,
      "Ġforest": 3675,
      "Ġdress": 3676,
      "Ġdark": 3677,
      "Ġstre": 3678,
      "Ġfinal": 3679,
      "Ġseemingly": 3680,
      "ietal": 3681,
      "Ġexhib": 3682,
      "iment": 3683,
      "aints": 3684,
      "emp": 3685,
      "ĠId": 3686,
      "Ġworry": 3687,
      "Ġdays": 3688,
      "Ġrabbit": 3689,
      "Ġlines": 3690,
      "ried": 3691,
      "arent": 3692,
      "Ġcompelling": 3693,
      "ĠDad": 3694,
      "Ġbug": 3695,
      "Ġdesigns": 3696,
      "Ġaims": 3697,
      "ĠExam": 3698,
      "ocks": 3699,
      "Ġgoal": 3700,
      "Ġrecords": 3701,
      "PI": 3702,
      "Ġnor": 3703,
      "Ġspot": 3704,
      "Ġproductivity": 3705,
      "Ġsocietal": 3706,
      "Ġrecognize": 3707,
      "Ġprimarily": 3708,
      "Ġrock": 3709,
      "Ġgetting": 3710,
      "ĠUnited": 3711,
      "Ġmanufacture": 3712,
      "Ġaccordingly": 3713,
      "Ġclimb": 3714,
      "John": 3715,
      "Ġtaken": 3716,
      "Ġpet": 3717,
      "Ġbot": 3718,
      "Ġstage": 3719,
      "Ġcompos": 3720,
      "Ġsafegu": 3721,
      "Ġfollowed": 3722,
      "Ġstaying": 3723,
      "Ġfavorite": 3724,
      "venue": 3725,
      "Ġrespond": 3726,
      "Ġresponsibility": 3727,
      "ography": 3728,
      "Ġath": 3729,
      "Ġpus": 3730,
      "ffective": 3731,
      "ĠUltimately": 3732,
      "Ġrealm": 3733,
      "Ġesc": 3734,
      "ĠDespite": 3735,
      "oday": 3736,
      "ression": 3737,
      "Ġprice": 3738,
      "Ġsurprise": 3739,
      "ĠAlthough": 3740,
      "Ġcer": 3741,
      "Ġpa": 3742,
      "astic": 3743,
      "Ġreally": 3744,
      "Ġlikely": 3745,
      "ought": 3746,
      "Ġidentifying": 3747,
      "Ġlaws": 3748,
      "itchen": 3749,
      "icro": 3750,
      "ĠSe": 3751,
      "Ġsymb": 3752,
      "Ġthreats": 3753,
      "Ġarchit": 3754,
      "Ex": 3755,
      "Ġmoney": 3756,
      "Ġtechnological": 3757,
      "Ġskin": 3758,
      "Ġprivate": 3759,
      "Ġcrypt": 3760,
      "Ad": 3761,
      "ipl": 3762,
      "ket": 3763,
      "Ġterr": 3764,
      "Ġsource": 3765,
      "ading": 3766,
      "Ġroll": 3767,
      "lusive": 3768,
      "Ġbelief": 3769,
      "Ġbudget": 3770,
      "Ġfarm": 3771,
      "Ġspeed": 3772,
      "ĠNot": 3773,
      "Ġgoodbye": 3774,
      "Ġnodded": 3775,
      "Ġcool": 3776,
      "Ġdiv": 3777,
      "Ġ200": 3778,
      "Ġimpressive": 3779,
      "istics": 3780,
      "Ġlater": 3781,
      "agon": 3782,
      "Ġremote": 3783,
      "Ġconstant": 3784,
      "Ġer": 3785,
      "Ġtap": 3786,
      "Ġsessions": 3787,
      "Ġeither": 3788,
      "Ġproactive": 3789,
      "Ġtrying": 3790,
      "Ġboasts": 3791,
      "Ġintegrity": 3792,
      "Ġgiving": 3793,
      "Ġpartnerships": 3794,
      "Ġtell": 3795,
      "Ġunex": 3796,
      "Ġcomplexity": 3797,
      "Ġmerely": 3798,
      "forcement": 3799,
      "While": 3800,
      "Ġhear": 3801,
      "key": 3802,
      "Ġmoments": 3803,
      "Ġconsumer": 3804,
      "Ġcampaigns": 3805,
      "Ġahead": 3806,
      "orrow": 3807,
      "ification": 3808,
      "Ġreplied": 3809,
      "Ġpretty": 3810,
      "Ġconsequences": 3811,
      "Ġpen": 3812,
      "Ġideal": 3813,
      "Ġhighlight": 3814,
      "Ġcentral": 3815,
      "ĠGoogle": 3816,
      "plement": 3817,
      "Ġfocused": 3818,
      "Ġindustries": 3819,
      "After": 3820,
      "Ġmother": 3821,
      "Ġdescrib": 3822,
      "Ġcarry": 3823,
      "Ġpolitics": 3824,
      "Ġbarri": 3825,
      "Ġpreserving": 3826,
      "Ġcity": 3827,
      "Ġlad": 3828,
      "ĠSpecific": 3829,
      "Ġempathy": 3830,
      "ĠCent": 3831,
      "ĠGuidelines": 3832,
      "ians": 3833,
      "urop": 3834,
      "Ġpu": 3835,
      "Ġintell": 3836,
      "ĠFr": 3837,
      "Ġwear": 3838,
      "Ġpractical": 3839,
      "Ġquestion": 3840,
      "Ġnarratives": 3841,
      "Ġfamilies": 3842,
      "ls": 3843,
      "while": 3844,
      "aby": 3845,
      "Ġgrass": 3846,
      "Ġdevice": 3847,
      "No": 3848,
      "Ġtend": 3849,
      "Ġcode": 3850,
      "Ġweight": 3851,
      "Ġenter": 3852,
      "ĠRegular": 3853,
      "Ġdifficult": 3854,
      "ests": 3855,
      "Ġfly": 3856,
      "ister": 3857,
      "Ġmal": 3858,
      "ributions": 3859,
      "Ġblock": 3860,
      "Ġwebsites": 3861,
      "ene": 3862,
      "Ġcris": 3863,
      "esty": 3864,
      "icians": 3865,
      "Ġguarant": 3866,
      "Ġcompatibility": 3867,
      "med": 3868,
      "ton": 3869,
      "ompl": 3870,
      "ĠMia": 3871,
      "Ġamb": 3872,
      "Ġassets": 3873,
      "Ġsecond": 3874,
      "Ġethical": 3875,
      "pe": 3876,
      "Ġoil": 3877,
      "Ġjus": 3878,
      "Ġadds": 3879,
      "Ġconsiderations": 3880,
      "ommod": 3881,
      "Ġeasily": 3882,
      "Ġthinking": 3883,
      "urch": 3884,
      "Ġradi": 3885,
      "Ġkitchen": 3886,
      "ancy": 3887,
      "Ġboat": 3888,
      "Ġmeasure": 3889,
      "Ġsand": 3890,
      "erve": 3891,
      "Ġmass": 3892,
      "Ġparts": 3893,
      "Ġnote": 3894,
      "Ġcapacity": 3895,
      "Ġrecognition": 3896,
      "Ġfascinating": 3897,
      "vere": 3898,
      "ĠMarket": 3899,
      "Ġcancer": 3900,
      "Ġscience": 3901,
      "Ġgenerations": 3902,
      "Ġdoesn": 3903,
      "Ġinternal": 3904,
      "inations": 3905,
      "apes": 3906,
      "Ġofferings": 3907,
      "orial": 3908,
      "ills": 3909,
      "ĠYour": 3910,
      "ĠEnc": 3911,
      "Ġlaugh": 3912,
      "Ġsympt": 3913,
      "Ġexcellent": 3914,
      "Ġdisplay": 3915,
      "efore": 3916,
      "world": 3917,
      "Ġcompetit": 3918,
      "Ġcomputer": 3919,
      "ID": 3920,
      "Ġhosp": 3921,
      "Ġforg": 3922,
      "Ġlost": 3923,
      "Ġvibrant": 3924,
      "Ġreason": 3925,
      "aming": 3926,
      "Ġcompassion": 3927,
      "Ġserving": 3928,
      "Ġalternatives": 3929,
      "EO": 3930,
      "Of": 3931,
      "eu": 3932,
      "Ġranging": 3933,
      "Ġresearc": 3934,
      "Ġthoughtful": 3935,
      "TMs": 3936,
      "Ġwatched": 3937,
      "Ġconcerning": 3938,
      "Ġnu": 3939,
      "Ġexact": 3940,
      "Ġcoming": 3941,
      "unning": 3942,
      "Ġprefer": 3943,
      "Ġenhances": 3944,
      "Ġcollection": 3945,
      "lines": 3946,
      "ert": 3947,
      "Ġwon": 3948,
      "edge": 3949,
      "Ġfuel": 3950,
      "utri": 3951,
      "Ġanx": 3952,
      "Ġaccommod": 3953,
      "ĠKe": 3954,
      "airs": 3955,
      "ready": 3956,
      "Ġtesting": 3957,
      "Ġleave": 3958,
      "alls": 3959,
      "Ġattribut": 3960,
      "Ġfactor": 3961,
      "Ġregulatory": 3962,
      "Ġarchitect": 3963,
      "Ġunexpected": 3964,
      "ik": 3965,
      "iction": 3966,
      "Ġlasting": 3967,
      "Ġsaving": 3968,
      "ĠOp": 3969,
      "Ġleads": 3970,
      "Ġpharmaceutical": 3971,
      "Ġreligious": 3972,
      "gor": 3973,
      "ift": 3974,
      "ĠPar": 3975,
      "Ġcreates": 3976,
      "Ġample": 3977,
      "Ġassistance": 3978,
      "Ġencounter": 3979,
      "Ġflowers": 3980,
      "Ġmobile": 3981,
      "book": 3982,
      "Ġthird": 3983,
      "illy": 3984,
      "Ġresid": 3985,
      "Ġhelped": 3986,
      "orders": 3987,
      "Ġbecoming": 3988,
      "Ġprofound": 3989,
      "Ġdang": 3990,
      "Ġlack": 3991,
      "ĠPre": 3992,
      "Ġreflect": 3993,
      "Ġmarkets": 3994,
      "Ġaccessibility": 3995,
      "ĠRemember": 3996,
      "aul": 3997,
      "sc": 3998,
      "ĠRep": 3999,
      "Ġpric": 4000,
      "Ġattend": 4001,
      "Ġimplementation": 4002,
      "Ġchanging": 4003,
      "uilding": 4004,
      "Ġleveraging": 4005,
      "Ġweather": 4006,
      "ĠJoe": 4007,
      "Ġprocessing": 4008,
      "Ġcompliance": 4009,
      "Ġprioritize": 4010,
      "Ġsong": 4011,
      "Ġmouse": 4012,
      "Ġthus": 4013,
      "ads": 4014,
      "Ġprompt": 4015,
      "Ġblack": 4016,
      "Ġefficiently": 4017,
      "Ġcountless": 4018,
      "oman": 4019,
      "Ġhous": 4020,
      "ectiveness": 4021,
      "Ġnational": 4022,
      "Ġvast": 4023,
      "Ġabs": 4024,
      "Ġregardless": 4025,
      "Ġmovement": 4026,
      "Ġresearchers": 4027,
      "lation": 4028,
      "Ġcam": 4029,
      "Ġcitiz": 4030,
      "eter": 4031,
      "urren": 4032,
      "ĠCre": 4033,
      "Ġcold": 4034,
      "Ġmatters": 4035,
      "Ġsustainability": 4036,
      "Ġfaster": 4037,
      "Ġsurpris": 4038,
      "Ġmetal": 4039,
      "Ġheavy": 4040,
      "Ġhidden": 4041,
      "We": 4042,
      "Ġfans": 4043,
      "Ġunf": 4044,
      "Ġagencies": 4045,
      "Ġsurface": 4046,
      "Ġextensive": 4047,
      "Ġled": 4048,
      "Ġconstr": 4049,
      "ĠKey": 4050,
      "Ġlimitations": 4051,
      "bs": 4052,
      "nce": 4053,
      "Ġstic": 4054,
      "Ġciv": 4055,
      "arity": 4056,
      "Ġhurt": 4057,
      "Ġgrad": 4058,
      "Ġshowed": 4059,
      "Ġrestric": 4060,
      "ken": 4061,
      "Ġbol": 4062,
      "Ġreached": 4063,
      "ĠToday": 4064,
      "Ġhealing": 4065,
      "nesses": 4066,
      "Ġstronger": 4067,
      "Ġanalyzing": 4068,
      "cores": 4069,
      "Ġmorning": 4070,
      "gorith": 4071,
      "light": 4072,
      "Ġheat": 4073,
      "Ġadhere": 4074,
      "Ġcolors": 4075,
      "Ġvision": 4076,
      "ĠEveryone": 4077,
      "igg": 4078,
      "Ġtruck": 4079,
      "ĠWh": 4080,
      "Ġstarting": 4081,
      "Ġstyles": 4082,
      "Ġregional": 4083,
      "Ġscenarios": 4084,
      "Ġparamount": 4085,
      "aks": 4086,
      "pper": 4087,
      "ticul": 4088,
      "Ġsuggest": 4089,
      "Ġcrafting": 4090,
      "ximately": 4091,
      "Ġdiagnos": 4092,
      "tor": 4093,
      "zz": 4094,
      "Ġseries": 4095,
      "Ġrelax": 4096,
      "Ġteac": 4097,
      "Ġlessons": 4098,
      "Ġdatab": 4099,
      "dis": 4100,
      "ĠOnce": 4101,
      "oli": 4102,
      "resh": 4103,
      "Ġrecognizing": 4104,
      "Ġtight": 4105,
      "Ġherself": 4106,
      "ifications": 4107,
      "itten": 4108,
      "Ġfiles": 4109,
      "makers": 4110,
      "Ġ9": 4111,
      "ĠEurop": 4112,
      "Ġpassion": 4113,
      "Ġhighlighting": 4114,
      "Ġacknowled": 4115,
      "Ġice": 4116,
      "Ġdin": 4117,
      "ĠOff": 4118,
      "ĠIntern": 4119,
      "Ġoperational": 4120,
      "Ġnearby": 4121,
      "Ġadaptability": 4122,
      "Ġangry": 4123,
      "lear": 4124,
      "owers": 4125,
      "Ġprove": 4126,
      "Ġalready": 4127,
      "Ġcontact": 4128,
      "Ġfeat": 4129,
      "poses": 4130,
      "Ġacademic": 4131,
      "kay": 4132,
      "vot": 4133,
      "oub": 4134,
      "osen": 4135,
      "Ġshout": 4136,
      "ĠDuring": 4137,
      "Ġcredi": 4138,
      "Ġwhole": 4139,
      "Ġexcess": 4140,
      "ĠGen": 4141,
      "Ġcaptiv": 4142,
      "Ġfulfill": 4143,
      "Ġgained": 4144,
      "Ġwriting": 4145,
      "ĠTrans": 4146,
      "Ġmessage": 4147,
      "Ġsuggests": 4148,
      "anch": 4149,
      "Ġbrands": 4150,
      "ĠMommy": 4151,
      "ĠSarah": 4152,
      "Ġunderscores": 4153,
      "Ġprogramming": 4154,
      "mosp": 4155,
      "vi": 4156,
      "Ġcreated": 4157,
      "Ġbrings": 4158,
      "eyond": 4159,
      "Ġknowing": 4160,
      "Ġfields": 4161,
      "Ġqualities": 4162,
      "Ġinterpret": 4163,
      "look": 4164,
      "Ġtut": 4165,
      "Ġcoun": 4166,
      "Ġhab": 4167,
      "ĠTw": 4168,
      "Ġdiversity": 4169,
      "Ġdiscipl": 4170,
      "ĠBoth": 4171,
      "Ġappl": 4172,
      "Ġcoord": 4173,
      "Ġvalid": 4174,
      "Ġdemoc": 4175,
      "Ġpurposes": 4176,
      "Ġchec": 4177,
      "Ġenjoyed": 4178,
      "Ġwrong": 4179,
      "Ġsafeguard": 4180,
      "Ben": 4181,
      "inent": 4182,
      "Ġfellow": 4183,
      "Ġrely": 4184,
      "Ġlux": 4185,
      "ether": 4186,
      "Ġrules": 4187,
      "ĠWhat": 4188,
      "ĠHealth": 4189,
      "Ġow": 4190,
      "Ġstates": 4191,
      "amental": 4192,
      "used": 4193,
      "ief": 4194,
      "Ġhappened": 4195,
      "Ġgrand": 4196,
      "Ġprotoc": 4197,
      "Ġencourage": 4198,
      "ĠResearch": 4199,
      "Ġintervention": 4200,
      "Ġpan": 4201,
      "iles": 4202,
      "ĠTe": 4203,
      "Ġcharm": 4204,
      "Ġperspective": 4205,
      "Ġpivot": 4206,
      "Ġimmers": 4207,
      "Ġtransformation": 4208,
      "ront": 4209,
      "Ġartist": 4210,
      "faces": 4211,
      "uits": 4212,
      "Ġ8": 4213,
      "reat": 4214,
      "Ġbag": 4215,
      "Ġhopped": 4216,
      "pectives": 4217,
      "Ġgrabb": 4218,
      "Ġconvenience": 4219,
      "Ġconversations": 4220,
      "Ġharness": 4221,
      "ĠDaisy": 4222,
      "lity": 4223,
      "Ġwel": 4224,
      "ĠServ": 4225,
      "Ġalgorith": 4226,
      "Ġcontain": 4227,
      "Ġminimal": 4228,
      "etic": 4229,
      "reed": 4230,
      "Ġstatis": 4231,
      "Ġprop": 4232,
      "ĠHigh": 4233,
      "Ġroot": 4234,
      "Ġmeticul": 4235,
      "Ġperce": 4236,
      "Ġscr": 4237,
      "Ġfacing": 4238,
      "Ġentertain": 4239,
      "Ġrelease": 4240,
      "Ġvisitors": 4241,
      "friend": 4242,
      "Ġpaper": 4243,
      "ĠEv": 4244,
      "Ġcoop": 4245,
      "Ġmetrics": 4246,
      "Ġflower": 4247,
      "backs": 4248,
      "Ġbehaviors": 4249,
      "Ġreputation": 4250,
      "Ġstands": 4251,
      "Ġcondition": 4252,
      "Ġnego": 4253,
      "Ġwords": 4254,
      "Ġobst": 4255,
      "Ġopening": 4256,
      "Ġemotions": 4257,
      "ĠSpecifically": 4258,
      "Ġnegoti": 4259,
      "Ġfine": 4260,
      "Ġliter": 4261,
      "ĠAI": 4262,
      "Ġresistance": 4263,
      "Ġcontributions": 4264,
      "Ġclub": 4265,
      "Ġshift": 4266,
      "ĠCommun": 4267,
      "Ġtactics": 4268,
      "NA": 4269,
      "Ġban": 4270,
      "eted": 4271,
      "Ġenforcement": 4272,
      "Ġatmosp": 4273,
      "Ġexpenses": 4274,
      "Ġreduces": 4275,
      "Ġkeeping": 4276,
      "ercial": 4277,
      "Ġselection": 4278,
      "Ġcompetitors": 4279,
      "Ġtall": 4280,
      "Ġpick": 4281,
      "idge": 4282,
      "Ġadded": 4283,
      "Ġfront": 4284,
      "Ġcheck": 4285,
      "ĠStrateg": 4286,
      "icit": 4287,
      "Ġdevelopments": 4288,
      "Ġaffecting": 4289,
      "Ġinspiration": 4290,
      "Ġleaves": 4291,
      "Ġbarriers": 4292,
      "aur": 4293,
      "wise": 4294,
      "Ġheight": 4295,
      "ĠMar": 4296,
      "Ġparty": 4297,
      "Ġperforming": 4298,
      "Ġbelong": 4299,
      "Ġsmaller": 4300,
      "Ġfrequently": 4301,
      "Des": 4302,
      "Ġcast": 4303,
      "Ġcomprom": 4304,
      "Ġdiam": 4305,
      "Ġinvestors": 4306,
      "Ġcitizens": 4307,
      "Ġconstraints": 4308,
      "Ġsoph": 4309,
      "rol": 4310,
      "Ġstunning": 4311,
      "Ġconsid": 4312,
      "Ġcoverage": 4313,
      "Ġdelivery": 4314,
      "Ġlayer": 4315,
      "Ġleaving": 4316,
      "Ġexercise": 4317,
      "cious": 4318,
      "ship": 4319,
      "inate": 4320,
      "Ġfile": 4321,
      "Ġlic": 4322,
      "Ġlate": 4323,
      "Ġemergency": 4324,
      "Ġtired": 4325,
      "Ġden": 4326,
      "ĠAut": 4327,
      "ublic": 4328,
      "Ġsubs": 4329,
      "Ġconsistency": 4330,
      "Ġcraft": 4331,
      "'ve": 4332,
      "ban": 4333,
      "cles": 4334,
      "ppy": 4335,
      "Ġgoes": 4336,
      "Ġfundamental": 4337,
      "dle": 4338,
      "Ġyellow": 4339,
      "unny": 4340,
      "Ġworked": 4341,
      "Ġprices": 4342,
      "Ġeffectiveness": 4343,
      "Ġorganizational": 4344,
      "Ġpossibilities": 4345,
      "umption": 4346,
      "board": 4347,
      "Ġgrabbed": 4348,
      "Ġspl": 4349,
      "Ġcorpor": 4350,
      "Ġchosen": 4351,
      "ĠUS": 4352,
      "Ġrepe": 4353,
      "Ġpositions": 4354,
      "Ġapproximately": 4355,
      "Ġdepend": 4356,
      "Ġdeeply": 4357,
      "Ġdetermine": 4358,
      "Ġsophistic": 4359,
      "mission": 4360,
      "ĠUp": 4361,
      "Ġbooks": 4362,
      "ĠSm": 4363,
      "ĠSue": 4364,
      "Ġanticip": 4365,
      "Ġweek": 4366,
      "Ġfriendly": 4367,
      "Ġmessages": 4368,
      "Ġjumped": 4369,
      "Ġtang": 4370,
      "Ġcause": 4371,
      "ĠFinally": 4372,
      "Ġfees": 4373,
      "Ġwaved": 4374,
      "Ġinjury": 4375,
      "Ġwit": 4376,
      "Ġep": 4377,
      "Ġrespective": 4378,
      "Ġunp": 4379,
      "Ġfinished": 4380,
      "Ġestablishing": 4381,
      "ervation": 4382,
      "Ġintricacies": 4383,
      "iosity": 4384,
      "Ġuncertain": 4385,
      "Ġir": 4386,
      "Ġgem": 4387,
      "Ġimpacts": 4388,
      "Ġfear": 4389,
      "Ġinstances": 4390,
      "rene": 4391,
      "issions": 4392,
      "ĠImplement": 4393,
      "Ġsilver": 4394,
      "eanwhile": 4395,
      "ĠEncour": 4396,
      "Ġpricing": 4397,
      "hem": 4398,
      "Ġremark": 4399,
      "Ġperspectives": 4400,
      "Ġexamination": 4401,
      "Ġgenerate": 4402,
      "Ġpubl": 4403,
      "Ġrate": 4404,
      "osystem": 4405,
      "Ġpromo": 4406,
      "Ġattemp": 4407,
      "Ġcaused": 4408,
      "Ġversatile": 4409,
      "any": 4410,
      "asons": 4411,
      "ĠPres": 4412,
      "Ġconsult": 4413,
      "Ġspread": 4414,
      "Ġanything": 4415,
      "Ġdemonstrated": 4416,
      "Ġcultivating": 4417,
      "Ġartistic": 4418,
      "haps": 4419,
      "nect": 4420,
      "Ġvot": 4421,
      "ogether": 4422,
      "ĠEst": 4423,
      "Ġinstr": 4424,
      "Ġaffected": 4425,
      "Ġprecise": 4426,
      "Ġmaximize": 4427,
      "Ġempowerment": 4428,
      "friendly": 4429,
      "bre": 4430,
      "ĠMon": 4431,
      "Ġdelicate": 4432,
      "Ġblood": 4433,
      "Ġstudent": 4434,
      "Ġideas": 4435,
      "Ġswim": 4436,
      "Ġexpression": 4437,
      "Ġimmediate": 4438,
      "Ġtown": 4439,
      "Ġlast": 4440,
      "Ġexperts": 4441,
      "Ġheavily": 4442,
      "Ġintrig": 4443,
      "Ġsat": 4444,
      "Ġcountries": 4445,
      "Ġperiods": 4446,
      "Ġdifferences": 4447,
      "Ġmachine": 4448,
      "Ġtaste": 4449,
      "Ġconfigur": 4450,
      "Ġcredibility": 4451,
      "ese": 4452,
      "Ġpor": 4453,
      "Ġnutri": 4454,
      "Ġinten": 4455,
      "ĠNational": 4456,
      "Ġcapture": 4457,
      "Ġdemonstrating": 4458,
      "Ġtreatments": 4459,
      "Ġbelieve": 4460,
      "Ġrevenue": 4461,
      "Ġkids": 4462,
      "Ġ10": 4463,
      "Ġmemories": 4464,
      "urturing": 4465,
      "Ġenthusiasts": 4466,
      "Ġbutterf": 4467,
      "ĠKeep": 4468,
      "\".": 4469,
      "She": 4470,
      "otor": 4471,
      "ĠMe": 4472,
      "Ġcooking": 4473,
      "Ġfacilities": 4474,
      "Ġdepart": 4475,
      "Ġlandscapes": 4476,
      "aught": 4477,
      "Ġord": 4478,
      "ocurren": 4479,
      "Ġaccept": 4480,
      "Ġunl": 4481,
      "ĠDo": 4482,
      "Ġdisapp": 4483,
      "Ġoutd": 4484,
      "ĠStates": 4485,
      "Ġcuriosity": 4486,
      "Ġinitially": 4487,
      "Ġdiscussing": 4488,
      "ivity": 4489,
      "Ġsymptoms": 4490,
      "Ġsac": 4491,
      "Ġvent": 4492,
      "ocial": 4493,
      "ĠUtil": 4494,
      "Ġchem": 4495,
      "ĠIdenti": 4496,
      "Ġconsidered": 4497,
      "Ġremarkable": 4498,
      "ipping": 4499,
      "lined": 4500,
      "Ġmid": 4501,
      "Ġrevol": 4502,
      "Ġadver": 4503,
      "Ġpreventing": 4504,
      "Ġstrengths": 4505,
      "Ġic": 4506,
      "Ġintim": 4507,
      "ĠCO": 4508,
      "Ġadequ": 4509,
      "Ġunivers": 4510,
      "Ġapply": 4511,
      "Ġpopulations": 4512,
      "Ġadventures": 4513,
      "Ġdisease": 4514,
      "Im": 4515,
      "gg": 4516,
      "Ġsail": 4517,
      "ĠMod": 4518,
      "Ġdispar": 4519,
      "Ġtransition": 4520,
      "Ġdelight": 4521,
      "Ġdistribution": 4522,
      "Ġecosystem": 4523,
      "Ġexactly": 4524,
      "Her": 4525,
      "eys": 4526,
      "gen": 4527,
      "most": 4528,
      "alf": 4529,
      "Ġspark": 4530,
      "Ġpromises": 4531,
      "Ġanyone": 4532,
      "ĠUniversity": 4533,
      "Ġaccuracy": 4534,
      "Ġrecommend": 4535,
      "rich": 4536,
      "son": 4537,
      "roll": 4538,
      "usiness": 4539,
      "Ġcommercial": 4540,
      "ĠJust": 4541,
      "titude": 4542,
      "Ġappearance": 4543,
      "Ġaccountability": 4544,
      "ĠNow": 4545,
      "Ġprotecting": 4546,
      "Ġpicture": 4547,
      "reprene": 4548,
      "Ġarrange": 4549,
      "ai": 4550,
      "Ġbow": 4551,
      "Ġtrees": 4552,
      "Ġbreath": 4553,
      "Thank": 4554,
      "Ġmeeting": 4555,
      "Ġregularly": 4556,
      "Ġcomfortable": 4557,
      "Ġloyalty": 4558,
      "Ġplant": 4559,
      "Ġfeelings": 4560,
      "Ġimprovements": 4561,
      "Ġcorner": 4562,
      "Ġentities": 4563,
      "Ġembrace": 4564,
      "Ġinjuries": 4565,
      "Ġprotocols": 4566,
      "Ġpivotal": 4567,
      "vey": 4568,
      "emb": 4569,
      "acters": 4570,
      "Ġrecently": 4571,
      "Ġtransactions": 4572,
      "Ġpromising": 4573,
      "nected": 4574,
      "Ġdrug": 4575,
      "Ġproblems": 4576,
      "Ġdivine": 4577,
      "Ġjustice": 4578,
      "off": 4579,
      "unately": 4580,
      "Ġtrade": 4581,
      "Ġaccompl": 4582,
      "Ġteach": 4583,
      "Ġbrother": 4584,
      "Ġcommitted": 4585,
      "Ġschools": 4586,
      "Ġnegative": 4587,
      "Ġexchange": 4588,
      "Ġlady": 4589,
      "Jack": 4590,
      "Ġlab": 4591,
      "Ġju": 4592,
      "Ġwhenever": 4593,
      "Ġsyn": 4594,
      "Ġhandle": 4595,
      "Ġemployed": 4596,
      "prof": 4597,
      "Introduction": 4598,
      "Ġwild": 4599,
      "Ġdry": 4600,
      "ĠAf": 4601,
      "Ġvig": 4602,
      "enders": 4603,
      "Ġtransfer": 4604,
      "Ġpersist": 4605,
      "Ġvisibility": 4606,
      "Ġende": 4607,
      "Ġequipped": 4608,
      "Ġemphasizes": 4609,
      "Ġpurchasing": 4610,
      "Ġrapidly": 4611,
      "elihood": 4612,
      "):": 4613,
      "ares": 4614,
      "apped": 4615,
      "Ġpand": 4616,
      "Ġstages": 4617,
      "ĠMain": 4618,
      "fulness": 4619,
      "Ġexpert": 4620,
      "Ġbirds": 4621,
      "Ġutilize": 4622,
      "Ġfacilitating": 4623,
      "Ġwonderful": 4624,
      "IV": 4625,
      "etary": 4626,
      "Ġrecovery": 4627,
      "itement": 4628,
      "rows": 4629,
      "Ġengaged": 4630,
      "Ġglance": 4631,
      "Ġresponsibilities": 4632,
      "Ġdiscussion": 4633,
      "ĠManagement": 4634,
      "Ġreveal": 4635,
      "Ġanxiety": 4636,
      "10": 4637,
      "Ġdil": 4638,
      "Ġstop": 4639,
      "ocal": 4640,
      "umes": 4641,
      "Ġstra": 4642,
      "Ġcommunic": 4643,
      "ĠInc": 4644,
      "Ġconstruction": 4645,
      "Ġinterventions": 4646,
      "Ġhosting": 4647,
      "Ġcandidates": 4648,
      "Ġintelligence": 4649,
      "Ġdro": 4650,
      "Ġforces": 4651,
      "order": 4652,
      "Ġcommunicate": 4653,
      "ĠDesign": 4654,
      "nown": 4655,
      "oo": 4656,
      "ana": 4657,
      "Ġeager": 4658,
      "Ġchances": 4659,
      "Ġreports": 4660,
      "Ġfinally": 4661,
      "Ġfindings": 4662,
      "Ġanalytics": 4663,
      "Ġlikelihood": 4664,
      "Ġshouted": 4665,
      "mon": 4666,
      "asure": 4667,
      "Ġask": 4668,
      "tically": 4669,
      "Ġrise": 4670,
      "Ġconsumption": 4671,
      "Ġmemor": 4672,
      "```": 4673,
      "Ġstraight": 4674,
      "Can": 4675,
      "Ġnurturing": 4676,
      "ellect": 4677,
      "usion": 4678,
      "Ġdealing": 4679,
      "chol": 4680,
      "ĠNo": 4681,
      "cient": 4682,
      "Ġresponses": 4683,
      "Ġcrafts": 4684,
      "Ġadopting": 4685,
      "cript": 4686,
      "Ġbasic": 4687,
      "Ġapplying": 4688,
      "Ġexpans": 4689,
      "Ġexcitement": 4690,
      "Ġnumbers": 4691,
      "Ġcharacters": 4692,
      "Ġcenter": 4693,
      "ĠMany": 4694,
      "plifies": 4695,
      "Ġactively": 4696,
      "Ġexecution": 4697,
      "Ġholistic": 4698,
      "Ġscientific": 4699,
      "Ġsou": 4700,
      "Ġder": 4701,
      "ĠAb": 4702,
      "que": 4703,
      "Ġincome": 4704,
      "Ġspent": 4705,
      "Ġpractition": 4706,
      "Ġpersonnel": 4707,
      "Ġseamlessly": 4708,
      "Mommy": 4709,
      "Ġnorms": 4710,
      "Ch": 4711,
      "lig": 4712,
      "ulating": 4713,
      "ope": 4714,
      "Ġwealth": 4715,
      "Ġroad": 4716,
      "Ġinteraction": 4717,
      "Ġencount": 4718,
      "Ġgeneral": 4719,
      "Ġstrive": 4720,
      "Ġappealing": 4721,
      "Ġconventional": 4722,
      "Ġreputable": 4723,
      "Ġseasoned": 4724,
      "Ġdurability": 4725,
      "Ġhur": 4726,
      "acles": 4727,
      "Ġimage": 4728,
      "Ġdisrup": 4729,
      "Ġstring": 4730,
      "Ġexperiment": 4731,
      "Ġscene": 4732,
      "Ġclassic": 4733,
      "Ġevaluating": 4734,
      "Ġfeaturing": 4735,
      "Ġphen": 4736,
      "ĠFin": 4737,
      "Ġprayer": 4738,
      "iber": 4739,
      "Ġoverlook": 4740,
      "Ġincredi": 4741,
      "Ġfocuses": 4742,
      "Ġparticipation": 4743,
      "Ġmovements": 4744,
      "Ġelim": 4745,
      "Ġinclusive": 4746,
      "Ġnarrative": 4747,
      "Ġarrived": 4748,
      "Ġclinical": 4749,
      "Ġalgorithms": 4750,
      "Ġfive": 4751,
      "Ġgar": 4752,
      "ĠMary": 4753,
      "Ġexclusive": 4754,
      "Ġperformances": 4755,
      "Ġglad": 4756,
      "Ġsites": 4757,
      "ĠExper": 4758,
      "Ġcombining": 4759,
      "Ġvehicle": 4760,
      "If": 4761,
      "ĠCom": 4762,
      "Ġtracking": 4763,
      "Ġinterview": 4764,
      "Ġdeveloped": 4765,
      "Ġincorporate": 4766,
      "Ġpositively": 4767,
      "ued": 4768,
      "Ġcogn": 4769,
      "Ġfirm": 4770,
      "Ġfresh": 4771,
      "ishes": 4772,
      "eless": 4773,
      "Ġnoting": 4774,
      "Ġaccounts": 4775,
      "Ġtransc": 4776,
      "Ġlooks": 4777,
      "Ġanymore": 4778,
      "Ġfunds": 4779,
      "Ġpond": 4780,
      "Ġreality": 4781,
      "Ġgender": 4782,
      "Ġtrain": 4783,
      "Ġseg": 4784,
      "ĠGl": 4785,
      "Ġflavor": 4786,
      "Ġwaiting": 4787,
      "ĠEmbr": 4788,
      "Ġcauses": 4789,
      "Ġatmosphere": 4790,
      "ply": 4791,
      "igration": 4792,
      "Ġyes": 4793,
      "aph": 4794,
      "Ġserious": 4795,
      "Ġcontroll": 4796,
      "Ġrepresentation": 4797,
      "Ġpayment": 4798,
      "Ġreflects": 4799,
      "Ġstick": 4800,
      "Ġinters": 4801,
      "Ġpopularity": 4802,
      "Ġeventually": 4803,
      "Ġprepared": 4804,
      "Ġlatest": 4805,
      "Beyond": 4806,
      "dress": 4807,
      "ĊĠĠĠ": 4808,
      "Ġtour": 4809,
      "Ġdream": 4810,
      "Ġgent": 4811,
      "uth": 4812,
      "Ġwaste": 4813,
      "nings": 4814,
      "Ġentreprene": 4815,
      "Ġanalyze": 4816,
      "Ġemphasizing": 4817,
      "fac": 4818,
      "tal": 4819,
      "Ġlabor": 4820,
      "ĠMeanwhile": 4821,
      "Ġdeath": 4822,
      "Ġshows": 4823,
      "Ġlayers": 4824,
      "Ġreminder": 4825,
      "Ġmonths": 4826,
      "Ġsector": 4827,
      "erce": 4828,
      "Ġbonds": 4829,
      "Ġinput": 4830,
      "Ġexem": 4831,
      "Ġwasn": 4832,
      "Ġarise": 4833,
      "ĠNor": 4834,
      "Ġminutes": 4835,
      "Ġparticipating": 4836,
      "Ġbodies": 4837,
      "ĠEar": 4838,
      "Ġmoving": 4839,
      "Ġglass": 4840,
      "Ġlifesty": 4841,
      "Ġcorrect": 4842,
      "Ġmessaging": 4843,
      "Ġembar": 4844,
      "Ġdetermining": 4845,
      "Ġcultivate": 4846,
      "Ġease": 4847,
      "ila": 4848,
      "Ġmanaged": 4849,
      "vention": 4850,
      "Ġoffice": 4851,
      "Ġfloor": 4852,
      "Ġestate": 4853,
      "Ġmonitor": 4854,
      "Ġtradition": 4855,
      "ĠOrgan": 4856,
      "Ġcivil": 4857,
      "Ġadequate": 4858,
      "faceted": 4859,
      "Don": 4860,
      "From": 4861,
      "Ġband": 4862,
      "Ġbaby": 4863,
      "Ġdental": 4864,
      "ĠSystem": 4865,
      "Ġimages": 4866,
      "Ġagreed": 4867,
      "Ġdivid": 4868,
      "iteria": 4869,
      "tification": 4870,
      "life": 4871,
      "telling": 4872,
      "Ġ=": 4873,
      "Ġcher": 4874,
      "ĠBusiness": 4875,
      "Ġloans": 4876,
      "formation": 4877,
      "ava": 4878,
      "Ġtransl": 4879,
      "Ġreporting": 4880,
      "Ġrefer": 4881,
      "iciency": 4882,
      "Ġeasier": 4883,
      "Ġacknowledging": 4884,
      "oved": 4885,
      "tu": 4886,
      "Ã©": 4887,
      "Ġcod": 4888,
      "Ġgas": 4889,
      "ratic": 4890,
      "Ġamount": 4891,
      "ounce": 4892,
      "ception": 4893,
      "Ġavailability": 4894,
      "sequent": 4895,
      "Ġcryptocurren": 4896,
      "Ġsour": 4897,
      "eries": 4898,
      "Ġrewards": 4899,
      "ĠCar": 4900,
      "izations": 4901,
      "ĠMin": 4902,
      "Ġstrange": 4903,
      "Ġcoll": 4904,
      "Ġlocated": 4905,
      "Ġemploying": 4906,
      "Ġpresented": 4907,
      "ĠSpot": 4908,
      "Ġobser": 4909,
      "Ġmagical": 4910,
      "Ġvarying": 4911,
      "Ġmanufacturers": 4912,
      "50": 4913,
      "ne": 4914,
      "anning": 4915,
      "lex": 4916,
      "Ġliqu": 4917,
      "Ġscal": 4918,
      "Ġhappily": 4919,
      "ubb": 4920,
      "working": 4921,
      "Ġvigil": 4922,
      "Ġtack": 4923,
      "Ġpul": 4924,
      "amiliar": 4925,
      "ĠAg": 4926,
      "Ġrememb": 4927,
      "Ġdecre": 4928,
      "Ġlocations": 4929,
      "Ġstanding": 4930,
      "Ġfilm": 4931,
      "Ġtemperature": 4932,
      "ength": 4933,
      "ĠInternational": 4934,
      "Ġmist": 4935,
      "ĠHave": 4936,
      "Ġsave": 4937,
      "Ġintellect": 4938,
      "Ġsevere": 4939,
      "Ġdesigning": 4940,
      "Ġblend": 4941,
      "Ġstriking": 4942,
      "Ġcharacteristics": 4943,
      "Ġtherapeu": 4944,
      "Ġreplace": 4945,
      "Ġclimate": 4946,
      "Ġdifference": 4947,
      "isdom": 4948,
      "ses": 4949,
      "oles": 4950,
      "Ġraw": 4951,
      "Ġsea": 4952,
      "ĠRed": 4953,
      "connected": 4954,
      "Ġsupply": 4955,
      "ormal": 4956,
      "Ġdrawing": 4957,
      "ym": 4958,
      "asion": 4959,
      "Ġuses": 4960,
      "Ġstrict": 4961,
      "Ġroof": 4962,
      "Ġformat": 4963,
      "Ġinternet": 4964,
      "Ġoptimize": 4965,
      "Ġanimal": 4966,
      "Ġwindow": 4967,
      "Ġcausing": 4968,
      "Ġflexible": 4969,
      "Ġgeograph": 4970,
      "Ġillustrate": 4971,
      "Ġbutterfly": 4972,
      "iveness": 4973,
      "Ġtit": 4974,
      "Ġment": 4975,
      "Ġlighting": 4976,
      "iding": 4977,
      "rial": 4978,
      "Ġround": 4979,
      "Ġemer": 4980,
      "Ġmanip": 4981,
      "Ġthanks": 4982,
      "ĠAdv": 4983,
      "Ġskilled": 4984,
      "Ġpatience": 4985,
      "Ġsuccessfully": 4986,
      "overed": 4987,
      "Ġsurprised": 4988,
      "Look": 4989,
      "such": 4990,
      "ĠEl": 4991,
      "ibl": 4992,
      "raw": 4993,
      "Ġmemory": 4994,
      "Ġoptimization": 4995,
      "Ġinvestments": 4996,
      "Ġversion": 4997,
      "Ġphenomen": 4998,
      "ray": 4999,
      "Ġmotor": 5000,
      "Ġancient": 5001,
      "ĠLook": 5002,
      "Ġregist": 5003,
      "Ġcove": 5004,
      "Ġrealized": 5005,
      "Ġcriteria": 5006,
      "Ġtargeted": 5007,
      "Ġpictures": 5008,
      "Ġamazing": 5009,
      "Ġgentle": 5010,
      "Ġfan": 5011,
      "Ġfell": 5012,
      "Ġforget": 5013,
      "ĠMolly": 5014,
      "Ġsex": 5015,
      "Ġphone": 5016,
      "Ġaccessible": 5017,
      "Ġextends": 5018,
      "Ġholds": 5019,
      "Ġtask": 5020,
      "Ġconflict": 5021,
      "Ġvacc": 5022,
      "Ġisol": 5023,
      "ĠMay": 5024,
      "Ġdemograph": 5025,
      "Ġflavors": 5026,
      "Ġentry": 5027,
      "Ġformer": 5028,
      "ĠIdentif": 5029,
      "pond": 5030,
      "reme": 5031,
      "Ġsix": 5032,
      "Ġwisdom": 5033,
      "chain": 5034,
      "ĠPower": 5035,
      "illing": 5036,
      "Ġoverw": 5037,
      "Ġserver": 5038,
      "Ġopin": 5039,
      "Ġotherwise": 5040,
      "Ġtele": 5041,
      "Ġboost": 5042,
      "ilitary": 5043,
      "Ġclaims": 5044,
      "Ġmitigate": 5045,
      "Ġarticle": 5046,
      "Ġobstacles": 5047,
      "hand": 5048,
      "Ġconver": 5049,
      "Ġplaces": 5050,
      "ĠPart": 5051,
      "Ġmanual": 5052,
      "rative": 5053,
      "ĠInter": 5054,
      "Ġactual": 5055,
      "Ġexpanding": 5056,
      "Ġfigures": 5057,
      "Sara": 5058,
      "iers": 5059,
      "Ġfrog": 5060,
      "Ġhom": 5061,
      "Ġgone": 5062,
      "Ġforce": 5063,
      "Ġrace": 5064,
      "Ġchain": 5065,
      "Ġquiet": 5066,
      "Ġblog": 5067,
      "Ġmedium": 5068,
      "Ġtransformative": 5069,
      "ĠPrac": 5070,
      "Ġviolence": 5071,
      "Ġcopy": 5072,
      "Ġaspiring": 5073,
      "Ġsnow": 5074,
      "Ġvic": 5075,
      "Ġdiscour": 5076,
      "Ġsecuring": 5077,
      "Ġentails": 5078,
      "Ġextended": 5079,
      "Ġinteresting": 5080,
      "Ġreaders": 5081,
      "Ġretail": 5082,
      "Ġinspire": 5083,
      "Ġevaluation": 5084,
      "Ġresolution": 5085,
      "Ġpremium": 5086,
      "Ġtherapeutic": 5087,
      "Ġpage": 5088,
      "Ġdance": 5089,
      "isp": 5090,
      "Ġegg": 5091,
      "Ġproduce": 5092,
      "ĠCB": 5093,
      "actors": 5094,
      "Ġteaching": 5095,
      "Ġtechnique": 5096,
      "Ġcollaborative": 5097,
      "Ġpushing": 5098,
      "Ġpractitioners": 5099,
      "Ġtrou": 5100,
      "ĠSally": 5101,
      "oints": 5102,
      "Ġmultifaceted": 5103,
      "ficial": 5104,
      "Ġparticipate": 5105,
      "Ġgrapp": 5106,
      "Ġbeliefs": 5107,
      "Ġsavings": 5108,
      "Ġtangible": 5109,
      "onents": 5110,
      "arian": 5111,
      "ley": 5112,
      "Ġadm": 5113,
      "ĠFl": 5114,
      "tedly": 5115,
      "Ġcream": 5116,
      "Ġmarg": 5117,
      "Ġreceiving": 5118,
      "Ġreliability": 5119,
      "Ġcalc": 5120,
      "Ġstruggle": 5121,
      "Ġimagine": 5122,
      "Ġexcessive": 5123,
      "Ġcaptivating": 5124,
      "MS": 5125,
      "ipp": 5126,
      "Ġsell": 5127,
      "Ġreaching": 5128,
      "Ġnic": 5129,
      "Ġlibr": 5130,
      "ello": 5131,
      "Ġassign": 5132,
      "Ġaccurately": 5133,
      "Ġroutine": 5134,
      "Ġdomain": 5135,
      "Ġdocumentation": 5136,
      "Ġmemorable": 5137,
      "mans": 5138,
      "Ġsubsequent": 5139,
      "Ġpoor": 5140,
      "Ġevaluate": 5141,
      "Ġetc": 5142,
      "Ġframeworks": 5143,
      "Ġmedicine": 5144,
      "Ġcognitive": 5145,
      "VID": 5146,
      "inated": 5147,
      "Ġborrow": 5148,
      "Ġokay": 5149,
      "Ġstone": 5150,
      "ĠIT": 5151,
      "Ġnothing": 5152,
      "Ġworkers": 5153,
      "Ġobjects": 5154,
      "Ġhardware": 5155,
      "Ġdinner": 5156,
      "Ġwitness": 5157,
      "ork": 5158,
      "Ġbunny": 5159,
      "icy": 5160,
      "ĠTyp": 5161,
      "unting": 5162,
      "Ġcompar": 5163,
      "Ġate": 5164,
      "Ġloan": 5165,
      "Ġincreases": 5166,
      "versely": 5167,
      "Ġmyster": 5168,
      "Ġviews": 5169,
      "ĠIndia": 5170,
      "Ġinclusivity": 5171,
      "Ġversatility": 5172,
      "Ġhoriz": 5173,
      "Ġthrive": 5174,
      "Ġreinfor": 5175,
      "Ġhospital": 5176,
      "Ġhabits": 5177,
      "tors": 5178,
      "Ġhole": 5179,
      "ĠPri": 5180,
      "ieties": 5181,
      "Ġsupports": 5182,
      "ĠEstabl": 5183,
      "oom": 5184,
      "pread": 5185,
      "uous": 5186,
      "ison": 5187,
      "enty": 5188,
      "ĠBal": 5189,
      "Ġdead": 5190,
      "ĠEduc": 5191,
      "ĠJim": 5192,
      "ĠEns": 5193,
      "Ġreading": 5194,
      "Ġstorytelling": 5195,
      "Ġinvolvement": 5196,
      "Ġvulnerable": 5197,
      "Ġsummary": 5198,
      "oly": 5199,
      "Ġcrow": 5200,
      "ederal": 5201,
      "Ġhyp": 5202,
      "ulated": 5203,
      "hering": 5204,
      "Ġcoaching": 5205,
      "Ġphil": 5206,
      "Ġcars": 5207,
      "Ġeleg": 5208,
      "Ġconnecting": 5209,
      "Ġlesson": 5210,
      "Ġviewers": 5211,
      "Ġseparate": 5212,
      "Ġadvertis": 5213,
      "Why": 5214,
      "Ġhind": 5215,
      "Ġnation": 5216,
      "Ġyummy": 5217,
      "ĠChe": 5218,
      "Ġexplicit": 5219,
      "ultural": 5220,
      "Ġdipl": 5221,
      "Ġrefine": 5222,
      "Ġoperation": 5223,
      "Ġslide": 5224,
      "Ġshapes": 5225,
      "letes": 5226,
      "Ġargue": 5227,
      "Ġpsychological": 5228,
      "ĠWorld": 5229,
      "Ġoverwhel": 5230,
      "ctive": 5231,
      "cies": 5232,
      "lamm": 5233,
      "ĠSocial": 5234,
      "Ġproceed": 5235,
      "Ġincidents": 5236,
      "Ġconcent": 5237,
      "Ġkeyword": 5238,
      "Ġdocuments": 5239,
      "Ġpressing": 5240,
      "Ġmoral": 5241,
      "Ġneighbor": 5242,
      "//": 5243,
      "Ġtotal": 5244,
      "irth": 5245,
      "ĠData": 5246,
      "Ġdiss": 5247,
      "Ġcomplement": 5248,
      "Ġelement": 5249,
      "Ġveget": 5250,
      "Ġpandemic": 5251,
      "Ġremembered": 5252,
      "flow": 5253,
      "lining": 5254,
      "Ġtiss": 5255,
      "till": 5256,
      "Ġmagn": 5257,
      "uccess": 5258,
      "uting": 5259,
      "Ġsav": 5260,
      "Ġpromise": 5261,
      "Ġinfluencing": 5262,
      "ronic": 5263,
      "Ġholding": 5264,
      "Ġsounds": 5265,
      "Ġmotivation": 5266,
      "Ġvehicles": 5267,
      "Ġperceived": 5268,
      "Ġpush": 5269,
      "ĠCare": 5270,
      "Ġadversity": 5271,
      "ĠLastly": 5272,
      "Ġinterconnected": 5273,
      "Ġenduring": 5274,
      "Ġtrip": 5275,
      "Ġcentered": 5276,
      "Ġpool": 5277,
      "atically": 5278,
      "Ġcleaning": 5279,
      "Ġconflicts": 5280,
      "Ġresonate": 5281,
      "Ġschol": 5282,
      "itage": 5283,
      "Ġride": 5284,
      "ĠPlus": 5285,
      "uests": 5286,
      "ĠState": 5287,
      "Ġminor": 5288,
      "ival": 5289,
      "Ġprospects": 5290,
      "Ġworksh": 5291,
      "Ġcells": 5292,
      "manship": 5293,
      "date": 5294,
      "ives": 5295,
      "mer": 5296,
      "oving": 5297,
      "Ġrelying": 5298,
      "essary": 5299,
      "agine": 5300,
      "Ġcontaining": 5301,
      "ĠDep": 5302,
      "Ġdish": 5303,
      "Ġfinance": 5304,
      "Ġblocks": 5305,
      "Ġbroken": 5306,
      "Ġcultures": 5307,
      "Ġownership": 5308,
      "Ġtip": 5309,
      "Ġwise": 5310,
      "cel": 5311,
      "agues": 5312,
      "rie": 5313,
      "Ġprovider": 5314,
      "Ġrequest": 5315,
      "Ġgeneration": 5316,
      "ashion": 5317,
      "Ġcharacterized": 5318,
      "Ġreflecting": 5319,
      "ĠAmerica": 5320,
      "Ġmaximum": 5321,
      "Timmy": 5322,
      "Ġerrors": 5323,
      "Ġallevi": 5324,
      "Ġtutorial": 5325,
      "Ġentertainment": 5326,
      "Ġvictim": 5327,
      "sp": 5328,
      "Ġcup": 5329,
      "Ġreasons": 5330,
      "ĠSw": 5331,
      "Ġprote": 5332,
      "Ġleverage": 5333,
      "apy": 5334,
      "ordinary": 5335,
      "Ġgrace": 5336,
      "Ġpaint": 5337,
      "Ġsymbol": 5338,
      "right": 5339,
      "Ġi": 5340,
      "ĠSEO": 5341,
      "Ġwilling": 5342,
      "Ġexperiencing": 5343,
      "Ġlearners": 5344,
      "Ġachievements": 5345,
      "Ġthreat": 5346,
      "Ġinstallation": 5347,
      "Ġmillion": 5348,
      "Ġindependent": 5349,
      "Ġpromptly": 5350,
      "Despite": 5351,
      "Ġaccomplish": 5352,
      "His": 5353,
      "kl": 5354,
      "Ġtag": 5355,
      "Ġdomes": 5356,
      "Ġmer": 5357,
      "Ġmail": 5358,
      "ague": 5359,
      "Ġbeach": 5360,
      "osed": 5361,
      "Ġchance": 5362,
      "ĠMet": 5363,
      "Ġupcoming": 5364,
      "Ġdishes": 5365,
      "Ġscale": 5366,
      "Ġexplo": 5367,
      "Ġdefine": 5368,
      "Ġtraditions": 5369,
      "Ġturned": 5370,
      "Ġtrading": 5371,
      "appy": 5372,
      "Ġreviews": 5373,
      "Before": 5374,
      "Ġlength": 5375,
      "mental": 5376,
      "agers": 5377,
      "ĠRather": 5378,
      "Ġsuit": 5379,
      "Ġallowed": 5380,
      "Ġimmense": 5381,
      "Ġreflection": 5382,
      "Ġempowering": 5383,
      "Ġfigure": 5384,
      "Ġcollege": 5385,
      "Ġdiplom": 5386,
      "CA": 5387,
      "ru": 5388,
      "Ġtow": 5389,
      "Ġmouth": 5390,
      "ented": 5391,
      "Ġapps": 5392,
      "Ġdisorders": 5393,
      "Ġtimely": 5394,
      "ĠNF": 5395,
      "Ġsigns": 5396,
      "Ġboard": 5397,
      "Ġdistribut": 5398,
      "Ġgoverning": 5399,
      "Ġraises": 5400,
      "Ġwoods": 5401,
      "Ġcooperation": 5402,
      "Ġintellectual": 5403,
      "iven": 5404,
      "pet": 5405,
      "Ġfox": 5406,
      "Ġbath": 5407,
      "Ġacts": 5408,
      "ĠDel": 5409,
      "Ġstatement": 5410,
      "Ġalignment": 5411,
      "Ġstreamline": 5412,
      "Ġextraordinary": 5413,
      "Ġaesthetic": 5414,
      "Ġpuppy": 5415,
      "Then": 5416,
      "fast": 5417,
      "points": 5418,
      "rain": 5419,
      "itor": 5420,
      "irms": 5421,
      "ĠCustom": 5422,
      "ĠMus": 5423,
      "Ġdeg": 5424,
      "udes": 5425,
      "ĠNever": 5426,
      "lessly": 5427,
      "Ġbeneficial": 5428,
      "Ġinterested": 5429,
      "Ġcourses": 5430,
      "Ġadjustments": 5431,
      "ĠUsing": 5432,
      "bon": 5433,
      "iec": 5434,
      "Ġcake": 5435,
      "ĠSk": 5436,
      "Ġvill": 5437,
      "osition": 5438,
      "ums": 5439,
      "Ġshed": 5440,
      "Ġfunny": 5441,
      "Ġconnected": 5442,
      "Ġsuppor": 5443,
      "Ġaudio": 5444,
      "Ġswing": 5445,
      "Ġrelevance": 5446,
      "Ġshifts": 5447,
      "cription": 5448,
      "Ġnecessitates": 5449,
      "Ġdescribed": 5450,
      "eal": 5451,
      "Ġhit": 5452,
      "stone": 5453,
      "rief": 5454,
      "ĠCal": 5455,
      "ĠRuss": 5456,
      "Ġscri": 5457,
      "Ġregions": 5458,
      "Ġaccomp": 5459,
      "Ġcombined": 5460,
      "lish": 5461,
      "Ġrent": 5462,
      "Ġgaming": 5463,
      "Ġstock": 5464,
      "ults": 5465,
      "unt": 5466,
      "Ġsecret": 5467,
      "Ġgenerally": 5468,
      "Ġjournal": 5469,
      "chool": 5470,
      "Ġscreen": 5471,
      "Ġrenew": 5472,
      "Ġdimensions": 5473,
      "evity": 5474,
      "ran": 5475,
      "rest": 5476,
      "Ġmilitary": 5477,
      "Ġlens": 5478,
      "Ġconnect": 5479,
      "Ġincident": 5480,
      "Ġessence": 5481,
      "Ġinnovations": 5482,
      "ĠProt": 5483,
      "Ġreturns": 5484,
      "Ġslowly": 5485,
      "Ġadherence": 5486,
      "house": 5487,
      "Ġrare": 5488,
      "Ġdeploy": 5489,
      "Ġload": 5490,
      "formance": 5491,
      "Ġcohes": 5492,
      "Ġcoaches": 5493,
      "Ġattorn": 5494,
      "Ġfeels": 5495,
      "Ġcalls": 5496,
      "Ġlistening": 5497,
      "Ġculinary": 5498,
      "Ġprecision": 5499,
      "Ġpreviously": 5500,
      "Ġreward": 5501,
      "ĠIP": 5502,
      "Ġoutput": 5503,
      "Ġquite": 5504,
      "Ġinterface": 5505,
      "Ġteeth": 5506,
      "Ġadvice": 5507,
      "Ġattacks": 5508,
      "Ġbatter": 5509,
      "Ġanswer": 5510,
      "eor": 5511,
      "utive": 5512,
      "Ġaid": 5513,
      "tific": 5514,
      "Ġwhe": 5515,
      "asp": 5516,
      "ĠSet": 5517,
      "Ġselect": 5518,
      "ĠPersonal": 5519,
      "Ġunw": 5520,
      "Ġunity": 5521,
      "Ġperhaps": 5522,
      "ĠAnaly": 5523,
      "Ġemployee": 5524,
      "Ġactors": 5525,
      "Ġstepped": 5526,
      "Ġshowcasing": 5527,
      "ĠAfric": 5528,
      "App": 5529,
      "Understanding": 5530,
      "ss": 5531,
      "table": 5532,
      "erb": 5533,
      "Ġwides": 5534,
      "ula": 5535,
      "ffee": 5536,
      "Ġword": 5537,
      "Ġoblig": 5538,
      "Ġpromotes": 5539,
      "Ġpolicymakers": 5540,
      "ĠChristians": 5541,
      "related": 5542,
      "Ġexcellence": 5543,
      "Ġschedul": 5544,
      "Ġurban": 5545,
      "Ġhousing": 5546,
      "Ġcamer": 5547,
      "apping": 5548,
      "page": 5549,
      "Ġcash": 5550,
      "Ġpit": 5551,
      "ĠCount": 5552,
      "Ġcompens": 5553,
      "Ġresidents": 5554,
      "Ġunit": 5555,
      "ĠDon": 5556,
      "Ġamounts": 5557,
      "Ġempowers": 5558,
      "Ġtargeting": 5559,
      "Ġfreed": 5560,
      "Ġprepare": 5561,
      "Ġcriminal": 5562,
      "Ġpreparation": 5563,
      "Ġnuances": 5564,
      "Ġheightened": 5565,
      "ĠCOVID": 5566,
      "Furthermore": 5567,
      "Ġguests": 5568,
      "Ġuns": 5569,
      "Ġdesigners": 5570,
      "Ġattending": 5571,
      "Ġthoughtfully": 5572,
      "Ġcatering": 5573,
      "Ġsuperior": 5574,
      "down": 5575,
      "inc": 5576,
      "Ġflying": 5577,
      "Ġenrich": 5578,
      "ocol": 5579,
      "ensity": 5580,
      "Ġdecades": 5581,
      "Ġthank": 5582,
      "Ġaffect": 5583,
      "Ġtransforming": 5584,
      "Ġsusp": 5585,
      "Ġbott": 5586,
      "Ġsophisticated": 5587,
      "Ġwidespread": 5588,
      "SS": 5589,
      "Ġselling": 5590,
      "Ġmark": 5591,
      "ictions": 5592,
      "Ġven": 5593,
      "----------": 5594,
      "inding": 5595,
      "owned": 5596,
      "Ġsurv": 5597,
      "Ġ18": 5598,
      "ounting": 5599,
      "ĠAmong": 5600,
      "Ġconversion": 5601,
      "Ġpackage": 5602,
      "Ġathletes": 5603,
      "Ġsafeguarding": 5604,
      ".'": 5605,
      "taking": 5606,
      "inger": 5607,
      "asive": 5608,
      "vering": 5609,
      "irrel": 5610,
      "Ġforth": 5611,
      "ĠSouth": 5612,
      "Ġvict": 5613,
      "Ġunnec": 5614,
      "Ġgrant": 5615,
      "Ġlongevity": 5616,
      "Ġcollaborations": 5617,
      "Ġadoption": 5618,
      "ĠCollabor": 5619,
      "Ġaffordable": 5620,
      "Ġluxury": 5621,
      "CO": 5622,
      "urrent": 5623,
      "osis": 5624,
      "Ġsport": 5625,
      "Ġvariety": 5626,
      "Ġdriver": 5627,
      "Ġcombat": 5628,
      "Ġemphasis": 5629,
      "Ġprospective": 5630,
      "Ġinvestigation": 5631,
      "Ġallocation": 5632,
      "Ġattributes": 5633,
      "Ġcorporate": 5634,
      "iblical": 5635,
      "dri": 5636,
      "reen": 5637,
      "arp": 5638,
      "Ġextr": 5639,
      "Ġheritage": 5640,
      "ĠGu": 5641,
      "Ġserved": 5642,
      "ĠJill": 5643,
      "ĠNon": 5644,
      "ounds": 5645,
      "Ġagents": 5646,
      "Ġwhereas": 5647,
      "cipl": 5648,
      "Ġoneself": 5649,
      "Ġconduct": 5650,
      "Ġdestination": 5651,
      "Ġaesthetics": 5652,
      "Ġcategories": 5653,
      "Ġblockchain": 5654,
      "Ġintriguing": 5655,
      "Ġliquid": 5656,
      "nic": 5657,
      "Ġtiny": 5658,
      "Ġcaught": 5659,
      "unk": 5660,
      "unte": 5661,
      "Ġaren": 5662,
      "ube": 5663,
      "ountain": 5664,
      "Ġthoughts": 5665,
      "Ġnetworking": 5666,
      "theless": 5667,
      "Hello": 5668,
      "jective": 5669,
      "Ġfat": 5670,
      "Ġdre": 5671,
      "Ġmel": 5672,
      "Ġmicro": 5673,
      "ĠTogether": 5674,
      "ĠSol": 5675,
      "uses": 5676,
      "ifies": 5677,
      "istry": 5678,
      "illi": 5679,
      "Ġunpar": 5680,
      "venues": 5681,
      "raf": 5682,
      "ĠJen": 5683,
      "Ġdiscovered": 5684,
      "Ġeveryday": 5685,
      "ĠCho": 5686,
      "Ġencry": 5687,
      "Ġaddresses": 5688,
      "Ġlegis": 5689,
      "Ġemotion": 5690,
      "Ġpriorities": 5691,
      "Ġmastering": 5692,
      "alleled": 5693,
      "Ġuncertainty": 5694,
      "Ġunparalleled": 5695,
      "comm": 5696,
      "anges": 5697,
      "aser": 5698,
      "ections": 5699,
      "umn": 5700,
      "pection": 5701,
      "Ġexamples": 5702,
      "Ġforeign": 5703,
      "Ġdetermination": 5704,
      "Ġindicates": 5705,
      "Ġbuyers": 5706,
      "ĠSecond": 5707,
      "Ġsupportive": 5708,
      "Ġhalf": 5709,
      "ĠFace": 5710,
      "Ġattract": 5711,
      "Ġinteract": 5712,
      "Ġcozy": 5713,
      "Ġassessment": 5714,
      "crip": 5715,
      "Ġguarantees": 5716,
      "Ġdangerous": 5717,
      "cons": 5718,
      "oral": 5719,
      "Ġwet": 5720,
      "Ġbrows": 5721,
      "Ġhomes": 5722,
      "Ġlion": 5723,
      "Ġprominent": 5724,
      "Ġemployment": 5725,
      "ceptions": 5726,
      "Ġolder": 5727,
      "Ġenjoying": 5728,
      "Ġcombination": 5729,
      "Ġclassroom": 5730,
      "Ġteacher": 5731,
      "olitical": 5732,
      "ĠEuropean": 5733,
      "oubtedly": 5734,
      "Ġlifestyle": 5735,
      "Ġunnecessary": 5736,
      "PS": 5737,
      "Pro": 5738,
      "Ġpin": 5739,
      "Ġdating": 5740,
      "lets": 5741,
      "Ġwhose": 5742,
      "Ġusually": 5743,
      "ĠDec": 5744,
      "Ġsmell": 5745,
      "ĠOb": 5746,
      "Ġvisually": 5747,
      "ĠProgr": 5748,
      "Ġrestaur": 5749,
      "Ġhumanity": 5750,
      "Ġvideos": 5751,
      "Ġsquirrel": 5752,
      "Ġelevate": 5753,
      "Ġcovered": 5754,
      "PA": 5755,
      "Ġsizes": 5756,
      "Ġelect": 5757,
      "abric": 5758,
      "Ġclarity": 5759,
      "Ġbigger": 5760,
      "Ġcourt": 5761,
      "Ġtests": 5762,
      "Ġengineering": 5763,
      "ĠAssoci": 5764,
      "ĠMarketing": 5765,
      "Sam": 5766,
      "ixt": 5767,
      "Ġtun": 5768,
      "Ġhung": 5769,
      "Ġchurch": 5770,
      "ĠLeg": 5771,
      "Ġsubmit": 5772,
      "Ġtestament": 5773,
      "Ġforgot": 5774,
      "Ġstatistics": 5775,
      "CC": 5776,
      "gi": 5777,
      "hab": 5778,
      "met": 5779,
      "Ġaf": 5780,
      "Ġpages": 5781,
      "Ġpink": 5782,
      "Ġfem": 5783,
      "ĠAPI": 5784,
      "ĠCity": 5785,
      "ĠHar": 5786,
      "Ġtruth": 5787,
      "ĠNet": 5788,
      "Ġaccessories": 5789,
      "ocket": 5790,
      "ĠExpl": 5791,
      "Ġestim": 5792,
      "Ġtrusted": 5793,
      "Ġevolution": 5794,
      "Ġreveals": 5795,
      "Ġscenario": 5796,
      "Ġworkshops": 5797,
      "uge": 5798,
      "utional": 5799,
      "Ġfur": 5800,
      "ĠDef": 5801,
      "Ġnotes": 5802,
      "Ġfruit": 5803,
      "party": 5804,
      "ĠQu": 5805,
      "Ġexercises": 5806,
      "Ġchecks": 5807,
      "ĠNevertheless": 5808,
      "Wow": 5809,
      "fol": 5810,
      "ror": 5811,
      "Ġign": 5812,
      "Ġbond": 5813,
      "othes": 5814,
      "ĠSuccess": 5815,
      "lection": 5816,
      "Ġopt": 5817,
      "ĠSte": 5818,
      "Ġsubtle": 5819,
      "Ġstars": 5820,
      "Ġuseful": 5821,
      "TMt": 5822,
      "Ġshowcase": 5823,
      "Ġelectric": 5824,
      "Ġacadem": 5825,
      "AR": 5826,
      "known": 5827,
      "Ġtips": 5828,
      "Ġap": 5829,
      "Ġfashion": 5830,
      "att": 5831,
      "Ġplaced": 5832,
      "Ġintended": 5833,
      "ĠPaul": 5834,
      "Ġshel": 5835,
      "Ġmeets": 5836,
      "Ġdesk": 5837,
      "----------------------------": 5838,
      "Ġsubject": 5839,
      "Ġundoubtedly": 5840,
      "Ġarray": 5841,
      "Ġschedules": 5842,
      "ĠDevelopment": 5843,
      "Ġerror": 5844,
      "Ġweaknesses": 5845,
      "ĠExamples": 5846,
      "Ġarchitecture": 5847,
      "Al": 5848,
      "nab": 5849,
      "inning": 5850,
      "level": 5851,
      "Ġprol": 5852,
      "Ġupgr": 5853,
      "Ġ12": 5854,
      "ĠVal": 5855,
      "Ġbelow": 5856,
      "Ġelig": 5857,
      "Ġcomprehension": 5858,
      "Ġauthorities": 5859,
      "Ġpurchase": 5860,
      "ĠRecogn": 5861,
      "Ġrooted": 5862,
      "Ġarrangements": 5863,
      "Em": 5864,
      "gn": 5865,
      "lin": 5866,
      "tire": 5867,
      "Ġpump": 5868,
      "Ġeating": 5869,
      "Ġexists": 5870,
      "aint": 5871,
      "unc": 5872,
      "Ġring": 5873,
      "ĠWord": 5874,
      "Ġunits": 5875,
      "ĠJava": 5876,
      "Ġsynt": 5877,
      "Ġcareers": 5878,
      "Ġformation": 5879,
      "Ġextend": 5880,
      "Ġstayed": 5881,
      "Ġdetailed": 5882,
      "Ġundersc": 5883,
      "Ġshopping": 5884,
      "Additionally": 5885,
      "Ġchemical": 5886,
      "Ġentrepreneurs": 5887,
      "free": 5888,
      "Ġwish": 5889,
      "Ġbirth": 5890,
      "owered": 5891,
      "oper": 5892,
      "Ġproducing": 5893,
      "Ġmodifications": 5894,
      "ĠConversely": 5895,
      "Ġapplicable": 5896,
      "Ġoptimizing": 5897,
      "Ġsugar": 5898,
      "Ġcontrast": 5899,
      "Ġ2021": 5900,
      "Ġagreements": 5901,
      "Ġbolst": 5902,
      "discipl": 5903,
      "front": 5904,
      "Ġdrop": 5905,
      "Ġbee": 5906,
      "ticism": 5907,
      "Ġleast": 5908,
      "itivity": 5909,
      "ĠFe": 5910,
      "Ġgenerating": 5911,
      "Ġmusical": 5912,
      "Ġseems": 5913,
      "Ġcomputing": 5914,
      "Ġwatching": 5915,
      "Ġfailure": 5916,
      "Ġadministration": 5917,
      "Ġpreparing": 5918,
      "Ġcounsel": 5919,
      "Ġwall": 5920,
      "igital": 5921,
      "Ġyog": 5922,
      "ighter": 5923,
      "ocking": 5924,
      "Ġchronic": 5925,
      "Ġshop": 5926,
      "ĠFollow": 5927,
      "Ġhaz": 5928,
      "ĠRob": 5929,
      "ĠInves": 5930,
      "Ġinner": 5931,
      "Ġidentified": 5932,
      "arsh": 5933,
      "Ġwritten": 5934,
      "Ġtargets": 5935,
      "Ġharmon": 5936,
      "Ġshifting": 5937,
      "Ġwidely": 5938,
      "Ġauthenticity": 5939,
      "Ġframework": 5940,
      "..": 5941,
      "DC": 5942,
      "eds": 5943,
      "Ġfirms": 5944,
      "Ġbuck": 5945,
      "Ġrender": 5946,
      "iger": 5947,
      "Ġcomplications": 5948,
      "ĠBet": 5949,
      "Ġchat": 5950,
      "ĠPublic": 5951,
      "Ġexplored": 5952,
      "Ġcommonly": 5953,
      "visions": 5954,
      "plify": 5955,
      "ĠGrand": 5956,
      "Ġaffordability": 5957,
      "Ġinstructions": 5958,
      "Ġphilos": 5959,
      "box": 5960,
      "mar": 5961,
      "Ġmir": 5962,
      "roduce": 5963,
      "ecurity": 5964,
      "adow": 5965,
      "ĠBuilding": 5966,
      "Ġfeet": 5967,
      "itty": 5968,
      "hered": 5969,
      "ĠAddress": 5970,
      "Ġstudying": 5971,
      "Ġbreaking": 5972,
      "Ġintegrated": 5973,
      "Ġpopulation": 5974,
      "Ġlegacy": 5975,
      "ĠCommon": 5976,
      "Ġconstructive": 5977,
      "Ġindicators": 5978,
      "Ġathle": 5979,
      "Ġdatabase": 5980,
      "Ġapplied": 5981,
      "Ġadvertising": 5982,
      "Guid": 5983,
      "aving": 5984,
      "bal": 5985,
      "Ġhill": 5986,
      "Ġnames": 5987,
      "ĠRel": 5988,
      "Ġmeal": 5989,
      "ĠGroup": 5990,
      "Ġprofit": 5991,
      "Ġconfirm": 5992,
      "Ġfrag": 5993,
      "Ġinstitution": 5994,
      "Ġgovernance": 5995,
      "Ġfitness": 5996,
      "Ġstruggles": 5997,
      "Ġpursuing": 5998,
      "Ġacquis": 5999,
      "Ġmilest": 6000,
      "Ġfarmer": 6001,
      "Ġrecommendations": 6002,
      "Ġderived": 6003,
      "pact": 6004,
      "Ġbill": 6005,
      "Ġbite": 6006,
      "Ġmic": 6007,
      "semb": 6008,
      "ĠFort": 6009,
      "There": 6010,
      "Ġprofiles": 6011,
      "Ġpartner": 6012,
      "ĠTommy": 6013,
      "Ġruns": 6014,
      "Ġbasket": 6015,
      "Ġavoiding": 6016,
      "Ġimmediately": 6017,
      "Ġcookies": 6018,
      "Ġintroduced": 6019,
      "tt": 6020,
      "Ġtom": 6021,
      "arter": 6022,
      "leg": 6023,
      "Ġconvey": 6024,
      "uctu": 6025,
      "Ġadhering": 6026,
      "Ġimpl": 6027,
      "ĠLear": 6028,
      "Ġsuitable": 6029,
      "Ġrecon": 6030,
      "Ġassist": 6031,
      "Ġowner": 6032,
      "Ġequal": 6033,
      "Ġrecognized": 6034,
      "Ġoccup": 6035,
      "Ġbelievers": 6036,
      "Ġsteel": 6037,
      "Ġupdated": 6038,
      "Ġcontract": 6039,
      "Ġentirely": 6040,
      "Ġmagic": 6041,
      "Ġamazed": 6042,
      "RM": 6043,
      "yl": 6044,
      "Ġsought": 6045,
      "Ġwants": 6046,
      "Ġbiblical": 6047,
      "Ġtooth": 6048,
      "Ġmand": 6049,
      "ĠSur": 6050,
      "Ġrot": 6051,
      "Ġmeals": 6052,
      "Ġdiving": 6053,
      "Ġremaining": 6054,
      "Ġclosed": 6055,
      "Ġpayments": 6056,
      "ĠIndeed": 6057,
      "Ġvoices": 6058,
      "Ġannual": 6059,
      "Ġstreet": 6060,
      "Ġmeticulous": 6061,
      "ĠEncouraging": 6062,
      "Ġiconic": 6063,
      "pting": 6064,
      "sol": 6065,
      "tial": 6066,
      "orship": 6067,
      "lecting": 6068,
      "Ġdecor": 6069,
      "Ġdoors": 6070,
      "Ġexcer": 6071,
      "Ġgaining": 6072,
      "Ġpoly": 6073,
      "Ġinspiring": 6074,
      "Ġpositioning": 6075,
      "Ġtexture": 6076,
      "Ġmachines": 6077,
      "Ġbackgrounds": 6078,
      "Ġsectors": 6079,
      "Ġexhibit": 6080,
      "Ġniche": 6081,
      "Ġfreedom": 6082,
      "SO": 6083,
      "Sh": 6084,
      "eem": 6085,
      "Ġaverage": 6086,
      "Ġcards": 6087,
      "entral": 6088,
      "pled": 6089,
      "ĠMr": 6090,
      "forward": 6091,
      "Ġcloth": 6092,
      "ancies": 6093,
      "Ġ15": 6094,
      "Ġedge": 6095,
      "Ġtalents": 6096,
      "Ġcentury": 6097,
      "Ġseemed": 6098,
      "Ġclearly": 6099,
      "Ġstrike": 6100,
      "Ġinviting": 6101,
      "Ġvolumes": 6102,
      "Ġinclusion": 6103,
      "Ġshowcases": 6104,
      "Ġcounterpar": 6105,
      "Ġlaunch": 6106,
      "Ġconstantly": 6107,
      "Ġemerge": 6108,
      "top": 6109,
      "itam": 6110,
      "Ġlake": 6111,
      "Ġnormal": 6112,
      "tering": 6113,
      "ĠCap": 6114,
      "uman": 6115,
      "ĠPat": 6116,
      "Ġcenters": 6117,
      "ĠPlay": 6118,
      "Ġcelebrate": 6119,
      "ĠChristianity": 6120,
      "Ġpreserve": 6121,
      "Ġinstrument": 6122,
      "Ġdiscourse": 6123,
      "water": 6124,
      "Ġpig": 6125,
      "Ġshoot": 6126,
      "ĠDem": 6127,
      "Ġworship": 6128,
      "uality": 6129,
      "Ġindul": 6130,
      "anged": 6131,
      "Ġfluctu": 6132,
      "Ġmusicians": 6133,
      "Ġautomation": 6134,
      "notch": 6135,
      "Ġlinked": 6136,
      "ĠRegularly": 6137,
      "ĠStrategies": 6138,
      "En": 6139,
      "ample": 6140,
      "Ġsequ": 6141,
      "Ġflo": 6142,
      "Ġbene": 6143,
      "Ġintegral": 6144,
      "Anna": 6145,
      "Ġslight": 6146,
      "Ġreceived": 6147,
      "Ġinvent": 6148,
      "Ġsearching": 6149,
      "Ġconducted": 6150,
      "Ġlosses": 6151,
      "Next": 6152,
      "cal": 6153,
      "hib": 6154,
      "Ġcities": 6155,
      "Ġpal": 6156,
      "ato": 6157,
      "Ġmort": 6158,
      "igent": 6159,
      "izz": 6160,
      "ĠWar": 6161,
      "ĠEffective": 6162,
      "Ġunwa": 6163,
      "Ġtreating": 6164,
      "Ġblank": 6165,
      "Ġcheese": 6166,
      "Ġstruct": 6167,
      "Ġconstitutes": 6168,
      "disciplinary": 6169,
      "Ġcounterparts": 6170,
      "And": 6171,
      "cast": 6172,
      "yard": 6173,
      "year": 6174,
      "tingu": 6175,
      "ĠPe": 6176,
      "Ġgenerated": 6177,
      "Ġvolume": 6178,
      "Ġconversation": 6179,
      "Ġwarrant": 6180,
      "Ġmillions": 6181,
      "Ġattractive": 6182,
      "Ġofficials": 6183,
      "ĠCenter": 6184,
      "Ġrevolution": 6185,
      "Ġexplicitly": 6186,
      "Ġaccompan": 6187,
      "Ġunwavering": 6188,
      "eks": 6189,
      "lies": 6190,
      "press": 6191,
      "Ġstim": 6192,
      "Ġwished": 6193,
      "ouble": 6194,
      "Ġstret": 6195,
      "otyp": 6196,
      "ĠSchool": 6197,
      "ĠAre": 6198,
      "ogen": 6199,
      "Ġovers": 6200,
      "Ġinsight": 6201,
      "Ġhelpful": 6202,
      "Ġbridge": 6203,
      "Ġcorres": 6204,
      "Ġgovernments": 6205,
      "Ġbringing": 6206,
      "ĠImplementing": 6207,
      "Ġendeavors": 6208,
      "Ġgeographical": 6209,
      "Ġdomestic": 6210,
      "Ġexcerpt": 6211,
      "EM": 6212,
      "RI": 6213,
      "de": 6214,
      "iver": 6215,
      "ĠAmy": 6216,
      "Ġvs": 6217,
      "Ġintu": 6218,
      "Ġaccum": 6219,
      "ĠOut": 6220,
      "ĠStay": 6221,
      "Ġamongst": 6222,
      "Ġoperate": 6223,
      "ĠProvid": 6224,
      "Ġdefin": 6225,
      "Ġ30": 6226,
      "Ġminds": 6227,
      "Ġemerged": 6228,
      "Ġpartnership": 6229,
      "Ġencompasses": 6230,
      "Ġimmersive": 6231,
      "ĠEducation": 6232,
      "Tr": 6233,
      "rators": 6234,
      "Ġpair": 6235,
      "Ġwed": 6236,
      "Ġgun": 6237,
      "urning": 6238,
      "ĠLin": 6239,
      "Ġuphold": 6240,
      "Ġcoffee": 6241,
      "Ġdiscovery": 6242,
      "Ġbrain": 6243,
      "Ġformal": 6244,
      "Ġrepresenting": 6245,
      "Ġauthority": 6246,
      "ĠColle": 6247,
      "Ġrenowned": 6248,
      "Ġcrisis": 6249,
      "Ġwelcome": 6250,
      "ĠServices": 6251,
      "ĠPresident": 6252,
      "Ġscholars": 6253,
      "DF": 6254,
      "mal": 6255,
      "esp": 6256,
      "asures": 6257,
      "Ġthr": 6258,
      "Ġgaps": 6259,
      "ardless": 6260,
      "Ġsharp": 6261,
      "Ġbusy": 6262,
      "Ġmoist": 6263,
      "Ġequitable": 6264,
      "Ġmuscle": 6265,
      "Ġactually": 6266,
      "Ġvolunte": 6267,
      "Ġautomated": 6268,
      "Ġrestrictions": 6269,
      "Ġdisciplines": 6270,
      "Ġoutdoor": 6271,
      "Ġfes": 6272,
      "Ġfold": 6273,
      "acerb": 6274,
      "ĠTip": 6275,
      "Ġexacerb": 6276,
      "ĠAv": 6277,
      "Ġoral": 6278,
      "ĠHappy": 6279,
      "forget": 6280,
      "tains": 6281,
      "Ġagency": 6282,
      "aker": 6283,
      "Ġtex": 6284,
      "Ġorganized": 6285,
      "Ġcurren": 6286,
      "Ġtailor": 6287,
      "Ġpainting": 6288,
      "Ġtempl": 6289,
      "Ġcryst": 6290,
      "Ġappears": 6291,
      "Ġcrafted": 6292,
      "Ġconducting": 6293,
      "Ġwaters": 6294,
      "Ġsacri": 6295,
      "Ġpersistent": 6296,
      "Ġmarginal": 6297,
      "cop": 6298,
      "Ġcrown": 6299,
      "Ġpip": 6300,
      "asm": 6301,
      "Ġstones": 6302,
      "Ġexpected": 6303,
      "ĠBar": 6304,
      "ĠLever": 6305,
      "Ġaccident": 6306,
      "Ġbeloved": 6307,
      "Ġlimits": 6308,
      "Ġfunding": 6309,
      "Ġmaximizing": 6310,
      "Ġ199": 6311,
      "Ġhyd": 6312,
      "Ġthriving": 6313,
      "Ġcompeting": 6314,
      "Ġplease": 6315,
      "ĠNorth": 6316,
      "Ġphenomenon": 6317,
      "Ġcompensation": 6318,
      "forgettable": 6319,
      "wr": 6320,
      "Ġsem": 6321,
      "Ġpun": 6322,
      "ĠSal": 6323,
      "Ġvir": 6324,
      "ĠHist": 6325,
      "ĠBo": 6326,
      "Ġcommand": 6327,
      "overn": 6328,
      "Ġpeers": 6329,
      "Ġflour": 6330,
      "Ġobject": 6331,
      "Ġgoods": 6332,
      "Ġtravelers": 6333,
      "load": 6334,
      "onomic": 6335,
      "driven": 6336,
      "Ġsuddenly": 6337,
      "Ġpose": 6338,
      "Ġfra": 6339,
      "ashing": 6340,
      "Ġinteractive": 6341,
      "Ġincluded": 6342,
      "ĠYet": 6343,
      "ĠConf": 6344,
      "Ġpersonalized": 6345,
      "Ġgives": 6346,
      "Ġmatches": 6347,
      "ĠIntegr": 6348,
      "Ġriver": 6349,
      "Ġdiseases": 6350,
      "Ġstraightforward": 6351,
      "Ġincredible": 6352,
      "solving": 6353,
      ");": 6354,
      "enn": 6355,
      "Ġdu": 6356,
      "Ġnations": 6357,
      "Ġsees": 6358,
      "Ġwearing": 6359,
      "Ġjur": 6360,
      "ĠGiven": 6361,
      "Ġperpet": 6362,
      "ĠYork": 6363,
      "Ġpracticing": 6364,
      "Ġranking": 6365,
      "Ġtopic": 6366,
      "Ġbalancing": 6367,
      "Ġcolorful": 6368,
      "Ġrecipe": 6369,
      "Ġsmartph": 6370,
      "Ġpaid": 6371,
      "Ġcraftsmanship": 6372,
      "ĠFacebook": 6373,
      "Ġbeneath": 6374,
      ",'": 6375,
      "15": 6376,
      "CE": 6377,
      "vent": 6378,
      "Ġfederal": 6379,
      "Ġbul": 6380,
      "lean": 6381,
      "Ġhide": 6382,
      "cean": 6383,
      "ĠBilly": 6384,
      "Ġplenty": 6385,
      "estry": 6386,
      "Ġdistingu": 6387,
      "raft": 6388,
      "Ġoutlined": 6389,
      "Ġorganic": 6390,
      "Ġdemocratic": 6391,
      "Ġfishing": 6392,
      "Ġeco": 6393,
      "Ġvend": 6394,
      "Ġorange": 6395,
      "Ġchamp": 6396,
      "Ġrecre": 6397,
      "ĠUse": 6398,
      "Ġrepair": 6399,
      "Ġposes": 6400,
      "Ġsurfaces": 6401,
      "Ġ14": 6402,
      "Ġmov": 6403,
      "worth": 6404,
      "Ġtraum": 6405,
      "Ġdefense": 6406,
      "ucky": 6407,
      "Ġprecious": 6408,
      "Ġexpansion": 6409,
      "RP": 6410,
      "Re": 6411,
      "SA": 6412,
      "che": 6413,
      "Ġbike": 6414,
      "Ġdenti": 6415,
      "ils": 6416,
      "iling": 6417,
      "Ġgently": 6418,
      "Ġstead": 6419,
      "Ġshown": 6420,
      "ĠLaw": 6421,
      "Ġpromised": 6422,
      "Ġindisp": 6423,
      "Ġphase": 6424,
      "Ġdetection": 6425,
      "Ġmember": 6426,
      "ĠBenny": 6427,
      "Ġguiding": 6428,
      "ĠAtt": 6429,
      "Ġembark": 6430,
      "Ġperfectly": 6431,
      "Ġdaunting": 6432,
      "ĠDisc": 6433,
      "ĠInstit": 6434,
      "Ġbugs": 6435,
      "Ġhighlighted": 6436,
      "Ġindispens": 6437,
      "Ultimately": 6438,
      "With": 6439,
      "inery": 6440,
      "Ġce": 6441,
      "Ġbank": 6442,
      "Ġretention": 6443,
      "olf": 6444,
      "urally": 6445,
      "elp": 6446,
      "andy": 6447,
      "ocked": 6448,
      "uming": 6449,
      "Ġunforgettable": 6450,
      "ĠOf": 6451,
      "Ġbuying": 6452,
      "Ġfinish": 6453,
      "Ġsimply": 6454,
      "Ġglim": 6455,
      "ĠUnlike": 6456,
      "Ġsafely": 6457,
      "Ġstatements": 6458,
      "Ġconvenient": 6459,
      "Ġcyber": 6460,
      "Ġroutines": 6461,
      "Ġdimin": 6462,
      "Ġtemperatures": 6463,
      "Ġcorrespond": 6464,
      "Ġindispensable": 6465,
      "SP": 6466,
      "Ġgear": 6467,
      "elly": 6468,
      "Ġasking": 6469,
      "Ġplants": 6470,
      "ĠMy": 6471,
      "Ġcannab": 6472,
      "ĠEd": 6473,
      "Ġweigh": 6474,
      "Ġspending": 6475,
      "Ġoffic": 6476,
      "Ġservers": 6477,
      "Ġasset": 6478,
      "Ġindeed": 6479,
      "Ġindicate": 6480,
      "Ġlocally": 6481,
      "Ġfaces": 6482,
      "Ġcharge": 6483,
      "Ġcontrovers": 6484,
      "Ġwaited": 6485,
      "Ġdistinctive": 6486,
      "Ġdomains": 6487,
      "Ġinterpersonal": 6488,
      "Ġgathering": 6489,
      "Ġmixed": 6490,
      "Ġpenal": 6491,
      "Ġrelaxation": 6492,
      "inking": 6493,
      "Ġtech": 6494,
      "Ġwine": 6495,
      "Ġwoman": 6496,
      "Ġfant": 6497,
      "athered": 6498,
      "Ġdate": 6499,
      "iday": 6500,
      "Ġalthough": 6501,
      "Ġrating": 6502,
      "ĠBro": 6503,
      "endant": 6504,
      "Ġdisp": 6505,
      "Ġovercome": 6506,
      "Ġspecies": 6507,
      "Ġinflamm": 6508,
      "Ġobjective": 6509,
      "ĠVis": 6510,
      "Ġequity": 6511,
      "Ġcontrols": 6512,
      "Ġwarmth": 6513,
      "ĠAccess": 6514,
      "Ġcelebrating": 6515,
      "Ġvulnerabilities": 6516,
      "point": 6517,
      "ww": 6518,
      "ĊĠĠĠĠ": 6519,
      "irty": 6520,
      "Ġrule": 6521,
      "ĠMicro": 6522,
      "Ġtimeless": 6523,
      "Ġconscious": 6524,
      "duct": 6525,
      "Ġperse": 6526,
      "Ġpercent": 6527,
      "Ġdesire": 6528,
      "Ġgenetic": 6529,
      "Ġmolec": 6530,
      "icken": 6531,
      "Ġdistance": 6532,
      "Ġadaptation": 6533,
      "Ġpaths": 6534,
      "Ġsuggesting": 6535,
      "Ġfalls": 6536,
      "Ġcomposition": 6537,
      "Ġcertific": 6538,
      "Ġtapestry": 6539,
      "Ġteachings": 6540,
      "Ġencounters": 6541,
      "Ġstringent": 6542,
      "ĠEmbracing": 6543,
      "Guideline": 6544,
      "bl": 6545,
      "wess": 6546,
      "Ġprowess": 6547,
      "Ġadults": 6548,
      "ĠEven": 6549,
      "Ġeffect": 6550,
      "Ġrequests": 6551,
      "Ġdiscrim": 6552,
      "Ġnotice": 6553,
      "anger": 6554,
      "Ġimplemented": 6555,
      "Ġmitigating": 6556,
      "Ġconfigurations": 6557,
      "Ġjuice": 6558,
      "Ġinterviews": 6559,
      "lim": 6560,
      "ruit": 6561,
      "eters": 6562,
      "eterm": 6563,
      "Ġshares": 6564,
      "illed": 6565,
      "ĠDi": 6566,
      "Ġworried": 6567,
      "Ġmanif": 6568,
      "Ġprofile": 6569,
      "Ġcustomized": 6570,
      "Ġdistr": 6571,
      "Ġlawy": 6572,
      "Ġpeaceful": 6573,
      "onomy": 6574,
      "Ġescal": 6575,
      "ault": 6576,
      "iances": 6577,
      "krain": 6578,
      "erves": 6579,
      "tible": 6580,
      "Ġcas": 6581,
      "Ġtheology": 6582,
      "Ġfabric": 6583,
      "Ġine": 6584,
      "Ġintroduce": 6585,
      "These": 6586,
      "Ġfinancing": 6587,
      "Ġforming": 6588,
      "Ġwaves": 6589,
      "ĠImpro": 6590,
      "Ġ2018": 6591,
      "Ġdoctor": 6592,
      "Ġemphasize": 6593,
      "Ġexistence": 6594,
      "Ġportfol": 6595,
      "Script": 6596,
      "cling": 6597,
      "Ġtension": 6598,
      "itter": 6599,
      "Ġbold": 6600,
      "Ġbrown": 6601,
      "ader": 6602,
      "riad": 6603,
      "ĠMake": 6604,
      "Ġresili": 6605,
      "Ġunt": 6606,
      "ĠRole": 6607,
      "Ġclothes": 6608,
      "Ġcreations": 6609,
      "Ġperm": 6610,
      "Ġarms": 6611,
      "standing": 6612,
      "soft": 6613,
      "Ġleader": 6614,
      "Ġsections": 6615,
      "Ġeverywhere": 6616,
      "Ġpolice": 6617,
      "Ġproficiency": 6618,
      "Ġwebpage": 6619,
      "Ġjourneys": 6620,
      "Ġinfluences": 6621,
      "Ġoccurs": 6622,
      "Ġaligns": 6623,
      "Ġunlock": 6624,
      "://": 6625,
      "AP": 6626,
      "laim": 6627,
      "Ġawa": 6628,
      "Ġwider": 6629,
      "Ġho": 6630,
      "Ġthous": 6631,
      "ĠSub": 6632,
      "ĠGold": 6633,
      "Ġgraph": 6634,
      "ĠChar": 6635,
      "Ġmetals": 6636,
      "Ġendless": 6637,
      "Ġdistress": 6638,
      "ĠAng": 6639,
      "Ġtraits": 6640,
      "Ġcried": 6641,
      "Ġmyriad": 6642,
      "Ġmarked": 6643,
      "Ġlistened": 6644,
      "Ġprogression": 6645,
      "Ġeconomy": 6646,
      "Ġjoint": 6647,
      "Ġjoining": 6648,
      "Ġlanguages": 6649,
      "Ġdemanding": 6650,
      "ĠIsra": 6651,
      "ĠUsers": 6652,
      "ĠSuper": 6653,
      "ĠFirstly": 6654,
      "Ġclimbed": 6655,
      "Ġfulfilling": 6656,
      "Ġalleviate": 6657,
      "Us": 6658,
      "bles": 6659,
      "gical": 6660,
      "Ġgathered": 6661,
      "Ġconv": 6662,
      "Ġunderm": 6663,
      "Ġeffic": 6664,
      "Ġmoved": 6665,
      "Ġfluid": 6666,
      "Ġdeter": 6667,
      "Ġeducators": 6668,
      "Ġpassed": 6669,
      "Ġdeepen": 6670,
      "Ġoccasion": 6671,
      "Ġsilly": 6672,
      "aughter": 6673,
      "Ġcoupled": 6674,
      "Ġagreement": 6675,
      "Ġstrengthening": 6676,
      "Ġturning": 6677,
      "ĠOpen": 6678,
      "Ġencryption": 6679,
      "Ġhungry": 6680,
      "dles": 6681,
      "Ġtick": 6682,
      "ani": 6683,
      "struc": 6684,
      "ĠAust": 6685,
      "Ġimper": 6686,
      "ĠLila": 6687,
      "Ġappoint": 6688,
      "Ġweeks": 6689,
      "Ġvisiting": 6690,
      "Ġcarries": 6691,
      "Ġ2020": 6692,
      "Ġearth": 6693,
      "Ġemployers": 6694,
      "Ġcollaborate": 6695,
      "Ġbalanced": 6696,
      "Ġdaddy": 6697,
      "Ġnecessitating": 6698,
      "Ġrecommended": 6699,
      "ĠDaddy": 6700,
      "Ġbottle": 6701,
      "Ġdatabases": 6702,
      "ĠTwo": 6703,
      "ĠUpon": 6704,
      "Ġoverlooked": 6705,
      "AT": 6706,
      "Cons": 6707,
      "piec": 6708,
      "Ġcab": 6709,
      "Ġpear": 6710,
      "Ġwand": 6711,
      "Ġble": 6712,
      "ete": 6713,
      "Ġnest": 6714,
      "Ġsear": 6715,
      "itim": 6716,
      "Ġrelie": 6717,
      "Ġrelatively": 6718,
      "Ġaccidents": 6719,
      "Ġexpensive": 6720,
      "ports": 6721,
      "Ġpersonality": 6722,
      "Ġeleph": 6723,
      "ĠProf": 6724,
      "eek": 6725,
      "Ġveter": 6726,
      "Ġfacilitates": 6727,
      "Ġassessments": 6728,
      "Ġwondered": 6729,
      "Ġsufficient": 6730,
      "Ġfixed": 6731,
      "Ġharnessing": 6732,
      "breaking": 6733,
      "Ġintimate": 6734,
      "Ġharmonious": 6735,
      "Oh": 6736,
      "ST": 6737,
      "nering": 6738,
      "zed": 6739,
      "rem": 6740,
      "ero": 6741,
      "Ġbone": 6742,
      "stream": 6743,
      "ĠTra": 6744,
      "Ġalt": 6745,
      "ĠLa": 6746,
      "ĠDigital": 6747,
      "Ġabuse": 6748,
      "Ġsignal": 6749,
      "Ġworkflow": 6750,
      "Ġcheered": 6751,
      "Ġcertainly": 6752,
      "Ġversions": 6753,
      "Ġballoon": 6754,
      "Ġturns": 6755,
      "ĠCompan": 6756,
      "Ġdebt": 6757,
      "Ġvulnerability": 6758,
      "Ġswimming": 6759,
      "Ġcherished": 6760,
      "Ġtissue": 6761,
      "ky": 6762,
      "Ġsent": 6763,
      "ask": 6764,
      "Ġlone": 6765,
      "irable": 6766,
      "ĠClear": 6767,
      "Ġscary": 6768,
      "ateral": 6769,
      "ĠIniti": 6770,
      "Ġhealthier": 6771,
      "ounced": 6772,
      "Ġattack": 6773,
      "Ġdrivers": 6774,
      "Ġidentification": 6775,
      "Ġgains": 6776,
      "ĠImport": 6777,
      "Ġharmful": 6778,
      "Ġspirituality": 6779,
      "Ġcolleagues": 6780,
      "ĠWork": 6781,
      "Ġmissing": 6782,
      "Ġescape": 6783,
      "Ġattendees": 6784,
      "Ġsexual": 6785,
      "Ġjurisd": 6786,
      "12": 6787,
      "CT": 6788,
      "cip": 6789,
      "ney": 6790,
      "rings": 6791,
      "hend": 6792,
      "eddy": 6793,
      "Ġfurn": 6794,
      "ĠAct": 6795,
      "iform": 6796,
      "ĠMo": 6797,
      "Ġunus": 6798,
      "Ġclapped": 6799,
      "Ġprevention": 6800,
      "Ġtreasure": 6801,
      "Ġdelves": 6802,
      "Ġinitiative": 6803,
      "Ġindustrial": 6804,
      "Ġprint": 6805,
      "Ġillum": 6806,
      "Ġreported": 6807,
      "Ġcategory": 6808,
      "ĠTechnology": 6809,
      "Ġinterpretation": 6810,
      "Ġdemographics": 6811,
      "Ġvegetables": 6812,
      "Ġobligations": 6813,
      "ĠCounty": 6814,
      "Bob": 6815,
      "SD": 6816,
      "ae": 6817,
      "otive": 6818,
      "uate": 6819,
      "Ġast": 6820,
      "rec": 6821,
      "ano": 6822,
      "Ġhat": 6823,
      "ada": 6824,
      "amb": 6825,
      "Ġves": 6826,
      "ĠCase": 6827,
      "oses": 6828,
      "ĠFactors": 6829,
      "Ġsucceed": 6830,
      "ĠRef": 6831,
      "Ġcreators": 6832,
      "Ġrelief": 6833,
      "Ġadvances": 6834,
      "Ġgrasp": 6835,
      "--------------------": 6836,
      "Ġsafer": 6837,
      "ĠTime": 6838,
      "Ġattach": 6839,
      "Ġhumans": 6840,
      "Ġdefensive": 6841,
      "Ġpresenting": 6842,
      "Ġcombines": 6843,
      "Ġspeaking": 6844,
      "Ġmobility": 6845,
      "Ġvariations": 6846,
      "ĠStudy": 6847,
      "Ġbreathtaking": 6848,
      "Ġhinder": 6849,
      "Ġscheduling": 6850,
      "ĠCollege": 6851,
      "Ġefficacy": 6852,
      "Do": 6853,
      "Ġavenues": 6854,
      "hetic": 6855,
      "Ġcave": 6856,
      "eting": 6857,
      "ĠBel": 6858,
      "Ġtrigg": 6859,
      "ĠDire": 6860,
      "Ġamen": 6861,
      "Ġfacets": 6862,
      "Ġsubjects": 6863,
      "Ġcurric": 6864,
      "Ġformats": 6865,
      "aditional": 6866,
      "ĠProcess": 6867,
      "Ġcomplexities": 6868,
      "Ġselected": 6869,
      "ĠSpirit": 6870,
      "Ġthoroughly": 6871,
      "Ġtalented": 6872,
      "Ġcrime": 6873,
      "Ġsuscep": 6874,
      "Ġcastle": 6875,
      "Ġopinions": 6876,
      "Ġstructural": 6877,
      "RA": 6878,
      "erse": 6879,
      "eness": 6880,
      "alities": 6881,
      "Ġwire": 6882,
      "etes": 6883,
      "ĠPay": 6884,
      "Ġmanagers": 6885,
      "Ġhappen": 6886,
      "ĠOther": 6887,
      "Ġbackyard": 6888,
      "Ġcustomization": 6889,
      "plicity": 6890,
      "Ġprime": 6891,
      "Ġstriving": 6892,
      "Ġcalm": 6893,
      "Ġdifferenti": 6894,
      "Ġannounce": 6895,
      "ĠMedical": 6896,
      "Ġowl": 6897,
      "Ġcharming": 6898,
      "Ġattempting": 6899,
      "Ġpulled": 6900,
      "Ġacquisition": 6901,
      "ET": 6902,
      "uity": 6903,
      "vant": 6904,
      "Ġped": 6905,
      "Ġbrief": 6906,
      "irations": 6907,
      "ĠMat": 6908,
      "Ġremov": 6909,
      "Ġregim": 6910,
      "Ġconsiderable": 6911,
      "Ġmotion": 6912,
      "Ġsmiles": 6913,
      "Ġpreval": 6914,
      "avigating": 6915,
      "Ġmarks": 6916,
      "Ġnearly": 6917,
      "Ġembodies": 6918,
      "Ġinspired": 6919,
      "Ġnarrow": 6920,
      "Ġconducive": 6921,
      "Ġresonates": 6922,
      "Ġadvocacy": 6923,
      "Ġshoes": 6924,
      "Ġmedications": 6925,
      "Ġkeywords": 6926,
      "Ġslightly": 6927,
      "gent": 6928,
      "turing": 6929,
      "rete": 6930,
      "orb": 6931,
      "Ġpocket": 6932,
      "iture": 6933,
      "Ġburn": 6934,
      "ethe": 6935,
      "Ġstored": 6936,
      "ĠSince": 6937,
      "riage": 6938,
      "ĠRo": 6939,
      "Ġinterfaces": 6940,
      "Ġbranch": 6941,
      "Ġsocieties": 6942,
      "Ġextreme": 6943,
      "Ġbreast": 6944,
      "Ġsitting": 6945,
      "Ġprincip": 6946,
      "Ġutilization": 6947,
      "Ġ2017": 6948,
      "Ġtraveling": 6949,
      "Ġraise": 6950,
      "ufficient": 6951,
      "Ġhorse": 6952,
      "ĠService": 6953,
      "klace": 6954,
      "ED": 6955,
      "Ġ0": 6956,
      "icks": 6957,
      "acle": 6958,
      "ĠTest": 6959,
      "ucks": 6960,
      "Ġincenti": 6961,
      "Ġemissions": 6962,
      "ibly": 6963,
      "Ġrelative": 6964,
      "Ġspecified": 6965,
      "Ġsignals": 6966,
      "Ġfollowers": 6967,
      "ĠProper": 6968,
      "Ġdragon": 6969,
      "Ġpaying": 6970,
      "Ġraising": 6971,
      "Ġaligned": 6972,
      "Ġautomatically": 6973,
      "Ġadopt": 6974,
      "Ġconfidential": 6975,
      "Ġelectronic": 6976,
      "Ġhotel": 6977,
      "ĠAssess": 6978,
      "Ġaccommodate": 6979,
      "Ġunfold": 6980,
      "ĠCompanies": 6981,
      "inity": 6982,
      "Ġsession": 6983,
      "Ġling": 6984,
      "Ġstable": 6985,
      "ĠAir": 6986,
      "Ġpra": 6987,
      "Ġmedication": 6988,
      "Ġvalued": 6989,
      "Ġinfluenc": 6990,
      "Ġembed": 6991,
      "Ġfunctionalities": 6992,
      "Ġassessing": 6993,
      "Ġpackages": 6994,
      "Ġuncover": 6995,
      "Ġencompassing": 6996,
      "Ġmilk": 6997,
      "Ġterrit": 6998,
      "Ġgradually": 6999,
      "Ġconcentr": 7000,
      "ĠAssociation": 7001,
      "Ġbucket": 7002,
      "Ġcannabis": 7003,
      "ĠMicrosoft": 7004,
      "Ġlonely": 7005,
      "etheless": 7006,
      "',": 7007,
      "vy": 7008,
      "verance": 7009,
      "Ġstuck": 7010,
      "ritis": 7011,
      "izable": 7012,
      "through": 7013,
      "Ġdeal": 7014,
      "ĠLim": 7015,
      "Ġjar": 7016,
      "aution": 7017,
      "Ġadvancing": 7018,
      "ĠInside": 7019,
      "Ġencaps": 7020,
      "ĠEnter": 7021,
      "Ġimmune": 7022,
      "Ġutility": 7023,
      "fortunately": 7024,
      "Ġforever": 7025,
      "Ġmeetings": 7026,
      "Ġcurrently": 7027,
      "Ġguarantee": 7028,
      "Ġlicens": 7029,
      "Ġcorrectly": 7030,
      "ĠEnsure": 7031,
      "Ġvictims": 7032,
      "dom": 7033,
      "Ġking": 7034,
      "oning": 7035,
      "estern": 7036,
      "Ġox": 7037,
      "Ġharsh": 7038,
      "Ġgif": 7039,
      "keep": 7040,
      "tices": 7041,
      "ĠEnd": 7042,
      "Ġunderst": 7043,
      "Ġnotion": 7044,
      "Ġrefres": 7045,
      "Ġobtain": 7046,
      "Ġdowntime": 7047,
      "Ġdepression": 7048,
      "Ġdirection": 7049,
      "ĠIndian": 7050,
      "Ġexcel": 7051,
      "tify": 7052,
      "Ġlikes": 7053,
      "Ġmeticulously": 7054,
      "Ġscrut": 7055,
      "Ġfemale": 7056,
      "Ġfraud": 7057,
      "Ġelephant": 7058,
      "Ġunusual": 7059,
      "Lucy": 7060,
      "do": 7061,
      "iable": 7062,
      "onial": 7063,
      "Ġdining": 7064,
      "Ġmap": 7065,
      "ette": 7066,
      "Ġyouth": 7067,
      "ĠCour": 7068,
      "Ġrub": 7069,
      "ĠGeor": 7070,
      "Ġtheme": 7071,
      "ĠInn": 7072,
      "Ġsurve": 7073,
      "Ġbench": 7074,
      "Ġtraject": 7075,
      "Ġcharges": 7076,
      "ltimate": 7077,
      "Ġdirec": 7078,
      "Ġaffili": 7079,
      "ĠEmploy": 7080,
      "ĠEmma": 7081,
      "Ġsensitivity": 7082,
      "Ġtemporary": 7083,
      "Ġsinging": 7084,
      "ĠRegardless": 7085,
      "Ġpredict": 7086,
      "Ġschedule": 7087,
      "Ġinventory": 7088,
      "Ġthousands": 7089,
      "May": 7090,
      "ool": 7091,
      "ram": 7092,
      "Ġ<": 7093,
      "reast": 7094,
      "Ġsudden": 7095,
      "tious": 7096,
      "Ġster": 7097,
      "Ġaccep": 7098,
      "Ġshining": 7099,
      "forming": 7100,
      "Ġclar": 7101,
      "Ġposed": 7102,
      "Ġsett": 7103,
      "Ġsurger": 7104,
      "Ġcenturies": 7105,
      "Ġachieved": 7106,
      "Ġmindset": 7107,
      "Ġ2019": 7108,
      "ĠReal": 7109,
      "Ġcycles": 7110,
      "Ġobserv": 7111,
      "Ġsquare": 7112,
      "Ġprioritizing": 7113,
      "III": 7114,
      "Ġteachers": 7115,
      "Ġordinary": 7116,
      "ĠIdentify": 7117,
      "Ġhorizons": 7118,
      "ocolate": 7119,
      "14": 7120,
      "Hi": 7121,
      "Ġ*": 7122,
      "Ġpure": 7123,
      "lease": 7124,
      "ulties": 7125,
      "quis": 7126,
      "antly": 7127,
      "Ġspar": 7128,
      "Ġspanning": 7129,
      "ĠUkrain": 7130,
      "Ġpassing": 7131,
      "Ġdrink": 7132,
      "Ġartificial": 7133,
      "Ġposts": 7134,
      "ascular": 7135,
      "Ġadvocating": 7136,
      "ĠParticip": 7137,
      "Ġrewarding": 7138,
      "Ġamenities": 7139,
      "()": 7140,
      "16": 7141,
      "IT": 7142,
      "aid": 7143,
      "Ġpull": 7144,
      "iters": 7145,
      "Ġfer": 7146,
      "Ġfight": 7147,
      "ann": 7148,
      "Ġlink": 7149,
      "Ġthick": 7150,
      "Ġgau": 7151,
      "Ġgift": 7152,
      "Ġstem": 7153,
      "iff": 7154,
      "iforn": 7155,
      "ĠCor": 7156,
      "Ġcompris": 7157,
      "ĠPot": 7158,
      "Ġscore": 7159,
      "ĠChurch": 7160,
      "Ġwouldn": 7161,
      "text": 7162,
      "Ġbreat": 7163,
      "Ġlegitim": 7164,
      "Ġregulation": 7165,
      "Ġsunny": 7166,
      "Ġdogs": 7167,
      "Ġevolve": 7168,
      "Ġcontracts": 7169,
      "Ġphotograph": 7170,
      "ĠSecurity": 7171,
      "ĠEnglish": 7172,
      "Ġjudg": 7173,
      "Ġbolster": 7174,
      "Ġacceptance": 7175,
      "Ġtackle": 7176,
      "Ġprotein": 7177,
      "commerce": 7178,
      "Ġdentist": 7179,
      "Ġperseverance": 7180,
      "OS": 7181,
      "eff": 7182,
      "kes": 7183,
      "Ġwalls": 7184,
      "Ġreass": 7185,
      "Ġnap": 7186,
      "Ġproven": 7187,
      "ateful": 7188,
      "ĠHot": 7189,
      "ĠBefore": 7190,
      "ĠMem": 7191,
      "ĠPolic": 7192,
      "istan": 7193,
      "ĠEss": 7194,
      "ĠRet": 7195,
      "ĠUnder": 7196,
      "Ġsetup": 7197,
      "Ġrefining": 7198,
      "Ġmarketers": 7199,
      "Ġpurple": 7200,
      "Ġfranch": 7201,
      "bersecurity": 7202,
      "Ġdiscussed": 7203,
      "Ġlimiting": 7204,
      "Ġswitch": 7205,
      "Ġcaters": 7206,
      "Ġclasses": 7207,
      "Ġdrawn": 7208,
      "Ġzones": 7209,
      "Ġpursuit": 7210,
      "Ġfairy": 7211,
      "ĠContin": 7212,
      "Ġera": 7213,
      "Ġbowl": 7214,
      "Ġlabel": 7215,
      "Ġexemplifies": 7216,
      "ĠJimmy": 7217,
      "Ġoverwhelming": 7218,
      "Ġwedding": 7219,
      "Ġrelieved": 7220,
      "Max": 7221,
      "Ġties": 7222,
      "Ġtensions": 7223,
      "hema": 7224,
      "Ġther": 7225,
      "Ġpill": 7226,
      "Ġparent": 7227,
      "Ġgap": 7228,
      "Ġalb": 7229,
      "Ġplastic": 7230,
      "Ġdispl": 7231,
      "Ġhappiness": 7232,
      "Ġcarbon": 7233,
      "Ġdrives": 7234,
      "ĠSoft": 7235,
      "Ġimmun": 7236,
      "ĠWeb": 7237,
      "erring": 7238,
      "Ġviewing": 7239,
      "Ġscenes": 7240,
      "ĠArt": 7241,
      "Ġbedroom": 7242,
      "Ġcardi": 7243,
      "Ġpuzz": 7244,
      "ĠEurope": 7245,
      "Ġcommunications": 7246,
      "Ġcohesive": 7247,
      "QL": 7248,
      "bow": 7249,
      "fl": 7250,
      "mm": 7251,
      "Ġcaution": 7252,
      "ari": 7253,
      "Ġrev": 7254,
      "Ġrough": 7255,
      "ĠFamiliar": 7256,
      "Ġdispos": 7257,
      "Ġgenre": 7258,
      "titudes": 7259,
      "Ġprotective": 7260,
      "Ġmuscles": 7261,
      "elfare": 7262,
      "Ġforemost": 7263,
      "ĠEmp": 7264,
      "--------------------------------------------": 7265,
      "ĠOnline": 7266,
      "Ġhearts": 7267,
      "Ġneighborhood": 7268,
      "Ġcasual": 7269,
      "otion": 7270,
      "hest": 7271,
      "Ġsenti": 7272,
      "omfort": 7273,
      "ĠTV": 7274,
      "ĠSaf": 7275,
      "Ġrac": 7276,
      "Ġrus": 7277,
      "ching": 7278,
      "ĠLead": 7279,
      "Ġapple": 7280,
      "Ġproduced": 7281,
      "Ġgene": 7282,
      "Ġspecializing": 7283,
      "Ġraised": 7284,
      "ĠCloud": 7285,
      "Ġdamages": 7286,
      "ĠControl": 7287,
      "Ġstrengthens": 7288,
      "Ġcovering": 7289,
      "Ġaspirations": 7290,
      "Ġnuanced": 7291,
      "Ġdisparate": 7292,
      "Ġdisparities": 7293,
      "Ġcryptocurrencies": 7294,
      "Ġdegree": 7295,
      "Ġvillage": 7296,
      "ĠCaliforn": 7297,
      "rants": 7298,
      "Ġly": 7299,
      "Ġwave": 7300,
      "Ġduck": 7301,
      "Ġimaging": 7302,
      "chant": 7303,
      "Ġflag": 7304,
      "Ġidentities": 7305,
      "Ġreduction": 7306,
      "Ġmonster": 7307,
      "Ġsurroundings": 7308,
      "Ġcycle": 7309,
      "ĠApplic": 7310,
      "Ġstruggling": 7311,
      "Ġgratitude": 7312,
      "Ġlisteners": 7313,
      "Ġindependently": 7314,
      "Ġopponents": 7315,
      "Ġintroducing": 7316,
      "scale": 7317,
      "Ġsongs": 7318,
      "Ġclubs": 7319,
      "Ġconfiguration": 7320,
      "coh": 7321,
      "paced": 7322,
      "Ġsen": 7323,
      "Ġwelfare": 7324,
      "Ġdates": 7325,
      "Ġnurs": 7326,
      "urious": 7327,
      "ĠSy": 7328,
      "eles": 7329,
      "uted": 7330,
      "Ġlemon": 7331,
      "rome": 7332,
      "ĠPal": 7333,
      "ĠWell": 7334,
      "Ġuniform": 7335,
      "Ġdisput": 7336,
      "Ġarm": 7337,
      "Ġunderp": 7338,
      "Ġtransitions": 7339,
      "Ġnewly": 7340,
      "Ġhumble": 7341,
      "Ġproperly": 7342,
      "Ġupdate": 7343,
      "hyth": 7344,
      "Ġdebates": 7345,
      "class": 7346,
      "Ġsummer": 7347,
      "Ġadministrative": 7348,
      "Ġacknowledge": 7349,
      "Ġexchanges": 7350,
      "ĠEvalu": 7351,
      "ĠUtilizing": 7352,
      "Ġreinforcing": 7353,
      "ĠFortunately": 7354,
      "TC": 7355,
      "ws": 7356,
      "Ġ.": 7357,
      "Ġsin": 7358,
      "Ġsight": 7359,
      "abetes": 7360,
      "ĠHIV": 7361,
      "Ġrecy": 7362,
      "Ġrecruit": 7363,
      "Ġdiscomfort": 7364,
      "Ġbrid": 7365,
      "------------------------": 7366,
      "ĠKing": 7367,
      "Ġreleased": 7368,
      "ĠEnh": 7369,
      "Ġcourage": 7370,
      "Ġadapting": 7371,
      "azz": 7372,
      "Ġ2016": 7373,
      "Ġcomprehend": 7374,
      "Ġautomotive": 7375,
      "ĠOnly": 7376,
      "Ġtouched": 7377,
      "itcoin": 7378,
      "Ġcredential": 7379,
      "Ġclouds": 7380,
      "Ġdiamond": 7381,
      "Ġepis": 7382,
      "Ġpublished": 7383,
      "Ġattempts": 7384,
      "Ġdrove": 7385,
      "criptions": 7386,
      "Ġmoisture": 7387,
      "MP": 7388,
      "Ġ{": 7389,
      "inf": 7390,
      "Ġsister": 7391,
      "Ġdaughter": 7392,
      "Ġreb": 7393,
      "Ġlunch": 7394,
      "economic": 7395,
      "iled": 7396,
      "Ġcomplic": 7397,
      "pecting": 7398,
      "Ġpregn": 7399,
      "Ġtransmission": 7400,
      "Ġengines": 7401,
      "Ġgrateful": 7402,
      "Ġsimplicity": 7403,
      "Through": 7404,
      "Ġcollecting": 7405,
      "Ġcollections": 7406,
      "Ġtransparent": 7407,
      "Ġhousehold": 7408,
      "------------------------------------": 7409,
      "Ġharmony": 7410,
      "Ġcelebration": 7411,
      "Ġcandy": 7412,
      "Ġpredic": 7413,
      "onym": 7414,
      "Ġtasty": 7415,
      "ĠMedic": 7416,
      "ĠPerformance": 7417,
      "Ġnegotiations": 7418,
      "Ġpromotional": 7419,
      "Ġembarking": 7420,
      "Ġprolong": 7421,
      "Ġintuitive": 7422,
      "Ġfestiv": 7423,
      "Ġcabin": 7424,
      "BC": 7425,
      "PR": 7426,
      "esting": 7427,
      "Ġpitch": 7428,
      "Ġfinger": 7429,
      "Ġmood": 7430,
      "Ġreactions": 7431,
      "state": 7432,
      "amic": 7433,
      "unction": 7434,
      "ĠHuman": 7435,
      "Ġcontains": 7436,
      "Ġroc": 7437,
      "ĠGovern": 7438,
      "Ġtypical": 7439,
      "Ġequally": 7440,
      "Ġreleases": 7441,
      "Ġfirsthand": 7442,
      "Ġcalling": 7443,
      "Ġtransformed": 7444,
      "ĠImagine": 7445,
      "ĠImpact": 7446,
      "Ġrepresentatives": 7447,
      "Ġdetermined": 7448,
      "ĠResp": 7449,
      "Ġkindness": 7450,
      "useum": 7451,
      "Ġattracting": 7452,
      "Ġrecipes": 7453,
      "shine": 7454,
      "Ġenterprise": 7455,
      "Ġintentional": 7456,
      "Ġvigilance": 7457,
      "Ġunderscore": 7458,
      "Ġrendering": 7459,
      "'.": 7460,
      "30": 7461,
      "BA": 7462,
      "Sp": 7463,
      "Â°": 7464,
      "Ġtum": 7465,
      "tile": 7466,
      "eding": 7467,
      "Ġretire": 7468,
      "Ġhero": 7469,
      "ulates": 7470,
      "Ġisland": 7471,
      "ĠMama": 7472,
      "Ġintros": 7473,
      "ĠPark": 7474,
      "grad": 7475,
      "cont": 7476,
      "Ġprivile": 7477,
      "Ġupdating": 7478,
      "Ġworthy": 7479,
      "Ġbeginning": 7480,
      "Ġmiscon": 7481,
      "Ġfrequency": 7482,
      "Ġphotography": 7483,
      "Ġdifficulties": 7484,
      "ĠBlack": 7485,
      "Ġlinks": 7486,
      "Ġcoordination": 7487,
      "Ġcompromise": 7488,
      "Ġtranscends": 7489,
      "Ġreferred": 7490,
      "Ġisolation": 7491,
      "Ġlibrary": 7492,
      "Ġelegance": 7493,
      "Ġinflammation": 7494,
      "Ġremoval": 7495,
      "found": 7496,
      "racy": 7497,
      "Ġcoc": 7498,
      "Ġocean": 7499,
      "Ġreform": 7500,
      "ado": 7501,
      "Ġric": 7502,
      "Ġplate": 7503,
      "apan": 7504,
      "Ġintense": 7505,
      "uding": 7506,
      "Ġresist": 7507,
      "ĠLike": 7508,
      "Ġstrain": 7509,
      "ĠJames": 7510,
      "Ġaggress": 7511,
      "efined": 7512,
      "Ġseeks": 7513,
      "Ġguest": 7514,
      "ĠAltern": 7515,
      "Ġswift": 7516,
      "ĠMedia": 7517,
      "Ġgatherings": 7518,
      "Ġdepartments": 7519,
      "Ġmortg": 7520,
      "Ġpenalties": 7521,
      "ĠIsrael": 7522,
      "ĠCalifornia": 7523,
      "Ġdisputes": 7524,
      "CS": 7525,
      "De": 7526,
      "drop": 7527,
      "gue": 7528,
      "inter": 7529,
      "inem": 7530,
      "Ġske": 7531,
      "Ġcos": 7532,
      "alysis": 7533,
      "Ġhiring": 7534,
      "ola": 7535,
      "ĠTake": 7536,
      "Ġiter": 7537,
      "Ġalter": 7538,
      "Ġshy": 7539,
      "Ġpray": 7540,
      "Ġkite": 7541,
      "Ġinsufficient": 7542,
      "ĠOur": 7543,
      "Ġdesignated": 7544,
      "Ġpoll": 7545,
      "ĠAnother": 7546,
      "atching": 7547,
      "ĠSoon": 7548,
      "Ġmethodologies": 7549,
      "Ġgroundbreaking": 7550,
      "Ġwindows": 7551,
      "Ġchannel": 7552,
      "Ġmachinery": 7553,
      "Ġ2023": 7554,
      "Ġproposed": 7555,
      "Ġsegments": 7556,
      "ĠPrior": 7557,
      "Un": 7558,
      "men": 7559,
      "otic": 7560,
      "Ġ|": 7561,
      "Ġwings": 7562,
      "Ġdirty": 7563,
      "Ġhub": 7564,
      "Ġlisting": 7565,
      "Ġhes": 7566,
      "ulent": 7567,
      "Ġrati": 7568,
      "Ġlean": 7569,
      "Ġadverse": 7570,
      "ĠPort": 7571,
      "Ġpride": 7572,
      "Ġoffensive": 7573,
      "ulty": 7574,
      "Ġtreats": 7575,
      "Ġlifel": 7576,
      "Ġnecessarily": 7577,
      "umph": 7578,
      "Ġviewpoints": 7579,
      "Ġmindfulness": 7580,
      "Ġmechanism": 7581,
      "Ġpursuits": 7582,
      "Ġholiday": 7583,
      "Ġmotivations": 7584,
      "Ġadministrators": 7585,
      "Ġadvocate": 7586,
      "Ġmonthly": 7587,
      "ĠSupport": 7588,
      "Ġpreferred": 7589,
      "Ġvigilant": 7590,
      "Ġwillingness": 7591,
      "rupt": 7592,
      "Ġscript": 7593,
      "Ġtexts": 7594,
      "Ġdiscrimination": 7595,
      "BT": 7596,
      "aven": 7597,
      "bly": 7598,
      "cil": 7599,
      "night": 7600,
      "Ġgets": 7601,
      "uty": 7602,
      "Ġchocolate": 7603,
      "Ġdeals": 7604,
      "Ġneu": 7605,
      "ician": 7606,
      "Ġautonomy": 7607,
      "aws": 7608,
      "Ġdepends": 7609,
      "Ġwalks": 7610,
      "Ġaiming": 7611,
      "####": 7612,
      "ĠThroughout": 7613,
      "Ġutilized": 7614,
      "Ġlayout": 7615,
      "Ġreliance": 7616,
      "Ġfewer": 7617,
      "tified": 7618,
      "Ġfavorable": 7619,
      "Ġspeaks": 7620,
      "Ġdestinations": 7621,
      "Ġsuffering": 7622,
      "Ġgrandma": 7623,
      "Ġliterature": 7624,
      "Ġventure": 7625,
      "Ġcryptocurrency": 7626,
      "Comm": 7627,
      "IN": 7628,
      "uation": 7629,
      "vals": 7630,
      "Ġpets": 7631,
      "Ġmild": 7632,
      "Ġlaser": 7633,
      "acious": 7634,
      "Ġultimate": 7635,
      "Ġstated": 7636,
      "urb": 7637,
      "ulting": 7638,
      "using": 7639,
      "Ġchains": 7640,
      "ĠPost": 7641,
      "ĠLife": 7642,
      "ept": 7643,
      "Ġspend": 7644,
      "ĠJourn": 7645,
      "Ġremove": 7646,
      "ĠChina": 7647,
      "Ġmeditation": 7648,
      "Ġentering": 7649,
      "Ġfruits": 7650,
      "print": 7651,
      "Ġsustained": 7652,
      "Ġbegins": 7653,
      "aughty": 7654,
      "Ġduration": 7655,
      "prises": 7656,
      "Ġresidential": 7657,
      "ĠCommunity": 7658,
      "profit": 7659,
      "Ġsegment": 7660,
      "Ġcodes": 7661,
      "Ġbattery": 7662,
      "Maybe": 7663,
      "11": 7664,
      "Effective": 7665,
      "Fi": 7666,
      "Is": 7667,
      "Molly": 7668,
      "des": 7669,
      "Ġod": 7670,
      "Ġmold": 7671,
      "otes": 7672,
      "ĠSl": 7673,
      "ĠSan": 7674,
      "uclear": 7675,
      "ppers": 7676,
      "utter": 7677,
      "ĠBible": 7678,
      "ĠPeter": 7679,
      "Ġclick": 7680,
      "Ġabreast": 7681,
      "Ġschem": 7682,
      "Ġscope": 7683,
      "ĠJapan": 7684,
      "ĠNe": 7685,
      "ĠChallen": 7686,
      "Ġgenres": 7687,
      "Ġpeak": 7688,
      "Ġguard": 7689,
      "Ġcompletion": 7690,
      "ĠVer": 7691,
      "Ġgenerous": 7692,
      "Ġcontinuity": 7693,
      "Ġcraw": 7694,
      "Ġinfluential": 7695,
      "Ġmechanical": 7696,
      "Ġdrawbacks": 7697,
      "Ġfrequent": 7698,
      "Ġinstruments": 7699,
      "Ġintersection": 7700,
      "Ġdecreased": 7701,
      "Ġvictory": 7702,
      "Ġmarginalized": 7703,
      "Ġvessel": 7704,
      "omy": 7705,
      "asis": 7706,
      "Ġthread": 7707,
      "ĠWind": 7708,
      "Ġbutton": 7709,
      "Ġ24": 7710,
      "Ġ16": 7711,
      "Ġflash": 7712,
      "Ġediting": 7713,
      "erestingly": 7714,
      "Ġmeasuring": 7715,
      "exts": 7716,
      "Ġprosper": 7717,
      "Ġindicating": 7718,
      "Ġnegatively": 7719,
      "Ġvacation": 7720,
      "Ġmanufacturer": 7721,
      "Ġproactively": 7722,
      "Ġdiamonds": 7723,
      "Ġcontrolling": 7724,
      "Ġcamera": 7725,
      "unctional": 7726,
      "otypes": 7727,
      "oa": 7728,
      "inis": 7729,
      "reced": 7730,
      "erry": 7731,
      "Ġtoler": 7732,
      "Ġprovision": 7733,
      "Ġyard": 7734,
      "Ġrice": 7735,
      "osit": 7736,
      "Ġattitudes": 7737,
      "Ġabstr": 7738,
      "Ġsignifies": 7739,
      "efits": 7740,
      "Ġsoccer": 7741,
      "Ġcontributed": 7742,
      "Ġearning": 7743,
      "Ġtalking": 7744,
      "Ġappropriately": 7745,
      "Ġfeatured": 7746,
      "Ġpushed": 7747,
      "Ġrolled": 7748,
      "Ġgrappling": 7749,
      "ĠMusic": 7750,
      "Ġhazards": 7751,
      "Ġphilosop": 7752,
      "ttps": 7753,
      "Ġblanket": 7754,
      "Every": 7755,
      "IA": 7756,
      "Jim": 7757,
      "ients": 7758,
      "ona": 7759,
      "Ġhing": 7760,
      "idence": 7761,
      "Ġnaughty": 7762,
      "Ġconferences": 7763,
      "owder": 7764,
      "andom": 7765,
      "Ġsauce": 7766,
      "osh": 7767,
      "ĠWest": 7768,
      "Ġupset": 7769,
      "ĠDoc": 7770,
      "Ġparad": 7771,
      "Ġopens": 7772,
      "ulture": 7773,
      "Ġconcrete": 7774,
      "Ġassured": 7775,
      "otherapy": 7776,
      "Ġdiff": 7777,
      "Ġsunshine": 7778,
      "Ġglobally": 7779,
      "Ġpressures": 7780,
      "Ġtestim": 7781,
      "Ġspeech": 7782,
      "Ġlaughing": 7783,
      "ĠTeam": 7784,
      "Ġunpreced": 7785,
      "ĠUtilize": 7786,
      "Ġuniversities": 7787,
      "Ġmysterious": 7788,
      "ĠNonetheless": 7789,
      "Ġlegislation": 7790,
      "Ġunprecedented": 7791,
      "Sec": 7792,
      "gy": 7793,
      "erts": 7794,
      "Ġtheory": 7795,
      "Ġwoke": 7796,
      "ache": 7797,
      "Ġstere": 7798,
      "ĠSign": 7799,
      "Ġcomment": 7800,
      "Ġwhist": 7801,
      "Ġtraction": 7802,
      "chron": 7803,
      "ĠFlu": 7804,
      "Ġconsists": 7805,
      "Ġspicy": 7806,
      "raid": 7807,
      "Ġcreatures": 7808,
      "Ġmeat": 7809,
      "ĠJew": 7810,
      "Ġarising": 7811,
      "Ġremoving": 7812,
      "Ġreminis": 7813,
      "ĠInformation": 7814,
      "ĠForm": 7815,
      "Ġletter": 7816,
      "Ġfoundational": 7817,
      "Ġoutcome": 7818,
      "Ġillness": 7819,
      "Ġexpressions": 7820,
      "Ġfunctioning": 7821,
      "ĠScience": 7822,
      "Ġdiscovering": 7823,
      "Ġenthusiasm": 7824,
      "Ġbaseball": 7825,
      "Ġradio": 7826,
      "Ġcompassionate": 7827,
      "Ġluxurious": 7828,
      "Ġbelonging": 7829,
      "Ġdisruptions": 7830,
      "Ġattorney": 7831,
      "IS": 7832,
      "falls": 7833,
      "pse": 7834,
      "rection": 7835,
      "Ġsanc": 7836,
      "itals": 7837,
      "Ġlists": 7838,
      "Ġnative": 7839,
      "ocation": 7840,
      "Ġcontexts": 7841,
      "Ġpreced": 7842,
      "ella": 7843,
      "elled": 7844,
      "Ġscores": 7845,
      "Ġinterior": 7846,
      "ĠInf": 7847,
      "Ġchest": 7848,
      "ĠEnergy": 7849,
      "Ġfoods": 7850,
      "Ġsteep": 7851,
      "Ġevident": 7852,
      "Ġelectrical": 7853,
      "Ġauthentication": 7854,
      "Ġingredient": 7855,
      "Ġwinter": 7856,
      "ĠTechniques": 7857,
      "ĠCentral": 7858,
      "Ġhurdles": 7859,
      "ĠFinancial": 7860,
      "ĠSystems": 7861,
      "Ġbottom": 7862,
      "Ġfurry": 7863,
      "Ġyoga": 7864,
      "Ġprofitability": 7865,
      "ER": 7866,
      "HA": 7867,
      "Man": 7868,
      "rise": 7869,
      "uis": 7870,
      "yth": 7871,
      "Ġdouble": 7872,
      "Ġnur": 7873,
      "ĠBased": 7874,
      "Ġads": 7875,
      "ĠDist": 7876,
      "Ġperceptions": 7877,
      "Ġquarter": 7878,
      "lla": 7879,
      "Ġexplained": 7880,
      "ĠOper": 7881,
      "Ġgrab": 7882,
      "Ġorganizing": 7883,
      "berry": 7884,
      "Ġknows": 7885,
      "Ġobtaining": 7886,
      "Ġpresentation": 7887,
      "ĠTraditional": 7888,
      "Ġversus": 7889,
      "Ġgrounded": 7890,
      "Ġappeared": 7891,
      "tigious": 7892,
      "Ġcalend": 7893,
      "Ġstreamlining": 7894,
      "Ġpursue": 7895,
      "Ġdiagnostic": 7896,
      "Ġdiscipline": 7897,
      "Ġbanks": 7898,
      "ĠEncourage": 7899,
      "ĠEarth": 7900,
      "Ġmistakes": 7901,
      "Ġtitles": 7902,
      "Ġtelevision": 7903,
      "ĠCBD": 7904,
      "Ġdreams": 7905,
      "sembly": 7906,
      "eemed": 7907,
      "Ġfluctuations": 7908,
      "ĠLeveraging": 7909,
      "PC": 7910,
      "`,": 7911,
      "field": 7912,
      "Ġtough": 7913,
      "Ġtheater": 7914,
      "Ġfier": 7915,
      "Ġfiber": 7916,
      "Ġdoub": 7917,
      "arader": 7918,
      "idity": 7919,
      "ĠTwe": 7920,
      "Ġprob": 7921,
      "ĠCamp": 7922,
      "ĠHR": 7923,
      "ockey": 7924,
      "ĠLocal": 7925,
      "Ġdisse": 7926,
      "Ġkiss": 7927,
      "Ġopting": 7928,
      "Ġcoast": 7929,
      "Ġprestigious": 7930,
      "Ġlock": 7931,
      "Ġdetect": 7932,
      "Ġmaintains": 7933,
      "Ġsmiling": 7934,
      "azon": 7935,
      "Ġstewards": 7936,
      "Ġ198": 7937,
      "Ġexpanded": 7938,
      "Ġfalling": 7939,
      "Ġnecessitate": 7940,
      "Ġproposition": 7941,
      "Ġenterprises": 7942,
      "Ġcrises": 7943,
      "Ġchecking": 7944,
      "Ġscalability": 7945,
      "Ġregistration": 7946,
      "araderie": 7947,
      "een": 7948,
      "kin": 7949,
      "Ġpud": 7950,
      "Ġbust": 7951,
      "asy": 7952,
      "Ġhuge": 7953,
      "seen": 7954,
      "Ġproves": 7955,
      "Ġshine": 7956,
      "Ġunlike": 7957,
      "ffy": 7958,
      "Ġemails": 7959,
      "Ġweap": 7960,
      "Ġtransit": 7961,
      "Ġsetbacks": 7962,
      "Ġmoves": 7963,
      "Ġcompleting": 7964,
      "Ġcompleted": 7965,
      "Ġauth": 7966,
      "Ġoperators": 7967,
      "Ġstandout": 7968,
      "Ġbroke": 7969,
      "Ġcollect": 7970,
      "Ġtriumph": 7971,
      "Ġfilms": 7972,
      "horized": 7973,
      "Ġinstitutional": 7974,
      "Ġcrying": 7975,
      "ÅĵI": 7976,
      "Ġrapport": 7977,
      "Ġexecuting": 7978,
      "Ġtextures": 7979,
      "Ġpurchases": 7980,
      "Ġexposed": 7981,
      "Ġinvestigations": 7982,
      "Ġcamaraderie": 7983,
      "Ġunfamiliar": 7984,
      "Ġcounseling": 7985,
      "ĠAddressing": 7986,
      "Ġglimpse": 7987,
      "Ġdisplays": 7988,
      "EA": 7989,
      "lass": 7990,
      "no": 7991,
      "Ġmac": 7992,
      "Ġreference": 7993,
      "aments": 7994,
      "Ġproxim": 7995,
      "ĠPol": 7996,
      "ĠEff": 7997,
      "Ġspect": 7998,
      "Ġtransf": 7999,
      "Ġtea": 8000,
      "Ġconcise": 8001,
      "pty": 8002,
      "Ġsurge": 8003,
      "ricket": 8004,
      "Ġworkplace": 8005,
      "Ġinfection": 8006,
      "Ġoperates": 8007,
      "Ġsupported": 8008,
      "ootball": 8009,
      "Ġenjoyable": 8010,
      "Ġwrite": 8011,
      "holder": 8012,
      "ĠCompany": 8013,
      "ĠAppro": 8014,
      "Ġmastery": 8015,
      "Ġcompatible": 8016,
      "Ġfamiliarity": 8017,
      "Ġarticles": 8018,
      "Ġuniversal": 8019,
      "ĠDepart": 8020,
      "Ġmanifest": 8021,
      "Ġhesit": 8022,
      "ython": 8023,
      "13": 8024,
      "Ac": 8025,
      "Ar": 8026,
      "My": 8027,
      "WS": 8028,
      "bur": 8029,
      "made": 8030,
      "Ġtrop": 8031,
      "anks": 8032,
      "Ġborders": 8033,
      "Ġlit": 8034,
      "Ġalcoh": 8035,
      "ĠCy": 8036,
      "Ġplain": 8037,
      "ustration": 8038,
      "Ġcoach": 8039,
      "ologists": 8040,
      "Ġdiabetes": 8041,
      "Ġsurgical": 8042,
      "Ġdelay": 8043,
      "Ġmarketplace": 8044,
      "Ġentr": 8045,
      "Ġcarried": 8046,
      "Ġfilters": 8047,
      "Ġplacement": 8048,
      "Ġhighest": 8049,
      "covery": 8050,
      "Ġsummar": 8051,
      "Ġdurable": 8052,
      "Ġfulfillment": 8053,
      "Ġbags": 8054,
      "Ġcompromising": 8055,
      "Ġencountered": 8056,
      "Ġeliminating": 8057,
      "ixture": 8058,
      "Ġportfolio": 8059,
      "ĠAustral": 8060,
      "Ġworkflows": 8061,
      "Ġcredentials": 8062,
      "Ġschemes": 8063,
      "Col": 8064,
      "PE": 8065,
      "aust": 8066,
      "kens": 8067,
      "tw": 8068,
      "icking": 8069,
      "Ġreap": 8070,
      "Ġgems": 8071,
      "Ġstorm": 8072,
      "users": 8073,
      "ticians": 8074,
      "unic": 8075,
      "ĠBitcoin": 8076,
      "odes": 8077,
      "Ġcontest": 8078,
      "Ġparalle": 8079,
      "Ġdism": 8080,
      "Ġspring": 8081,
      "Ġfeas": 8082,
      "ailing": 8083,
      "Ġundergo": 8084,
      "assed": 8085,
      "Ġqueries": 8086,
      "Ġdiscrep": 8087,
      "Ġ13": 8088,
      "Ġsolace": 8089,
      "aware": 8090,
      "Ġearrings": 8091,
      "ĠAnn": 8092,
      "ĠAnalysis": 8093,
      "Ġesteemed": 8094,
      "jection": 8095,
      "Ġachievement": 8096,
      "ĠReview": 8097,
      "Ġestablishment": 8098,
      "Ġmisu": 8099,
      "Ġelectron": 8100,
      "Ġfairness": 8101,
      "Ġverify": 8102,
      "Ġparameters": 8103,
      "Ġacquiring": 8104,
      "Ġcandidate": 8105,
      "Ġsecondary": 8106,
      "Ġhouses": 8107,
      "ĠLearning": 8108,
      "Ġrankings": 8109,
      "Ġtrauma": 8110,
      "Ġrocks": 8111,
      "Ġlifelong": 8112,
      "SL": 8113,
      "eti": 8114,
      "ien": 8115,
      "iology": 8116,
      "Ġx": 8117,
      "Ġiron": 8118,
      "ints": 8119,
      "Ġtheore": 8120,
      "ora": 8121,
      "Ġretain": 8122,
      "Ġgam": 8123,
      "Ġstores": 8124,
      "ĠMa": 8125,
      "Ġmeant": 8126,
      "ĠJake": 8127,
      "Ġinstill": 8128,
      "Ġrelies": 8129,
      "Ġcovers": 8130,
      "Ġbush": 8131,
      "Ġguided": 8132,
      "Ġconfusion": 8133,
      "Ġfrustr": 8134,
      "Ġseverity": 8135,
      "Ġcriticism": 8136,
      "Ġnavigation": 8137,
      "Ġrooms": 8138,
      "Ġtherapies": 8139,
      "Ġcircles": 8140,
      "Ġorigins": 8141,
      "authorized": 8142,
      "Ġpretend": 8143,
      "Ġeffortlessly": 8144,
      "Ġallocate": 8145,
      "Ġcapitalize": 8146,
      "Ġcarrying": 8147,
      "Ġvoting": 8148,
      "ĠModern": 8149,
      "ĠRussia": 8150,
      "ĠRelations": 8151,
      "Ġclothing": 8152,
      "Ġresilient": 8153,
      "ĠDirect": 8154,
      "Ġintrospection": 8155,
      "Press": 8156,
      "puts": 8157,
      "Ġtends": 8158,
      "rees": 8159,
      "esis": 8160,
      "Ġfis": 8161,
      "Ġbaking": 8162,
      "Ġtokens": 8163,
      "leep": 8164,
      "step": 8165,
      "celer": 8166,
      "Ġvitam": 8167,
      "Ġrad": 8168,
      "Ġrhyth": 8169,
      "anted": 8170,
      "uster": 8171,
      "umen": 8172,
      "allow": 8173,
      "istent": 8174,
      "ĠDiv": 8175,
      "Ġcreature": 8176,
      "Ġdesirable": 8177,
      "Ġdecl": 8178,
      "Ġnewfound": 8179,
      "Ġstrategically": 8180,
      "Ġsocio": 8181,
      "Ġevening": 8182,
      "ovation": 8183,
      "Ġimmigration": 8184,
      "Ġcollected": 8185,
      "ĠAlways": 8186,
      "Ġswam": 8187,
      "Ġkeeps": 8188,
      "Ġelection": 8189,
      "Ġfilling": 8190,
      "Ġreturned": 8191,
      "Ġfailures": 8192,
      "Ġartistry": 8193,
      "Ġnutrition": 8194,
      "Ġobserved": 8195,
      "ĠRecognizing": 8196,
      "ĠInstitute": 8197,
      "Ġofficers": 8198,
      "Consider": 8199,
      "ĠImportance": 8200,
      "ĠUkraine": 8201,
      "'d": 8202,
      "Pl": 8203,
      "Sure": 8204,
      "ka": 8205,
      "live": 8206,
      "mark": 8207,
      "ns": 8208,
      "uary": 8209,
      "orse": 8210,
      "Ġpil": 8211,
      "itarian": 8212,
      "edia": 8213,
      "Ġfal": 8214,
      "Ġoven": 8215,
      "Ġmountain": 8216,
      "Ġlights": 8217,
      "Ġthrow": 8218,
      "ĠTex": 8219,
      "ership": 8220,
      "adata": 8221,
      "ĠBre": 8222,
      "ĠBack": 8223,
      "Ġcha": 8224,
      "char": 8225,
      "Ġliber": 8226,
      "ĠEast": 8227,
      "ĠDay": 8228,
      "atigue": 8229,
      "Ġsystemic": 8230,
      "ĠWithin": 8231,
      "Ġshowing": 8232,
      "Ġplane": 8233,
      "Ġprincess": 8234,
      "ervice": 8235,
      "Ġglobe": 8236,
      "Ġevidenced": 8237,
      "Ġmeaningfully": 8238,
      "Ġsolidifying": 8239,
      "Ġdomin": 8240,
      "Ġdropped": 8241,
      "Ġcoding": 8242,
      "Ġenriching": 8243,
      "Ġeligibility": 8244,
      "Ġaccompanied": 8245,
      "Ġprevalent": 8246,
      "Ġembedded": 8247,
      "25": 8248,
      "NT": 8249,
      "RL": 8250,
      "RO": 8251,
      "pa": 8252,
      "tes": 8253,
      "Ġsold": 8254,
      "igen": 8255,
      "Ġstood": 8256,
      "ĠSpecial": 8257,
      "Ġalmost": 8258,
      "Ġliability": 8259,
      "Ġuniversity": 8260,
      "Ġroots": 8261,
      "Ġtherefore": 8262,
      "Ġperception": 8263,
      "Ġquanti": 8264,
      "Ġhappens": 8265,
      "ysical": 8266,
      "Ġfacility": 8267,
      "Ġvisits": 8268,
      "Ġtwist": 8269,
      "Ġearned": 8270,
      "Ġintegrate": 8271,
      "Ġdriven": 8272,
      "ierarch": 8273,
      "Ġhistoric": 8274,
      "Ġ50": 8275,
      "Ġcybersecurity": 8276,
      "Ġcontempl": 8277,
      "Ġmomentum": 8278,
      "Ġtastes": 8279,
      "Ġpsychology": 8280,
      "Ġyields": 8281,
      "Ġsandw": 8282,
      "Ġinterpretations": 8283,
      "reatment": 8284,
      "rolog": 8285,
      "profile": 8286,
      "illiant": 8287,
      ".).": 8288,
      "==": 8289,
      "Just": 8290,
      "Ġ/": 8291,
      "Ġblow": 8292,
      "Ġdual": 8293,
      "Ġmine": 8294,
      "rot": 8295,
      "Ġglow": 8296,
      "Ġul": 8297,
      "ĠSun": 8298,
      "Ġitem": 8299,
      "ĠAlex": 8300,
      "umin": 8301,
      "Ġcompact": 8302,
      "ĠPDF": 8303,
      "Ġunauthorized": 8304,
      "Ġ(\"": 8305,
      "Ġshell": 8306,
      "Ġrose": 8307,
      "Ġnoted": 8308,
      "Ġtransaction": 8309,
      "ionship": 8310,
      "Ġbrighter": 8311,
      "Ġdiffer": 8312,
      "ointed": 8313,
      "reek": 8314,
      "ĠAdop": 8315,
      "Ġhumility": 8316,
      "Ġsupporters": 8317,
      "Ġpassword": 8318,
      "Ġcray": 8319,
      "ĠAmazon": 8320,
      "Ġphysically": 8321,
      "Ġdram": 8322,
      "Ġmembership": 8323,
      "Ġbeautifully": 8324,
      "Ġshaped": 8325,
      "Ġinvites": 8326,
      "Ġexpressing": 8327,
      "Ġqualified": 8328,
      "Ġdebate": 8329,
      "ĠBlue": 8330,
      "Ġdatas": 8331,
      "Ġhonest": 8332,
      "Ġscientists": 8333,
      "ĠWhite": 8334,
      "Ġdrugs": 8335,
      "ĠType": 8336,
      "Ġrestaurant": 8337,
      "entralized": 8338,
      "Ġsurgery": 8339,
      "100": 8340,
      "AC": 8341,
      "bor": 8342,
      "Ġpod": 8343,
      "Ġpowder": 8344,
      "stones": 8345,
      "Ġfort": 8346,
      "ĠSus": 8347,
      "ĠCRM": 8348,
      "emy": 8349,
      "Ġant": 8350,
      "plan": 8351,
      "ĠMal": 8352,
      "ĠPers": 8353,
      "Ġdietary": 8354,
      "Ġunderstands": 8355,
      "redit": 8356,
      "ĠEnviron": 8357,
      "Ġcritics": 8358,
      "Ġmentions": 8359,
      "ĠRequ": 8360,
      "Ġadopted": 8361,
      "Ġtraders": 8362,
      "ĠApplying": 8363,
      "Ġrevealing": 8364,
      "ĠQuality": 8365,
      "Ġburden": 8366,
      "Ġtaxes": 8367,
      "Ġspotted": 8368,
      "Ġsymbols": 8369,
      "Ġmiddle": 8370,
      "Ġecosystems": 8371,
      "offs": 8372,
      "ĠComb": 8373,
      "ĠEmbrace": 8374,
      "Ġreplacement": 8375,
      "ĠMaybe": 8376,
      "Ġeggs": 8377,
      "ĠEstablish": 8378,
      "ĠNFT": 8379,
      "marks": 8380,
      "60": 8381,
      "Reg": 8382,
      "ju": 8383,
      "mind": 8384,
      "medi": 8385,
      "Ġcart": 8386,
      "Ġmud": 8387,
      "road": 8388,
      "Ġasks": 8389,
      "Ġru": 8390,
      "ĠII": 8391,
      "ĠMark": 8392,
      "Ġadvers": 8393,
      "Ġincons": 8394,
      "Ġalloy": 8395,
      "Ġpreference": 8396,
      "Ġknee": 8397,
      "ĠOpportun": 8398,
      "Ġdiscl": 8399,
      "Ġadvis": 8400,
      "Ġworkforce": 8401,
      "ĠStar": 8402,
      "ergies": 8403,
      "Ġcurated": 8404,
      "Ġclever": 8405,
      "Ġsuppl": 8406,
      "Ġdefined": 8407,
      "Ġpoised": 8408,
      "Ġvolati": 8409,
      "Ġhoped": 8410,
      "ĠBeh": 8411,
      "Ġcollectively": 8412,
      "ĠEngine": 8413,
      "Ġinstruction": 8414,
      "Ġrevealed": 8415,
      "Ġcontrolled": 8416,
      "ĠCheck": 8417,
      "Ġrental": 8418,
      "ĠSecondly": 8419,
      "Ġtomorrow": 8420,
      "Ġcrystal": 8421,
      "Ġprolonged": 8422,
      "Ġtheoretical": 8423,
      "18": 8424,
      "greg": 8425,
      "Ġtied": 8426,
      "Ġsides": 8427,
      "Ġfatigue": 8428,
      "Ġnerv": 8429,
      "ĠAug": 8430,
      "ĠBec": 8431,
      "oding": 8432,
      "Ġchicken": 8433,
      "Ġadorn": 8434,
      "uded": 8435,
      "ĠWestern": 8436,
      "ĠRest": 8437,
      "Ġsheds": 8438,
      "Ġconsent": 8439,
      "Ġconservation": 8440,
      "ĠGreen": 8441,
      "ancer": 8442,
      "Ġbackdrop": 8443,
      "Ġ11": 8444,
      "Ġcontinually": 8445,
      "Ġconfront": 8446,
      "Ġpartnering": 8447,
      "Ġbreaks": 8448,
      "Ġminimum": 8449,
      "Ġfilter": 8450,
      "ĠEmily": 8451,
      "Ġorigin": 8452,
      "Ġsatisfying": 8453,
      "ĠPlatform": 8454,
      "Ġzone": 8455,
      "ĠApple": 8456,
      "Ġconfidently": 8457,
      "Ġinterpre": 8458,
      "PIs": 8459,
      "Ġradiation": 8460,
      "Ġdiagnosis": 8461,
      "Ġdependable": 8462,
      "gener": 8463,
      "ĠAfrica": 8464,
      "Ġafraid": 8465,
      "Ġbirthday": 8466,
      "Ġupholding": 8467,
      "ĠHistor": 8468,
      "Throughout": 8469,
      "Se": 8470,
      "nis": 8471,
      "oven": 8472,
      "oors": 8473,
      "rac": 8474,
      "Ġsang": 8475,
      "atin": 8476,
      "Ġhoney": 8477,
      "Ġlap": 8478,
      "Ġstoring": 8479,
      "urring": 8480,
      "ĠBook": 8481,
      "Ġplacing": 8482,
      "Ġchair": 8483,
      "ĠMore": 8484,
      "ĠPete": 8485,
      "ĠFocus": 8486,
      "Ġdisorder": 8487,
      "Ġkitten": 8488,
      "Ġperman": 8489,
      "Ġexplan": 8490,
      "Ġdecide": 8491,
      "Ġindex": 8492,
      "Ġbackup": 8493,
      "portion": 8494,
      "ĠConnec": 8495,
      "Ġfamous": 8496,
      "Ġopenness": 8497,
      "Ġprevents": 8498,
      "Ġtrial": 8499,
      "Ġchildhood": 8500,
      "Ġaccountable": 8501,
      "Ġartwork": 8502,
      "Ġyounger": 8503,
      "Ġ197": 8504,
      "Ġprocedure": 8505,
      "Ġobserve": 8506,
      "Ġengineers": 8507,
      "Ġdolls": 8508,
      "Ġopposition": 8509,
      "Ġmissed": 8510,
      "Ġstreams": 8511,
      "ĠGeneral": 8512,
      "Ġsoup": 8513,
      "Ġincredibly": 8514,
      "ĠExperience": 8515,
      "ĠAfrican": 8516,
      "ĠSuccessful": 8517,
      "Ġmilestones": 8518,
      "Ġfurniture": 8519,
      "Ġjudgment": 8520,
      "Ġprosperity": 8521,
      "ES": 8522,
      "IP": 8523,
      "\\_": 8524,
      "body": 8525,
      "Ġ+": 8526,
      "Ġsack": 8527,
      "erate": 8528,
      "erving": 8529,
      "Ġcere": 8530,
      "Ġcuis": 8531,
      "Ġwash": 8532,
      "ĠHoly": 8533,
      "Ġtracks": 8534,
      "Ġcomparing": 8535,
      "ĠFred": 8536,
      "ĠFootball": 8537,
      "illa": 8538,
      "assment": 8539,
      "obal": 8540,
      "Ġprompting": 8541,
      "Ġparticles": 8542,
      "Ġrefr": 8543,
      "Ġmoon": 8544,
      "ĠStand": 8545,
      "Ġstir": 8546,
      "Ġcrack": 8547,
      "ĠUnfortunately": 8548,
      "Ġtrials": 8549,
      "Ġaffects": 8550,
      "Ġ2015": 8551,
      "ĠĠĠĠĠĠĠĠ": 8552,
      "itigation": 8553,
      "Ġterror": 8554,
      "Ġreasonable": 8555,
      "Ġsophistication": 8556,
      "Ġlibraries": 8557,
      "Ġdiplomacy": 8558,
      "Ġdistributed": 8559,
      "ĠFollowing": 8560,
      "Ġmovie": 8561,
      "Ġlawyer": 8562,
      "ĠFluffy": 8563,
      "Ġstewardship": 8564,
      "pts": 8565,
      "erning": 8566,
      "Ġpowers": 8567,
      "Ġfancy": 8568,
      "Ġbought": 8569,
      "lements": 8570,
      "Ġhierarch": 8571,
      "iders": 8572,
      "olution": 8573,
      "Ġstuff": 8574,
      "ulum": 8575,
      "uter": 8576,
      "Ġvine": 8577,
      "Ġbeef": 8578,
      "Ġplug": 8579,
      "ĠMaster": 8580,
      "ĠPak": 8581,
      "Ġjog": 8582,
      "ĠThank": 8583,
      "Ġkid": 8584,
      "ĠGerm": 8585,
      "Ġdiscerning": 8586,
      "Ġ100": 8587,
      "Ġperformers": 8588,
      "ĠVol": 8589,
      "Ġresponsive": 8590,
      "Ġchef": 8591,
      "Ġdefining": 8592,
      "ĠAlso": 8593,
      "Ġguides": 8594,
      "Ġpayday": 8595,
      "Ġnaturally": 8596,
      "Ġexecutive": 8597,
      "Ġbreakfast": 8598,
      "Ġwinning": 8599,
      "Ġspeeds": 8600,
      "Ġhospitals": 8601,
      "Ġsuggested": 8602,
      "ĠTwitter": 8603,
      "Ġrepeat": 8604,
      "Ġanticipate": 8605,
      "ĠOrganizations": 8606,
      "Ġhospitality": 8607,
      "ĠRussian": 8608,
      "Ġpitfalls": 8609,
      "Ġrefreshing": 8610,
      "Ġgauge": 8611,
      "Ġricher": 8612,
      "Ġreminiscent": 8613,
      "Ġproximity": 8614,
      "Up": 8615,
      "dens": 8616,
      "draw": 8617,
      "iat": 8618,
      "ye": 8619,
      "Ġsere": 8620,
      "Ġsend": 8621,
      "Ġcinem": 8622,
      "Ġfro": 8623,
      "Ġgall": 8624,
      "Ġgigg": 8625,
      "Ġash": 8626,
      "ĠCoun": 8627,
      "Ġshut": 8628,
      "ĠFost": 8629,
      "Ġdisag": 8630,
      "Ġdeveloper": 8631,
      "Ġnoises": 8632,
      "Ġkeys": 8633,
      "overty": 8634,
      "Ġphr": 8635,
      "Ġhomeown": 8636,
      "essional": 8637,
      "Ġbread": 8638,
      "Ġranks": 8639,
      "Ġimmerse": 8640,
      "ĠExp": 8641,
      "Ġcourts": 8642,
      "Ġwriters": 8643,
      "Ġprogressive": 8644,
      "Ġtravels": 8645,
      "ĠClass": 8646,
      "ĠClub": 8647,
      "Ġsubstance": 8648,
      "Ġpackaging": 8649,
      "Ġadjusting": 8650,
      "Ġactionable": 8651,
      "Ġroute": 8652,
      "Ġhygi": 8653,
      "Ġconstitu": 8654,
      "Ġvariables": 8655,
      "Ġcertification": 8656,
      "ĠCreate": 8657,
      "Ġendeavor": 8658,
      "ĠMaintain": 8659,
      "Ġmanipulation": 8660,
      "Ġsurvival": 8661,
      "Ġimplies": 8662,
      "Ġshooting": 8663,
      "piece": 8664,
      "onymous": 8665,
      ".âĢĿ": 8666,
      "HC": 8667,
      "mic": 8668,
      "tra": 8669,
      "Ġtables": 8670,
      "rehens": 8671,
      "Ġbell": 8672,
      "igently": 8673,
      "ĠTher": 8674,
      "see": 8675,
      "ĠSing": 8676,
      "abil": 8677,
      "Ġseeds": 8678,
      "ĠFore": 8679,
      "Ġresc": 8680,
      "ĠDri": 8681,
      "geoning": 8682,
      "Ġspots": 8683,
      "Ġfee": 8684,
      "Ġdesires": 8685,
      "ĠChild": 8686,
      "Ġconfron": 8687,
      "undane": 8688,
      "Ġpointed": 8689,
      "Ġanalysts": 8690,
      "Ġtasted": 8691,
      "Ġevolved": 8692,
      "irtual": 8693,
      "plified": 8694,
      "Ġreminders": 8695,
      "Ġarguments": 8696,
      "Tommy": 8697,
      "Ġindependence": 8698,
      "ĠConsiderations": 8699,
      "Ġirr": 8700,
      "Ġtranslate": 8701,
      "Ġcomplementary": 8702,
      "Ġbathroom": 8703,
      "ritish": 8704,
      "ĠSafety": 8705,
      "ĠAlternatively": 8706,
      "ĠChallenges": 8707,
      "Ã¡": 8708,
      "erved": 8709,
      "tier": 8710,
      "Ġpave": 8711,
      "Ġmigration": 8712,
      "Ġmundane": 8713,
      "Ġacceler": 8714,
      "ĠBay": 8715,
      "osity": 8716,
      "igned": 8717,
      "Ġspin": 8718,
      "Ġdescription": 8719,
      "Ġexplores": 8720,
      "Ġmodes": 8721,
      "Ġmetadata": 8722,
      "Ġfaculty": 8723,
      "Ġvisible": 8724,
      "Ġaddressed": 8725,
      "Ġcritically": 8726,
      "Ġcommitting": 8727,
      "Ġactivism": 8728,
      "Ġconsume": 8729,
      "ĠTrump": 8730,
      "Ġboxes": 8731,
      "Ġburgeoning": 8732,
      "Ġhyper": 8733,
      "Ġstarters": 8734,
      "Ġcouples": 8735,
      "ĠStudents": 8736,
      "Ġturb": 8737,
      "ĠOffice": 8738,
      "Ġexperimentation": 8739,
      "Ġopinion": 8740,
      "Ġtrouble": 8741,
      "Ġtemplates": 8742,
      "Ġcorresponding": 8743,
      "Ġincentives": 8744,
      "Ġunderstood": 8745,
      "Ġscrutiny": 8746,
      "ME": 8747,
      "voking": 8748,
      "inge": 8749,
      "Ġfence": 8750,
      "Ġfather": 8751,
      "Ġdanced": 8752,
      "arious": 8753,
      "Ġlosing": 8754,
      "ĠHome": 8755,
      "ĠBu": 8756,
      "Ġleague": 8757,
      "ĠMc": 8758,
      "Ġconserv": 8759,
      "ĠGame": 8760,
      "lectr": 8761,
      "Ġbrilliant": 8762,
      "Ġ25": 8763,
      "Ġgrew": 8764,
      "Ġprofessionally": 8765,
      "Ġhumor": 8766,
      "Ġminimizes": 8767,
      "Ġsunlight": 8768,
      "Ġlovely": 8769,
      "minating": 8770,
      "Ġevaluations": 8771,
      "TML": 8772,
      "intage": 8773,
      "Ġstructured": 8774,
      "ĠSupp": 8775,
      "Ġstreets": 8776,
      "Ġaccommodations": 8777,
      "Ġarchitectural": 8778,
      "Ġdelightful": 8779,
      "Ġembarr": 8780,
      "Ġsourced": 8781,
      "Ġvaccine": 8782,
      "Ġdemographic": 8783,
      "Ġcrowd": 8784,
      "ĠCustomer": 8785,
      "ĠJenny": 8786,
      "Ġreconc": 8787,
      "Ġsearched": 8788,
      "Ġrecruitment": 8789,
      "Ġalcohol": 8790,
      "Comp": 8791,
      "How": 8792,
      "Okay": 8793,
      "Res": 8794,
      "gia": 8795,
      "ham": 8796,
      "ker": 8797,
      "Ġtire": 8798,
      "Ġsale": 8799,
      "ales": 8800,
      "alog": 8801,
      "oma": 8802,
      "Ġeld": 8803,
      "Ġhockey": 8804,
      "achel": 8805,
      "Ġnone": 8806,
      "amily": 8807,
      "agg": 8808,
      "empt": 8809,
      "ĠBritish": 8810,
      "ĠMental": 8811,
      "ĠPH": 8812,
      "ĠPap": 8813,
      "Ġresur": 8814,
      "Ġimpacting": 8815,
      "Ġempty": 8816,
      "ĠRead": 8817,
      "Ġquart": 8818,
      "Ġcolumn": 8819,
      "weight": 8820,
      "Ġrepairs": 8821,
      "Ġbacked": 8822,
      "Ġsecre": 8823,
      "Ġsettle": 8824,
      "Ġboards": 8825,
      "ĠStart": 8826,
      "Ġsolve": 8827,
      "Ġconfused": 8828,
      "Ġextending": 8829,
      "Ġequality": 8830,
      "Ġsupplement": 8831,
      "roph": 8832,
      "ĠIndust": 8833,
      "Ġphotograp": 8834,
      "Ġhiding": 8835,
      "Ġcoping": 8836,
      "Ġrainbow": 8837,
      "ĠInsurance": 8838,
      "Ġstatistical": 8839,
      "ĠStrategy": 8840,
      "ĠMonitor": 8841,
      "Ġeagerly": 8842,
      "ĠBalancing": 8843,
      "Ġelegant": 8844,
      "Ġattorneys": 8845,
      "Ġemotionally": 8846,
      "ĊĠĠĠĠĠĠĠ": 8847,
      "Ġpercentage": 8848,
      "Ġphotographs": 8849,
      "ĠPolicy": 8850,
      "Ġfierce": 8851,
      "65": 8852,
      "Help": 8853,
      "Mum": 8854,
      "fr": 8855,
      "la": 8856,
      "inn": 8857,
      "Ġwid": 8858,
      "isure": 8859,
      "Ġmale": 8860,
      "Ġhook": 8861,
      "idable": 8862,
      "Ġnuclear": 8863,
      "Ġhem": 8864,
      "othe": 8865,
      "Ġproof": 8866,
      "rian": 8867,
      "ĠCry": 8868,
      "Ġtrail": 8869,
      "Ġshore": 8870,
      "Ġseat": 8871,
      "ĠWr": 8872,
      "Ġunknown": 8873,
      "Ġapples": 8874,
      "Ġclock": 8875,
      "Ġaccounting": 8876,
      "Ġauto": 8877,
      "Ġbenefiting": 8878,
      "Ġnecklace": 8879,
      "Ġrising": 8880,
      "Ġassociations": 8881,
      "Ġcataly": 8882,
      "Ġpacked": 8883,
      "ruption": 8884,
      "Ġwheel": 8885,
      "Ġunwanted": 8886,
      "Ġoversight": 8887,
      "Ġannouncement": 8888,
      "ĠSoftware": 8889,
      "Ġauthors": 8890,
      "Ġnervous": 8891,
      "ĠAugust": 8892,
      "AM": 8893,
      "host": 8894,
      "pted": 8895,
      "rons": 8896,
      "Ġcauti": 8897,
      "roid": 8898,
      "Ġlending": 8899,
      "ecutive": 8900,
      "Ġgro": 8901,
      "Ġconference": 8902,
      "ĠSen": 8903,
      "ĠCost": 8904,
      "ĠCath": 8905,
      "ĠHTML": 8906,
      "tively": 8907,
      "ĠMich": 8908,
      "ĠPan": 8909,
      "ĠDif": 8910,
      "avior": 8911,
      "volving": 8912,
      "ĠOld": 8913,
      "Ġdivers": 8914,
      "Ġboast": 8915,
      "Ġblending": 8916,
      "brid": 8917,
      "Ġpersonally": 8918,
      "ovascular": 8919,
      "Ġformidable": 8920,
      "Ġremained": 8921,
      "Ġapplicants": 8922,
      "Ġinvestor": 8923,
      "Ġgiant": 8924,
      "Ġmathema": 8925,
      "Ġrobot": 8926,
      "Ġtempor": 8927,
      "Ġelections": 8928,
      "ĠAcad": 8929,
      "Ġjobs": 8930,
      "Ġstreaming": 8931,
      "Ġresolve": 8932,
      "Ġseparation": 8933,
      "Ġconstitute": 8934,
      "Ġelsewhere": 8935,
      "Ġresponding": 8936,
      "ĠAutom": 8937,
      "Ġvoters": 8938,
      "Ġintention": 8939,
      "Ġpicturesque": 8940,
      "Ġaccomplishments": 8941,
      "Ġexploit": 8942,
      "Ġrenewable": 8943,
      "Ġmicros": 8944,
      "Ġinstrumental": 8945,
      "ĠEssentially": 8946,
      "Ġhinges": 8947,
      "rehensive": 8948,
      "casts": 8949,
      "mount": 8950,
      "Ġfighting": 8951,
      "Ġbull": 8952,
      "Ġdess": 8953,
      "Ġdancing": 8954,
      "urches": 8955,
      "ĠBas": 8956,
      "ĠBrown": 8957,
      "change": 8958,
      "ĠLo": 8959,
      "Ġquan": 8960,
      "Ġcolour": 8961,
      "Ġbrush": 8962,
      "Ġ17": 8963,
      "Ġcapturing": 8964,
      "ĠKore": 8965,
      "Ġworlds": 8966,
      "cium": 8967,
      "Ġfollows": 8968,
      "conf": 8969,
      "Ġcontinuously": 8970,
      "Ġknowledgeable": 8971,
      "Ġmarvel": 8972,
      "provoking": 8973,
      "Ġexpressed": 8974,
      "oxid": 8975,
      "Ġdamaged": 8976,
      "Ġ2022": 8977,
      "discovery": 8978,
      "Ġpanel": 8979,
      "Ġwelcoming": 8980,
      "ĠSmith": 8981,
[...]
