{
  "version": "1.0",
  "truncation": null,
  "padding": null,
  "added_tokens": [
    {
      "id": 0,
      "content": "<UNK>",
      "single_word": false,
      "lstrip": false,
      "rstrip": false,
      "normalized": false,
      "special": true
    },
    {
      "id": 1,
      "content": "<PAD>",
      "single_word": false,
      "lstrip": false,
      "rstrip": false,
      "normalized": false,
      "special": true
    },
    {
      "id": 2,
      "content": "<BOS>",
      "single_word": false,
      "lstrip": false,
      "rstrip": false,
      "normalized": false,
      "special": true
    },
    {
      "id": 3,
      "content": "<EOS>",
      "single_word": false,
      "lstrip": false,
      "rstrip": false,
      "normalized": false,
      "special": true
    }
  ],
  "normalizer": {
    "type": "NFKC"
  },
  "pre_tokenizer": {
    "type": "ByteLevel",
    "add_prefix_space": false,
    "trim_offsets": true,
    "use_regex": true
  },
  "post_processor": null,
  "decoder": {
    "type": "ByteLevel",
    "add_prefix_space": true,
    "trim_offsets": true,
    "use_regex": true
  },
  "model": {
    "type": "BPE",
    "dropout": null,
    "unk_token": null,
    "continuing_subword_prefix": null,
    "end_of_word_suffix": null,
    "fuse_unk": false,
    "byte_fallback": false,
    "ignore_merges": false,
    "vocab": {
      "<UNK>": 0,
      "<PAD>": 1,
      "<BOS>": 2,
      "<EOS>": 3,
      "!": 4,
      "\"": 5,
      "#": 6,
      "$": 7,
      "%": 8,
      "&": 9,
      "'": 10,
      "(": 11,
      ")": 12,
      "*": 13,
      "+": 14,
      ",": 15,
      "-": 16,
      ".": 17,
      "/": 18,
      "0": 19,
      "1": 20,
      "2": 21,
      "3": 22,
      "4": 23,
      "5": 24,
      "6": 25,
      "7": 26,
      "8": 27,
      "9": 28,
      ":": 29,
      ";": 30,
      "<": 31,
      "=": 32,
      ">": 33,
      "?": 34,
      "@": 35,
      "A": 36,
      "B": 37,
      "C": 38,
      "D": 39,
      "E": 40,
      "F": 41,
      "G": 42,
      "H": 43,
      "I": 44,
      "J": 45,
      "K": 46,
      "L": 47,
      "M": 48,
      "N": 49,
      "O": 50,
      "P": 51,
      "Q": 52,
      "R": 53,
      "S": 54,
      "T": 55,
      "U": 56,
      "V": 57,
      "W": 58,
      "X": 59,
      "Y": 60,
      "Z": 61,
      "[": 62,
      "\\": 63,
      "]": 64,
      "^": 65,
      "_": 66,
      "`": 67,
      "a": 68,
      "b": 69,
      "c": 70,
      "d": 71,
      "e": 72,
      "f": 73,
      "g": 74,
      "h": 75,
      "i": 76,
      "j": 77,
      "k": 78,
      "l": 79,
      "m": 80,
      "n": 81,
      "o": 82,
      "p": 83,
      "q": 84,
      "r": 85,
      "s": 86,
      "t": 87,
      "u": 88,
      "v": 89,
      "w": 90,
      "x": 91,
      "y": 92,
      "z": 93,
      "{": 94,
      "|": 95,
      "}": 96,
      "~": 97,
      "¡": 98,
      "¢": 99,
      "£": 100,
      "¤": 101,
      "¥": 102,
      "¦": 103,
      "§": 104,
      "¨": 105,
      "©": 106,
      "ª": 107,
      "«": 108,
      "¬": 109,
      "®": 110,
      "¯": 111,
      "°": 112,
      "±": 113,
      "²": 114,
      "³": 115,
      "´": 116,
      "µ": 117,
      "¶": 118,
      "·": 119,
      "¸": 120,
      "¹": 121,
      "º": 122,
      "»": 123,
      "¼": 124,
      "½": 125,
      "¾": 126,
      "¿": 127,
      "Â": 128,
      "Ã": 129,
      "Ä": 130,
      "Å": 131,
      "Æ": 132,
      "Ç": 133,
      "È": 134,
      "É": 135,
      "Ê": 136,
      "Ë": 137,
      "Ì": 138,
      "Î": 139,
      "Ï": 140,
      "Ð": 141,
      "Ñ": 142,
      "Õ": 143,
      "Ö": 144,
      "×": 145,
      "Ø": 146,
      "Ù": 147,
      "Ú": 148,
      "Û": 149,
      "Ü": 150,
      "à": 151,
      "á": 152,
      "â": 153,
      "ã": 154,
      "ä": 155,
      "å": 156,
      "æ": 157,
      "ç": 158,
      "è": 159,
      "é": 160,
      "ë": 161,
      "ì": 162,
      "í": 163,
      "ï": 164,
      "ð": 165,
      "ĉ": 166,
      "Ċ": 167,
      "č": 168,
      "Ġ": 169,
      "Ģ": 170,
      "ģ": 171,
      "Ĥ": 172,
      "ĥ": 173,
      "Ħ": 174,
      "ħ": 175,
      "Ĩ": 176,
      "ĩ": 177,
      "Ī": 178,
      "ī": 179,
      "Ĭ": 180,
      "ĭ": 181,
      "Į": 182,
      "į": 183,
      "İ": 184,
      "ı": 185,
      "Ĳ": 186,
      "ĳ": 187,
      "Ĵ": 188,
      "ĵ": 189,
      "Ķ": 190,
      "ķ": 191,
      "ĸ": 192,
      "Ĺ": 193,
      "ĺ": 194,
      "Ļ": 195,
      "ļ": 196,
      "Ľ": 197,
      "ľ": 198,
      "Ŀ": 199,
      "ŀ": 200,
      "Ł": 201,
      "ł": 202,
      "Ń": 203,
      "Ġt": 204,
      "in": 205,
      "Ġa": 206,
      "he": 207,
      "re": 208,
      "on": 209,
      "er": 210,
      "at": 211,
      "Ġs": 212,
      "en": 213,
      "Ġthe": 214,
      "Ġc": 215,
      "es": 216,
      "ing": 217,
      "Ġo": 218,
      "it": 219,
      "nd": 220,
      "al": 221,
      "or": 222,
      "Ġp": 223,
      "Ġw": 224,
      "is": 225,
      "Ġf": 226,
      "an": 227,
      "ion": 228,
      "ed": 229,
      "Ġin": 230,
      "Ġb": 231,
      "ou": 232,
      "ar": 233,
      "Ġand": 234,
      "ic": 235,
      "Ġm": 236,
      "Ġd": 237,
      "Ġof": 238,
      "Ġto": 239,
      "le": 240,
      "ent": 241,
      "ro": 242,
      "ĠĠ": 243,
      "st": 244,
      "Ġe": 245,
      "Ġre": 246,
      "ct": 247,
      "Ġh": 248,
      "Ġth": 249,
      "om": 250,
      "il": 251,
      "as": 252,
      "ve": 253,
      "ly": 254,
      "Ġl": 255,
      "ation": 256,
      "et": 257,
      "Ġn": 258,
      "im": 259,
      "id": 260,
      "ce": 261,
      "se": 262,
      "ig": 263,
      "ol": 264,
      "ra": 265,
      "ur": 266,
      "ut": 267,
      "Ġg": 268,
      "ch": 269,
      "Ġu": 270,
      "ot": 271,
      "ow": 272,
      "ĠT": 273,
      "Ġst": 274,
      "ver": 275,
      "Ġfor": 276,
      "Ġcon": 277,
      "Ġbe": 278,
      "ul": 279,
      "Ġpro": 280,
      "ir": 281,
      "ĠA": 282,
      "Ġon": 283,
      "Ġis": 284,
      "ment": 285,
      "ers": 286,
      "ĠS": 287,
      "ess": 288,
      "Ġy": 289,
      "if": 290,
      "el": 291,
      "ith": 292,
      "am": 293,
      "ate": 294,
      "ĠC": 295,
      "ay": 296,
      "her": 297,
      "ĠI": 298,
      "Ġex": 299,
      "Ġthat": 300,
      "Ġas": 301,
      "--": 302,
      "Ġcom": 303,
      "Ġwith": 304,
      "ab": 305,
      "ĠĠĠĠ": 306,
      "ies": 307,
      "ity": 308,
      "ad": 309,
      "Ġit": 310,
      "Ġyou": 311,
      "ag": 312,
      "Ġor": 313,
      "Ġal": 314,
      "res": 315,
      "Ġde": 316,
      "Ġwh": 317,
      "Ġan": 318,
      "pp": 319,
      "ive": 320,
      "Ġv": 321,
      "us": 322,
      "ect": 323,
      "ist": 324,
      "qu": 325,
      "ter": 326,
      "Ġsu": 327,
      "iv": 328,
      "od": 329,
      "ain": 330,
      "Ġen": 331,
      "ĠM": 332,
      "ial": 333,
      "ore": 334,
      "and": 335,
      "igh": 336,
      "th": 337,
      "ĠP": 338,
      "ac": 339,
      "âĢ": 340,
      "ĠB": 341,
      "ke": 342,
      "ts": 343,
      "Ġ(": 344,
      "un": 345,
      "em": 346,
      "Ġhe": 347,
      "op": 348,
      "'s": 349,
      "oc": 350,
      "os": 351,
      "est": 352,
      "ill": 353,
      "um": 354,
      "ere": 355,
      "Ġare": 356,
      "ĠThe": 357,
      "ions": 358,
      "Ġse": 359,
      "Ġr": 360,
      "Ġch": 361,
      "ure": 362,
      "Ġle": 363,
      "ĠH": 364,
      "ĠW": 365,
      "ĠF": 366,
      "ld": 367,
      "ĠD": 368,
      "Ġne": 369,
      "ort": 370,
      "iz": 371,
      "nt": 372,
      "rom": 373,
      "ical": 374,
      "ip": 375,
      "Ġat": 376,
      "ib": 377,
      "ust": 378,
      "Ġ1": 379,
      "Ġby": 380,
      "Ġcan": 381,
      "ant": 382,
      "ud": 383,
      "ĠE": 384,
      "ĠR": 385,
      "ations": 386,
      "Ġint": 387,
      "rou": 388,
      "per": 389,
      "Ġim": 390,
      "og": 391,
      "pl": 392,
      "Ġthis": 393,
      "all": 394,
      "Ġad": 395,
      "pt": 396,
      "art": 397,
      "are": 398,
      "Ġsh": 399,
      "Ġfrom": 400,
      "gh": 401,
      "Ġtheir": 402,
      "ine": 403,
      "Ġsp": 404,
      "ther": 405,
      "Ġha": 406,
      "ance": 407,
      "Ġcomp": 408,
      "for": 409,
      "age": 410,
      "ard": 411,
      "Ġus": 412,
      "----": 413,
      "act": 414,
      "Ġcont": 415,
      "cc": 416,
      "ĠĠĠ": 417,
      "ous": 418,
      "Ġwe": 419,
      "ge": 420,
      "ĠL": 421,
      "Ġres": 422,
      "ost": 423,
      "ans": 424,
      "out": 425,
      "ĠG": 426,
      "Ġpl": 427,
      "king": 428,
      "ĠN": 429,
      "our": 430,
      "ight": 431,
      "ast": 432,
      "able": 433,
      "end": 434,
      "ec": 435,
      "Ġinc": 436,
      "Ġwhe": 437,
      "Ġyour": 438,
      "Ġ2": 439,
      "Ġab": 440,
      "ff": 441,
      "Ġwor": 442,
      "ign": 443,
      "ru": 444,
      "ated": 445,
      "ome": 446,
      "Ġnot": 447,
      "du": 448,
      "Ġwas": 449,
      "vel": 450,
      "ide": 451,
      "ong": 452,
      "Ġ\"": 453,
      "ould": 454,
      "Ġall": 455,
      "ual": 456,
      "ĠO": 457,
      "Ġapp": 458,
      "Ġimp": 459,
      "Ġhave": 460,
      "ap": 461,
      "ating": 462,
      "form": 463,
      "Ġdis": 464,
      "ie": 465,
      "ile": 466,
      "ult": 467,
      "ence": 468,
      "ich": 469,
      "ional": 470,
      "Ġtr": 471,
      "ell": 472,
      "Ġun": 473,
      "ks": 474,
      "Ġte": 475,
      "ments": 476,
      "ces": 477,
      "ire": 478,
      "ĠU": 479,
      "ĠTh": 480,
      "ep": 481,
      "Ġj": 482,
      "ĊĠĠĠĠ": 483,
      "ents": 484,
      "Ġthey": 485,
      "ach": 486,
      "Ġcl": 487,
      "00": 488,
      "ue": 489,
      "ary": 490,
      "Ġman": 491,
      "Ġper": 492,
      "ress": 493,
      "ind": 494,
      "Ġme": 495,
      "Ġem": 496,
      "av": 497,
      "ry": 498,
      "Ġcomm": 499,
      "ĠJ": 500,
      "dit": 501,
      "ear": 502,
      "ors": 503,
      "ia": 504,
      "ike": 505,
      "ities": 506,
      "Ġev": 507,
      "Ġcons": 508,
      "Ġk": 509,
      "ail": 510,
      "ility": 511,
      "ction": 512,
      "Ġpre": 513,
      "ase": 514,
      "Ġout": 515,
      "ose": 516,
      "ice": 517,
      "ĠâĢ": 518,
      "Ġind": 519,
      "ĠIn": 520,
      "Ġwhich": 521,
      "The": 522,
      "Ġsc": 523,
      "Ġhas": 524,
      "Ġmore": 525,
      "nder": 526,
      "rough": 527,
      "Ġgo": 528,
      "Ġar": 529,
      "Ġup": 530,
      "Ġinto": 531,
      "ime": 532,
      "ass": 533,
      "ater": 534,
      "Ġdo": 535,
      "ific": 536,
      "ake": 537,
      "Ġother": 538,
      "Ġits": 539,
      "Ġwill": 540,
      "Ġpr": 541,
      "uring": 542,
      "ens": 543,
      "ack": 544,
      "ace": 545,
      "Ġtra": 546,
      "Ġrec": 547,
      "Ġoff": 548,
      "Ġpart": 549,
      "Ġprov": 550,
      "Ġacc": 551,
      "ates": 552,
      "Ġthese": 553,
      "ak": 554,
      "oo": 555,
      "ious": 556,
      "one": 557,
      "erv": 558,
      "Ġso": 559,
      "Ġbut": 560,
      "ons": 561,
      "Ġover": 562,
      "Ġqu": 563,
      "Ġro": 564,
      "ĊĠĠĠ": 565,
      "Ġone": 566,
      "ite": 567,
      "ame": 568,
      "Ġabout": 569,
      "Ġcre": 570,
      "ord": 571,
      "so": 572,
      "Ġrel": 573,
      "Ġthem": 574,
      "âĢĻ": 575,
      "Ġdes": 576,
      "ful": 577,
      "Ġif": 578,
      "ne": 579,
      "Ġbet": 580,
      "Ġsuch": 581,
      "les": 582,
      "Ġfe": 583,
      "ild": 584,
      "Ġlike": 585,
      "ub": 586,
      "low": 587,
      "Ġinv": 588,
      "Ġhis": 589,
      "Ġunder": 590,
      "ri": 591,
      "cess": 592,
      "very": 593,
      "pect": 594,
      "ory": 595,
      "ings": 596,
      "olog": 597,
      "ential": 598,
      "Ġinter": 599,
      "lic": 600,
      "ount": 601,
      "Ġwho": 602,
      "now": 603,
      "Ġsy": 604,
      "we": 605,
      "Ġthrough": 606,
      "ond": 607,
      "ĠSt": 608,
      "--------": 609,
      "ures": 610,
      "Ġwhen": 611,
      "ning": 612,
      "fere": 613,
      "ound": 614,
      "vers": 615,
      "lud": 616,
      "Ġstr": 617,
      "Ġag": 618,
      "ative": 619,
      "ract": 620,
      "ang": 621,
      "lect": 622,
      "Ġthere": 623,
      "ĠThis": 624,
      "Ġam": 625,
      "ish": 626,
      "Ġsome": 627,
      "Ġcol": 628,
      "ms": 629,
      "Ġalso": 630,
      "ber": 631,
      "ays": 632,
      "Ġreg": 633,
      "Ġthan": 634,
      "ough": 635,
      "ics": 636,
      "ular": 637,
      "Ġmay": 638,
      "Ġrep": 639,
      "ark": 640,
      "tain": 641,
      "oth": 642,
      "velop": 643,
      "Ġhow": 644,
      "Ġact": 645,
      ").": 646,
      "ased": 647,
      "anc": 648,
      "Ġtime": 649,
      "ple": 650,
      "Ġ-": 651,
      "row": 652,
      "ĠK": 653,
      "rit": 654,
      "Ġinclud": 655,
      "Ġbec": 656,
      "Ġeff": 657,
      "ood": 658,
      "Ġexper": 659,
      "int": 660,
      "Ġnew": 661,
      "ph": 662,
      "Ġrem": 663,
      "Ġour": 664,
      "ree": 665,
      "ĠCh": 666,
      "Ġsa": 667,
      "Ġinst": 668,
      "ov": 669,
      "Ġwere": 670,
      "Ġtrans": 671,
      "In": 672,
      "round": 673,
      "Ġspec": 674,
      "Ġdif": 675,
      "enc": 676,
      "Ġpos": 677,
      "chn": 678,
      "..": 679,
      "Ġany": 680,
      "pport": 681,
      "Ġac": 682,
      "ys": 683,
      "Ġass": 684,
      "ices": 685,
      "ient": 686,
      "reat": 687,
      "stem": 688,
      "ise": 689,
      "ll": 690,
      "'t": 691,
      "irst": 692,
      "au": 693,
      "ational": 694,
      "Ġpe": 695,
      "ns": 696,
      "ting": 697,
      "ob": 698,
      "Ġsign": 699,
      "alth": 700,
      "ĠV": 701,
      "Ġ19": 702,
      "Ġneed": 703,
      "rib": 704,
      "ower": 705,
      "Ġra": 706,
      "Ġdevelop": 707,
      "ween": 708,
      "yp": 709,
      "ject": 710,
      "Ġstud": 711,
      "ally": 712,
      "Ġatt": 713,
      "Ġco": 714,
      "Ġdec": 715,
      "ian": 716,
      "Ġknow": 717,
      "Ġprodu": 718,
      "ric": 719,
      "Ġbetween": 720,
      "sel": 721,
      "hed": 722,
      "Ġwhat": 723,
      "ren": 724,
      "ience": 725,
      "old": 726,
      "Ġgen": 727,
      "Ġwhile": 728,
      "ĠIt": 729,
      "Ġhigh": 730,
      "oy": 731,
      "Ġvar": 732,
      "Ġbeen": 733,
      "ible": 734,
      "hip": 735,
      "eg": 736,
      "Ġtechn": 737,
      "ues": 738,
      "Ġval": 739,
      "aking": 740,
      "Ġrequ": 741,
      "ward": 742,
      "xt": 743,
      "ove": 744,
      "Ġph": 745,
      "iqu": 746,
      "Ġprovid": 747,
      "Ġdisc": 748,
      "ef": 749,
      "its": 750,
      "Ġhel": 751,
      "Ġyear": 752,
      "ever": 753,
      "Ġcommun": 754,
      "ness": 755,
      "ize": 756,
      "Ġbl": 757,
      "Ġexpl": 758,
      "Ġpers": 759,
      "ten": 760,
      "),": 761,
      "ss": 762,
      "Ġconc": 763,
      "Ġins": 764,
      "Ġwould": 765,
      "gan": 766,
      "Ġhelp": 767,
      "Ġtw": 768,
      "te": 769,
      "mer": 770,
      "eth": 771,
      "Ġ3": 772,
      "ook": 773,
      "Ġwork": 774,
      "ives": 775,
      "hes": 776,
      "Ġdiffere": 777,
      "ditional": 778,
      "ata": 779,
      "Ġno": 780,
      "Ġent": 781,
      "ck": 782,
      "Ġsystem": 783,
      "Ġmod": 784,
      "Ġpat": 785,
      "Ġdet": 786,
      "ivid": 787,
      "Ġpol": 788,
      "ider": 789,
      "ition": 790,
      "ople": 791,
      "Ġwhere": 792,
      "Ġexp": 793,
      "ĠY": 794,
      "Ġexam": 795,
      "erm": 796,
      "als": 797,
      "Ġadd": 798,
      "stand": 799,
      "Ġsur": 800,
      "Ġpo": 801,
      "Ġserv": 802,
      "iss": 803,
      "ines": 804,
      "ically": 805,
      "Ġob": 806,
      "get": 807,
      "Ġappro": 808,
      "ident": 809,
      "Ġext": 810,
      "fter": 811,
      "Ġprocess": 812,
      "Ġhad": 813,
      "Ġpres": 814,
      "ft": 815,
      "Ġens": 816,
      "ew": 817,
      "Ġbu": 818,
      "Ġhand": 819,
      "Ġboth": 820,
      "Ġset": 821,
      "Ġcould": 822,
      "Ġher": 823,
      "Ġuse": 824,
      "Ġ20": 825,
      "ram": 826,
      "Ġhealth": 827,
      "Ġ=": 828,
      "Ġjust": 829,
      "Ġduring": 830,
      "Ġmain": 831,
      "Ġpot": 832,
      "ĠBy": 833,
      "Ġdi": 834,
      "Ġke": 835,
      "ability": 836,
      "other": 837,
      "Ġlead": 838,
      "hen": 839,
      "Ġfun": 840,
      "oci": 841,
      "ĊĠĠĠĠĠĠĠ": 842,
      "Ġfl": 843,
      "erg": 844,
      "Ġinf": 845,
      "Ġinform": 846,
      "Ġmed": 847,
      "red": 848,
      "ĊĠĠĠĠĠĠĠĠ": 849,
      "aw": 850,
      "ange": 851,
      "ividual": 852,
      "ateg": 853,
      "ĠâĢĵ": 854,
      "âĢĿ": 855,
      "olv": 856,
      "Ġsub": 857,
      "Ġpeople": 858,
      "Ġfirst": 859,
      "Ġadv": 860,
      "ĠFor": 861,
      "iness": 862,
      "Ġeng": 863,
      "Ġpartic": 864,
      "Ġonly": 865,
      "Ġmost": 866,
      "Ġallow": 867,
      "ered": 868,
      "ribut": 869,
      "own": 870,
      "Ġprog": 871,
      "Ġthose": 872,
      "Ġindividual": 873,
      "Ġtwo": 874,
      "ering": 875,
      "Ġloc": 876,
      "ĠAs": 877,
      "ied": 878,
      "arch": 879,
      "urn": 880,
      "fore": 881,
      "Ġsee": 882,
      "Ġsec": 883,
      "Ġsim": 884,
      "Ġeffect": 885,
      "Ġincre": 886,
      "Ġmany": 887,
      "Ġwithin": 888,
      "ized": 889,
      "ruct": 890,
      "led": 891,
      "Ġpotential": 892,
      ".\"": 893,
      "uc": 894,
      "ick": 895,
      "ily": 896,
      "Ġdesign": 897,
      "Ġdifferent": 898,
      "Ġprom": 899,
      "ble": 900,
      "ause": 901,
      "tern": 902,
      "Ġeven": 903,
      "ology": 904,
      "ict": 905,
      "Ġref": 906,
      "ights": 907,
      "ital": 908,
      "cept": 909,
      "over": 910,
      "eng": 911,
      "Ġsignific": 912,
      "iew": 913,
      "ature": 914,
      "Ġdata": 915,
      "Ġevery": 916,
      "Ġcare": 917,
      "lus": 918,
      "Ġopt": 919,
      "com": 920,
      "Ġimport": 921,
      "ced": 922,
      "uch": 923,
      "Ġnum": 924,
      "Ġsm": 925,
      "wn": 926,
      "ages": 927,
      "Ġresp": 928,
      "Ġperson": 929,
      "Ġworld": 930,
      "ĠPro": 931,
      "Ġwell": 932,
      "Ġeach": 933,
      "ĠWh": 934,
      "Ġlong": 935,
      "ather": 936,
      "Ġed": 937,
      "Ġret": 938,
      "ĠUn": 939,
      "Ġdem": 940,
      "ccess": 941,
      "Ġmake": 942,
      "Ġdef": 943,
      "ety": 944,
      "Ġsk": 945,
      "Ġear": 946,
      "Ġtyp": 947,
      "Ġorgan": 948,
      "Ġmin": 949,
      "Ġ'": 950,
      "Ġprof": 951,
      "arket": 952,
      "Ġplay": 953,
      "ont": 954,
      "ife": 955,
      "ately": 956,
      "Ġcomple": 957,
      "ural": 958,
      "Ġaut": 959,
      "Ġpract": 960,
      "ollow": 961,
      "Ġform": 962,
      "Ġthen": 963,
      "Ġdist": 964,
      "Ġstate": 965,
      "urther": 966,
      "Ġlevel": 967,
      "Ġshould": 968,
      "ĠHe": 969,
      "ĠâĢľ": 970,
      "Ġfin": 971,
      "Ġget": 972,
      "Ġfact": 973,
      "ists": 974,
      "Ġused": 975,
      "ath": 976,
      "Ġunderstand": 977,
      "ĠAd": 978,
      "ade": 979,
      "ision": 980,
      "Ġav": 981,
      "vent": 982,
      "ining": 983,
      "ases": 984,
      "ng": 985,
      "**": 986,
      "Ġback": 987,
      "arm": 988,
      "less": 989,
      "Ġcur": 990,
      "ection": 991,
      "olut": 992,
      "Ġconsider": 993,
      "ublic": 994,
      "ink": 995,
      "Ġgener": 996,
      "omm": 997,
      "Ġend": 998,
      "ĠHow": 999,
      "ĊĊ": 1000,
      "Ġ4": 1001,
      "ross": 1002,
      "Ġart": 1003,
      "ling": 1004,
      "``": 1005,
      "Ġgrow": 1006,
      "Ġche": 1007,
      "Ġvarious": 1008,
      "Ġ200": 1009,
      "Ġgu": 1010,
      "ality": 1011,
      "Ġcontro": 1012,
      "por": 1013,
      "Ġhum": 1014,
      "ior": 1015,
      "ax": 1016,
      "Ġbus": 1017,
      "Ġpower": 1018,
      "oun": 1019,
      "ien": 1020,
      "Ġmight": 1021,
      "izing": 1022,
      "line": 1023,
      "ency": 1024,
      "Ġmy": 1025,
      "gg": 1026,
      "iron": 1027,
      "Ġagain": 1028,
      "ands": 1029,
      "Ġsignificant": 1030,
      "ify": 1031,
      "Ġdep": 1032,
      "Ġcontin": 1033,
      "Ġperform": 1034,
      "ty": 1035,
      "Ġdel": 1036,
      "Ġafter": 1037,
      "Ġstrateg": 1038,
      "con": 1039,
      "Ġcle": 1040,
      "ps": 1041,
      "Ġway": 1042,
      "Ġrese": 1043,
      "ants": 1044,
      "self": 1045,
      "Ġyears": 1046,
      "ited": 1047,
      "itive": 1048,
      "Ġoften": 1049,
      "Ġlear": 1050,
      "ern": 1051,
      "ism": 1052,
      "Ġchall": 1053,
      "Ġincluding": 1054,
      "Ġfollow": 1055,
      "Ġchild": 1056,
      "Ġmem": 1057,
      "ization": 1058,
      "Ġsuccess": 1059,
      "Ġconf": 1060,
      "ool": 1061,
      "Ġca": 1062,
      "Ġusing": 1063,
      "put": 1064,
      "Ġposs": 1065,
      "ared": 1066,
      "iving": 1067,
      "ĠThese": 1068,
      "Ġmarket": 1069,
      "Ġdoes": 1070,
      "wor": 1071,
      "Ġproduct": 1072,
      "Ġser": 1073,
      "Ġown": 1074,
      "ins": 1075,
      "Ġinformation": 1076,
      "Ġ5": 1077,
      "Ġbased": 1078,
      "Ġsupport": 1079,
      "Ġshe": 1080,
      "Ġlet": 1081,
      "Ġgl": 1082,
      "ually": 1083,
      "Ġimpro": 1084,
      "Ġbusiness": 1085,
      "viron": 1086,
      "Ġvis": 1087,
      "ique": 1088,
      "iel": 1089,
      "Ġgra": 1090,
      "Ġfound": 1091,
      "ustom": 1092,
      "Ġbr": 1093,
      "Ġconst": 1094,
      "Ġredu": 1095,
      "Ġben": 1096,
      "ocus": 1097,
      "agement": 1098,
      "Ġop": 1099,
      "Ġbefore": 1100,
      "ibility": 1101,
      "Ġcount": 1102,
      "rent": 1103,
      "imes": 1104,
      "Ġcall": 1105,
      "Ġfind": 1106,
      "ources": 1107,
      "ances": 1108,
      "Ġchar": 1109,
      "ash": 1110,
      "Ġmon": 1111,
      "Ġbeing": 1112,
      "ex": 1113,
      "Ġrequire": 1114,
      "Ġprot": 1115,
      "irect": 1116,
      "ocial": 1117,
      "Ġest": 1118,
      "Ġaccess": 1119,
      "Ġris": 1120,
      "lement": 1121,
      "cial": 1122,
      "Ġfac": 1123,
      "Ġcent": 1124,
      "Ġfam": 1125,
      "Ġamong": 1126,
      "ĠAn": 1127,
      "Ġcap": 1128,
      "Ġiss": 1129,
      "Ġbeh": 1130,
      "aging": 1131,
      "Ġinvolv": 1132,
      "ted": 1133,
      "Ġess": 1134,
      "Ġmust": 1135,
      "Ġpop": 1136,
      "Ġcor": 1137,
      "Ġaround": 1138,
      "ently": 1139,
      "Ġlar": 1140,
      "ĠAl": 1141,
      "Ġ201": 1142,
      "Ġcar": 1143,
      "akes": 1144,
      "Ġequ": 1145,
      "Ġcult": 1146,
      "meric": 1147,
      "Ġel": 1148,
      "//": 1149,
      "Ġpar": 1150,
      "Ġwater": 1151,
      "any": 1152,
      "----------------": 1153,
      "Ġ{": 1154,
      "Th": 1155,
      "Ġexample": 1156,
      "ield": 1157,
      "Ġinvest": 1158,
      "Ġtake": 1159,
      "Ġhim": 1160,
      "Ġremain": 1161,
      "Ġfocus": 1162,
      "day": 1163,
      "ock": 1164,
      "iven": 1165,
      "uss": 1166,
      "ploy": 1167,
      "air": 1168,
      "ĠIf": 1169,
      "ead": 1170,
      "esp": 1171,
      "pportun": 1172,
      "Ġcontrol": 1173,
      "Ġdown": 1174,
      "ication": 1175,
      "ven": 1176,
      "Ġconn": 1177,
      "ier": 1178,
      "cing": 1179,
      "wards": 1180,
      "els": 1181,
      "Ġsaf": 1182,
      "und": 1183,
      "ware": 1184,
      "Ġoper": 1185,
      "Ġenviron": 1186,
      "Ġcontribut": 1187,
      "Ġmaintain": 1188,
      "ertain": 1189,
      "Ġident": 1190,
      "Ġcondit": 1191,
      "Ġenc": 1192,
      "the": 1193,
      "ĠHowever": 1194,
      "ivity": 1195,
      "ving": 1196,
      "io": 1197,
      "abor": 1198,
      "Ġhist": 1199,
      "Ġcustom": 1200,
      "St": 1201,
      "Ġprovide": 1202,
      "ĠWe": 1203,
      "erest": 1204,
      "read": 1205,
      "Ġmat": 1206,
      "Ġopportun": 1207,
      "ined": 1208,
      "ination": 1209,
      "ner": 1210,
      "Ġbenef": 1211,
      "ention": 1212,
      "Ġmuch": 1213,
      "up": 1214,
      "tle": 1215,
      "Ġpur": 1216,
      "Ġdevelopment": 1217,
      "rip": 1218,
      "ilities": 1219,
      "Ġchalleng": 1220,
      "Ġmet": 1221,
      "itut": 1222,
      "Ġshow": 1223,
      "Ġsaid": 1224,
      "to": 1225,
      "Ġsever": 1226,
      "Ġpublic": 1227,
      "Ġanal": 1228,
      "str": 1229,
      "Ġstand": 1230,
      "Ġ&": 1231,
      "ars": 1232,
      "ode": 1233,
      "ĊĠ": 1234,
      "âĢĶ": 1235,
      "ets": 1236,
      "ince": 1237,
      "Ġ`": 1238,
      "Ġmult": 1239,
      "ĠAmeric": 1240,
      "ense": 1241,
      "ix": 1242,
      "Ġuser": 1243,
      "ĠCon": 1244,
      "Ġreal": 1245,
      "Ġresult": 1246,
      "Ġlife": 1247,
      "lusion": 1248,
      "Ġeduc": 1249,
      "Ġgover": 1250,
      "Ġdue": 1251,
      "ivers": 1252,
      "ves": 1253,
      "Ġpass": 1254,
      "Ġbuild": 1255,
      "pr": 1256,
      "ording": 1257,
      "Ġessential": 1258,
      "Ġread": 1259,
      "Ġenh": 1260,
      "rop": 1261,
      "Ġplan": 1262,
      "chool": 1263,
      "Ġmade": 1264,
      "Ġdr": 1265,
      "nce": 1266,
      "oring": 1267,
      "Ġbecause": 1268,
      "essional": 1269,
      "Ġbel": 1270,
      "ished": 1271,
      "ively": 1272,
      "ients": 1273,
      "Ġsom": 1274,
      "Ġparticular": 1275,
      "Ġthough": 1276,
      "Ġagainst": 1277,
      "Ġrepres": 1278,
      "ason": 1279,
      "bers": 1280,
      "me": 1281,
      "par": 1282,
      "oss": 1283,
      "Ġimportant": 1284,
      ");": 1285,
      "Ġseveral": 1286,
      "Ġaspect": 1287,
      "...": 1288,
      "ĠEx": 1289,
      "Ġanother": 1290,
      "Ġrelations": 1291,
      "ration": 1292,
      "Ġproper": 1293,
      "ale": 1294,
      "cy": 1295,
      "Ġtoo": 1296,
      "Ġfost": 1297,
      "Ġ$": 1298,
      "ody": 1299,
      "Ġrole": 1300,
      ",\"": 1301,
      "Ġexperience": 1302,
      "Ġ6": 1303,
      "Ġbo": 1304,
      "Ġgood": 1305,
      "Ġcru": 1306,
      "asing": 1307,
      "Ġteam": 1308,
      "Ġcho": 1309,
      "Ġnow": 1310,
      "aterial": 1311,
      "Ġdirect": 1312,
      "ĠThey": 1313,
      "ories": 1314,
      "ee": 1315,
      "Ġsocial": 1316,
      "Ġsw": 1317,
      "Ġunique": 1318,
      "Ġkey": 1319,
      "Ġwhether": 1320,
      "Ġrespons": 1321,
      "Ġgrou": 1322,
      "ote": 1323,
      "Ġele": 1324,
      "Ġleg": 1325,
      "Ġapplic": 1326,
      "Ġacross": 1327,
      "Ġfunction": 1328,
      "inc": 1329,
      "ethod": 1330,
      "Ġinterest": 1331,
      "Ġaddress": 1332,
      ".,": 1333,
      "Ġopen": 1334,
      "Ġresearch": 1335,
      "Ġgovern": 1336,
      "ium": 1337,
      "Ġcour": 1338,
      "Ġhuman": 1339,
      "amp": 1340,
      "Ġsame": 1341,
      "Ġrele": 1342,
      "ergy": 1343,
      "ending": 1344,
      "ĠBut": 1345,
      "Ġbre": 1346,
      "ĠAr": 1347,
      "Ġvalue": 1348,
      "ipp": 1349,
      "Ġquest": 1350,
      "abl": 1351,
      "ral": 1352,
      "ills": 1353,
      "Ġless": 1354,
      "Ġcase": 1355,
      "Ġbra": 1356,
      "ĠSp": 1357,
      "Ġtre": 1358,
      "Ġtool": 1359,
      "Ġbetter": 1360,
      "Ġgre": 1361,
      "Ġdon": 1362,
      "'re": 1363,
      "ript": 1364,
      "Ġdid": 1365,
      "ĠWith": 1366,
      "Ġ18": 1367,
      "Ġindividuals": 1368,
      "ĠAnd": 1369,
      "ogn": 1370,
      "Ġimm": 1371,
      "Ġimpact": 1372,
      "Ġcrucial": 1373,
      "bs": 1374,
      "ave": 1375,
      "Ġocc": 1376,
      "Ġinclude": 1377,
      "verse": 1378,
      "Ġright": 1379,
      "Ġvery": 1380,
      "Ġcrit": 1381,
      "Ġmaterial": 1382,
      "Ġsmall": 1383,
      "orm": 1384,
      "Ġsit": 1385,
      "Ġcreate": 1386,
      "Ġnecess": 1387,
      "Ġlaw": 1388,
      "Ġmean": 1389,
      "Ġstill": 1390,
      "Ġindust": 1391,
      "oid": 1392,
      "Ġdev": 1393,
      "Ġproble": 1394,
      "Ġaff": 1395,
      "iting": 1396,
      "ults": 1397,
      "ogra": 1398,
      "Ġemploy": 1399,
      "Ġstudents": 1400,
      "Ġenvironment": 1401,
      "ditionally": 1402,
      "ery": 1403,
      "way": 1404,
      "Ġmethod": 1405,
      "Ġtop": 1406,
      "Ġassoci": 1407,
      "ĠSc": 1408,
      "Ġcost": 1409,
      "Ġchang": 1410,
      "Ġfurther": 1411,
      "Ġtreat": 1412,
      "olution": 1413,
      "rist": 1414,
      "lu": 1415,
      "Ġtru": 1416,
      "Ġful": 1417,
      "atform": 1418,
      "ĊĠĠĠĠĠĠĠĠĠĠĠ": 1419,
      "inal": 1420,
      "Ġmus": 1421,
      "Ġwithout": 1422,
      "Ġphys": 1423,
      "Ġimplement": 1424,
      "Ġtest": 1425,
      "Ġrest": 1426,
      "Ġgrowth": 1427,
      "Ġlit": 1428,
      "ored": 1429,
      "Ġide": 1430,
      "Ġlook": 1431,
      "rodu": 1432,
      "Ġregard": 1433,
      "ilar": 1434,
      "view": 1435,
      "Ġclass": 1436,
      "ially": 1437,
      "lt": 1438,
      "Ġelect": 1439,
      "Ġrelationship": 1440,
      "oh": 1441,
      "Ġtem": 1442,
      "Ġtowards": 1443,
      "ĠInd": 1444,
      "Ġinn": 1445,
      "Ġinit": 1446,
      "Ġspecific": 1447,
      "Ġstart": 1448,
      "Ġbro": 1449,
      "Ġlim": 1450,
      "Ġprogram": 1451,
      "Ġpersonal": 1452,
      "ury": 1453,
      "der": 1454,
      "Ġoverall": 1455,
      "elf": 1456,
      "Ġproject": 1457,
      "acter": 1458,
      "acy": 1459,
      "Ġcoll": 1460,
      "Ġemb": 1461,
      "ental": 1462,
      "ĠRe": 1463,
      "Ġ}": 1464,
      "Ġalong": 1465,
      "Ġavail": 1466,
      "Ġprofessional": 1467,
      "Ġoffer": 1468,
      "imately": 1469,
      "ends": 1470,
      "ĠNew": 1471,
      "Ġday": 1472,
      "oot": 1473,
      "Ġ7": 1474,
      "ulation": 1475,
      "Ġensure": 1476,
      "Ġlocal": 1477,
      "ries": 1478,
      "Ġseem": 1479,
      "atic": 1480,
      "ĠTo": 1481,
      "ved": 1482,
      "Ġdeterm": 1483,
      "Ġstudy": 1484,
      "Ġcommon": 1485,
      "Ġinteg": 1486,
      "Ġresources": 1487,
      "Ġmeas": 1488,
      "ah": 1489,
      "Ġthree": 1490,
      "ires": 1491,
      "ert": 1492,
      "omen": 1493,
      "Ġhome": 1494,
      "19": 1495,
      "Ġrun": 1496,
      "oura": 1497,
      "ards": 1498,
      "oreover": 1499,
      "ĠWhen": 1500,
      "ĠDe": 1501,
      "Ġpresent": 1502,
      "Ġunderstanding": 1503,
      "ron": 1504,
      "Ġbecome": 1505,
      "Ġconnect": 1506,
      "Ġneeds": 1507,
      "atures": 1508,
      "Ġsupp": 1509,
      "Ġcompet": 1510,
      "Ġwant": 1511,
      "Ġcurrent": 1512,
      "Ġbest": 1513,
      "ĠWhile": 1514,
      "Ġconditions": 1515,
      "Ġnumber": 1516,
      "Ġsystems": 1517,
      "Ġreturn": 1518,
      "ey": 1519,
      "eed": 1520,
      "Ġoffers": 1521,
      "Ġdiscuss": 1522,
      "Ġapproach": 1523,
      "ners": 1524,
      "Ġintern": 1525,
      "conom": 1526,
      "Ġcertain": 1527,
      "Ġusers": 1528,
      "ape": 1529,
      "ole": 1530,
      "ified": 1531,
      "ĠĠĠĠĠĠĠĠ": 1532,
      "Ġplatform": 1533,
      "uture": 1534,
      "Ġestabl": 1535,
      "Ġgr": 1536,
      "Ġstruct": 1537,
      "Ġpolic": 1538,
      "000": 1539,
      "pos": 1540,
      "fact": 1541,
      "Ġcr": 1542,
      "ians": 1543,
      "idence": 1544,
      "iver": 1545,
      "apt": 1546,
      "Ġclear": 1547,
      "Ġchallenges": 1548,
      "ĠCom": 1549,
      "Ġthroughout": 1550,
      "Ġ0": 1551,
      "land": 1552,
      "Ġ10": 1553,
      "Ġcell": 1554,
      "ffor": 1555,
      "urity": 1556,
      "ĠAt": 1557,
      "ograph": 1558,
      "Ġpolit": 1559,
      "Ġpossible": 1560,
      "iences": 1561,
      "ables": 1562,
      "de": 1563,
      "etwor": 1564,
      "Wh": 1565,
      "by": 1566,
      "ints": 1567,
      "ilit": 1568,
      "Ġschool": 1569,
      "ouse": 1570,
      "Ġopportunities": 1571,
      "ological": 1572,
      "iple": 1573,
      "Ġeas": 1574,
      "20": 1575,
      "ledge": 1576,
      "Ġfil": 1577,
      "Ġlow": 1578,
      "Ġ//": 1579,
      "Ġothers": 1580,
      "Ġspecial": 1581,
      "hor": 1582,
      "Ġchildren": 1583,
      "port": 1584,
      "Ġstep": 1585,
      "Ġcommunity": 1586,
      "cent": 1587,
      "Ġcomb": 1588,
      "Ġwhy": 1589,
      "Ġhere": 1590,
      "Ġmar": 1591,
      "Ġconsum": 1592,
      "Ġchange": 1593,
      "Ġenergy": 1594,
      "aj": 1595,
      "Ġplace": 1596,
      "An": 1597,
      "Ġlarge": 1598,
      "Ġissues": 1599,
      "ank": 1600,
      "atives": 1601,
      "orpor": 1602,
      "Ġobject": 1603,
      "Ġcommit": 1604,
      "rap": 1605,
      "aring": 1606,
      "Ġwrit": 1607,
      "ource": 1608,
      "Ġflow": 1609,
      "Ġinnov": 1610,
      "Ġeffic": 1611,
      "Ġtechnology": 1612,
      "Ġdig": 1613,
      "Ġve": 1614,
      "ething": 1615,
      "ames": 1616,
      "Ġlight": 1617,
      "Ġter": 1618,
      "Ġmess": 1619,
      "Ġbelie": 1620,
      "Ġview": 1621,
      "gin": 1622,
      "ret": 1623,
      "irc": 1624,
      "Ġproviding": 1625,
      "Ġcal": 1626,
      "```": 1627,
      "Ġfood": 1628,
      "Ġrisk": 1629,
      "This": 1630,
      "ission": 1631,
      "ĠChrist": 1632,
      "Ġservices": 1633,
      "hers": 1634,
      "Ġfuture": 1635,
      "ĠSh": 1636,
      "Ġfollowing": 1637,
      "ways": 1638,
      "Ġconclusion": 1639,
      "Ġlevels": 1640,
      "ik": 1641,
      "ooking": 1642,
      "ann": 1643,
      "ane": 1644,
      "Ġpost": 1645,
      "To": 1646,
      "Ġgreat": 1647,
      "Ġkeep": 1648,
      "ream": 1649,
      "Ġ8": 1650,
      "Ġlo": 1651,
      "ĠYou": 1652,
      "Ġcomplex": 1653,
      "ds": 1654,
      "(\"": 1655,
      "ived": 1656,
      "itch": 1657,
      "Ġperformance": 1658,
      "ĠOne": 1659,
      "Ġfactors": 1660,
      "Ġsince": 1661,
      "selves": 1662,
      "Ġensuring": 1663,
      "Ġcontain": 1664,
      "As": 1665,
      "br": 1666,
      "chie": 1667,
      "Ġimprove": 1668,
      "Ġmove": 1669,
      "iod": 1670,
      "Ġdetail": 1671,
      "Ġavailable": 1672,
      "more": 1673,
      "Ġknown": 1674,
      "Ġrepresent": 1675,
      "Ġ<": 1676,
      "Ġorganiz": 1677,
      "ĠEn": 1678,
      "Ġpractices": 1679,
      "Ġsomething": 1680,
      "ators": 1681,
      "Ġexist": 1682,
      "Ġlist": 1683,
      "Ġstrong": 1684,
      "ĠSo": 1685,
      "istic": 1686,
      "Ġfeel": 1687,
      "Ġinstance": 1688,
      "Ġmanagement": 1689,
      "anced": 1690,
      "Ġtal": 1691,
      "ising": 1692,
      "let": 1693,
      "Ġfunct": 1694,
      "ĠThere": 1695,
      "Ġstrategies": 1696,
      "light": 1697,
      "lying": 1698,
      "Ġeconom": 1699,
      "Ġlast": 1700,
      "Ġsol": 1701,
      "Ġfield": 1702,
      "fully": 1703,
      "onstr": 1704,
      "ats": 1705,
      "Ġpress": 1706,
      "aren": 1707,
      "Ġpriv": 1708,
      "ember": 1709,
      "ĠIm": 1710,
      "Ġexplore": 1711,
      "Ġcomes": 1712,
      "atch": 1713,
      "az": 1714,
      "ug": 1715,
      "ĊĊĠĠĠ": 1716,
      "Ġlearning": 1717,
      "Ġ9": 1718,
      "be": 1719,
      "cul": 1720,
      "Ġvari": 1721,
      "Ġfre": 1722,
      "Ġassociated": 1723,
      "ffic": 1724,
      "Ġexc": 1725,
      "here": 1726,
      "Ġhig": 1727,
      "Ġminim": 1728,
      "Ġpoint": 1729,
      "Ġant": 1730,
      "Ġfew": 1731,
      "Ġcalled": 1732,
      "mb": 1733,
      "Ġdra": 1734,
      "Ġtimes": 1735,
      "Ġdesc": 1736,
      "Ġreport": 1737,
      "ĠGod": 1738,
      "of": 1739,
      "Ġcompon": 1740,
      "Ġmaking": 1741,
      "Ġrece": 1742,
      "Ġhy": 1743,
      "Ġgovernment": 1744,
      "Ġunt": 1745,
      "Ġdecision": 1746,
      "ĠAdditionally": 1747,
      "Ġelse": 1748,
      "orn": 1749,
      "Ġdemonstr": 1750,
      "Ġtoday": 1751,
      "Ġareas": 1752,
      "side": 1753,
      "Ġname": 1754,
      "ended": 1755,
      "Ġcaus": 1756,
      "Ġthink": 1757,
      "Ġcome": 1758,
      "Ġconsist": 1759,
      "Ġachie": 1760,
      "app": 1761,
      "Ġ[": 1762,
      "Ġet": 1763,
      "Ġallows": 1764,
      "plic": 1765,
      "ĠIs": 1766,
      "ging": 1767,
      "Ġbody": 1768,
      "ĠCl": 1769,
      "orts": 1770,
      "iversity": 1771,
      "eral": 1772,
      "Ġrecogn": 1773,
      "reme": 1774,
      "arget": 1775,
      "Ġinflu": 1776,
      "ument": 1777,
      "Ġactiv": 1778,
      "Ġgain": 1779,
      "Ġfinanc": 1780,
      "Ġcollabor": 1781,
      "Ġcontinu": 1782,
      "min": 1783,
      "yn": 1784,
      "Ġbey": 1785,
      "Ġbeyond": 1786,
      "iques": 1787,
      "iate": 1788,
      "ĠCol": 1789,
      "Ġsugg": 1790,
      "ired": 1791,
      "Ġ#": 1792,
      "Ġaim": 1793,
      "oms": 1794,
      "10": 1795,
      "Ġbenefits": 1796,
      "sequ": 1797,
      "Ġonline": 1798,
      "Ġknowledge": 1799,
      "ises": 1800,
      "Ġconcer": 1801,
      "ext": 1802,
      "Ġsoci": 1803,
      "pro": 1804,
      "outh": 1805,
      "Ġnetwor": 1806,
      "ger": 1807,
      "Ġprovides": 1808,
      "Ġill": 1809,
      "Ġearly": 1810,
      "agn": 1811,
      "Ġeducation": 1812,
      "isc": 1813,
      "ĠCons": 1814,
      "Ġparticip": 1815,
      "ysis": 1816,
      "osp": 1817,
      "omes": 1818,
      "Ġrather": 1819,
      "||": 1820,
      "Ġprevent": 1821,
      "Ġtools": 1822,
      "Ġmeans": 1823,
      "aces": 1824,
      "ests": 1825,
      "Ġcommunication": 1826,
      "Ġmembers": 1827,
      "hing": 1828,
      "ĠQ": 1829,
      "hold": 1830,
      "Ġtrust": 1831,
      "atural": 1832,
      "ney": 1833,
      "Ġer": 1834,
      "Ġresults": 1835,
      "ork": 1836,
      "Ġvers": 1837,
      "aps": 1838,
      "ring": 1839,
      "ured": 1840,
      "Ġskills": 1841,
      "Ġpay": 1842,
      "Ġnon": 1843,
      "Ġdise": 1844,
      "aut": 1845,
      "imate": 1846,
      "Ġdeep": 1847,
      "Ġaud": 1848,
      "sc": 1849,
      "Ġinput": 1850,
      "Ġprotect": 1851,
      "ray": 1852,
      "Ġincreasing": 1853,
      "ĠAmerican": 1854,
      "Ġnear": 1855,
      "Ġhead": 1856,
      "Ġself": 1857,
      "ges": 1858,
      "Ġcode": 1859,
      "man": 1860,
      "It": 1861,
      "Ġhard": 1862,
      "Ġcollect": 1863,
      "Ġcra": 1864,
      "Ġfore": 1865,
      "Ġindic": 1866,
      "Ġarea": 1867,
      "Ġprim": 1868,
      "ĠComm": 1869,
      "Ġbas": 1870,
      "urthermore": 1871,
      "aling": 1872,
      "Ġbehav": 1873,
      "Ġwar": 1874,
      "Ġorig": 1875,
      "ĠRes": 1876,
      "Ġfamily": 1877,
      "alu": 1878,
      "erous": 1879,
      "ones": 1880,
      "lection": 1881,
      "ĠEng": 1882,
      "Ġut": 1883,
      "Ġoptim": 1884,
      "Ġappear": 1885,
      "Ġpromot": 1886,
      "Ġsay": 1887,
      "Ġquality": 1888,
      "angu": 1889,
      "Ġexpect": 1890,
      "Ġhistory": 1891,
      "Ġ199": 1892,
      "Ġupon": 1893,
      "Ġcreating": 1894,
      "Ġguid": 1895,
      "Ġmultiple": 1896,
      "Ġfree": 1897,
      "atory": 1898,
      "Ġsecond": 1899,
      "Ġmodern": 1900,
      "go": 1901,
      "ips": 1902,
      "ltimately": 1903,
      "Ġrecord": 1904,
      "Ġaffect": 1905,
      "Ġtoget": 1906,
      "Ġtogether": 1907,
      "Ġmind": 1908,
      "reng": 1909,
      "Ġemp": 1910,
      "Ġmill": 1911,
      "Ġtarget": 1912,
      "avig": 1913,
      "ator": 1914,
      "Ġsoft": 1915,
      "Ġworking": 1916,
      "not": 1917,
      "Ġcharacter": 1918,
      "Ġage": 1919,
      "oint": 1920,
      "Ġglob": 1921,
      "dition": 1922,
      "ably": 1923,
      "Ġinteract": 1924,
      "Ġcomput": 1925,
      "Ġjour": 1926,
      "Ġregarding": 1927,
      "Ġencoura": 1928,
      "Ġfar": 1929,
      "Ġindustry": 1930,
      "ĠOn": 1931,
      "ĠMoreover": 1932,
      "nces": 1933,
      "ression": 1934,
      "rec": 1935,
      "Ġscen": 1936,
      "Ġinsights": 1937,
      "Ġsafety": 1938,
      "ajor": 1939,
      "aches": 1940,
      "Ġput": 1941,
      "Ġrequires": 1942,
      "ĠTr": 1943,
      "ek": 1944,
      "Ġtraditional": 1945,
      "ither": 1946,
      "fort": 1947,
      "Ġtechniques": 1948,
      "verage": 1949,
      "Ġtype": 1950,
      "ying": 1951,
      "arc": 1952,
      "Ġold": 1953,
      "pri": 1954,
      "Ċĉ": 1955,
      "Ġhapp": 1956,
      "ots": 1957,
      "Ġperiod": 1958,
      "ER": 1959,
      "Ġpain": 1960,
      "face": 1961,
      "Ġmedia": 1962,
      "ĠPl": 1963,
      "elling": 1964,
      "Ġcases": 1965,
      "Ġgiven": 1966,
      "Ġupd": 1967,
      "ĠInst": 1968,
      "Ġprev": 1969,
      "Ġtransform": 1970,
      "Ġsal": 1971,
      "Ġmot": 1972,
      "Ġrelated": 1973,
      "Step": 1974,
      "Ġbi": 1975,
      "Ġpopular": 1976,
      "Ġnecessary": 1977,
      "Ġfund": 1978,
      "Ġsimilar": 1979,
      "Ġpast": 1980,
      "ĠPh": 1981,
      "Ġneg": 1982,
      "urs": 1983,
      "Ġspace": 1984,
      "sy": 1985,
      "ton": 1986,
      "Ġhaving": 1987,
      "Ġleading": 1988,
      "Ġsing": 1989,
      "Ġorganizations": 1990,
      "Ġmakes": 1991,
      "Ġprovided": 1992,
      "Ġproducts": 1993,
      "ancing": 1994,
      "Ġsignificantly": 1995,
      "Ġsn": 1996,
      "Ġdigital": 1997,
      "ĠSe": 1998,
      "fer": 1999,
      "Ġsitu": 2000,
      "Ġbal": 2001,
      "Ġemerg": 2002,
      "ĠTe": 2003,
      "Ġrecent": 2004,
      "ishing": 2005,
      "Ġyet": 2006,
      "Ġstreng": 2007,
      "Ġbusinesses": 2008,
      "Ġanaly": 2009,
      "12": 2010,
      "cer": 2011,
      "iation": 2012,
      "Ġfinancial": 2013,
      "Ġhold": 2014,
      "Ġuntil": 2015,
      "Ġcirc": 2016,
      "iring": 2017,
      "Ġrecomm": 2018,
      "duct": 2019,
      "Ġfeatures": 2020,
      "icle": 2021,
      "Ġimportance": 2022,
      "Ġgame": 2023,
      "ĠZ": 2024,
      "Ġphysical": 2025,
      "ths": 2026,
      "erc": 2027,
      "Ġparticularly": 2028,
      "One": 2029,
      "ope": 2030,
      "Ġaspects": 2031,
      "sw": 2032,
      "use": 2033,
      "het": 2034,
      "Ġoptions": 2035,
      "Ġservice": 2036,
      "Ġthought": 2037,
      "Ġrespect": 2038,
      "osed": 2039,
      "Ġthings": 2040,
      "Ġhigher": 2041,
      "though": 2042,
      "ned": 2043,
      "Ġgroup": 2044,
      "Ġsens": 2045,
      "Ġshort": 2046,
      "Ġey": 2047,
      "Ġlog": 2048,
      "Ġstat": 2049,
      "ĠLet": 2050,
      "ised": 2051,
      "Ġthemselves": 2052,
      "Ġauthor": 2053,
      "ĠFurthermore": 2054,
      "Ġallowing": 2055,
      "ters": 2056,
      "play": 2057,
      "Ġdesigned": 2058,
      "Ġaccording": 2059,
      "Ġincreased": 2060,
      "Ġdam": 2061,
      "Ġline": 2062,
      "rams": 2063,
      "Ġbroad": 2064,
      "aim": 2065,
      "thing": 2066,
      "Ġ**": 2067,
      "##": 2068,
      "term": 2069,
      "isions": 2070,
      "Ġpositive": 2071,
      "Ġbehind": 2072,
      "fforts": 2073,
      "Ġwomen": 2074,
      "Ġair": 2075,
      "Ġbegin": 2076,
      "Ġalways": 2077,
      "Ġseeking": 2078,
      "Ġsuccessful": 2079,
      "Ġlay": 2080,
      "ĠOr": 2081,
      ".âĢĿ": 2082,
      "Ġcontent": 2083,
      "Ġnext": 2084,
      "Ġchanges": 2085,
      "Ġcourse": 2086,
      "Ġlangu": 2087,
      "Ġcompan": 2088,
      "Ġremains": 2089,
      "Ġemot": 2090,
      "Ġincorpor": 2091,
      "Ġinvolves": 2092,
      "Ġvalues": 2093,
      "gien": 2094,
      "vant": 2095,
      "Ġappropri": 2096,
      "Ġmaterials": 2097,
      "Ġsl": 2098,
      "Ġmeet": 2099,
      "Ġefforts": 2100,
      "nds": 2101,
      "Ġmeaning": 2102,
      "Ġeffective": 2103,
      "Ġmajor": 2104,
      "Ġvol": 2105,
      "Ġtrue": 2106,
      "Ġdiverse": 2107,
      "Ġtreatment": 2108,
      "Ġquick": 2109,
      "Ġnatural": 2110,
      "Ġaway": 2111,
      "Ġelements": 2112,
      "Ġnavig": 2113,
      "Ġcompany": 2114,
      "Ġscient": 2115,
      "Ġevents": 2116,
      "Ġlands": 2117,
      "ina": 2118,
      "ios": 2119,
      "stain": 2120,
      "Ġsurround": 2121,
      "Ġtravel": 2122,
      "Ġmaintaining": 2123,
      "Ġmov": 2124,
      "Ġfostering": 2125,
      "sh": 2126,
      "Ġsecurity": 2127,
      "ufact": 2128,
      "Ġclose": 2129,
      "giene": 2130,
      "Ġmedical": 2131,
      "ption": 2132,
      "oph": 2133,
      "ecially": 2134,
      "Ġworks": 2135,
      "ification": 2136,
      "Ġattention": 2137,
      "cle": 2138,
      "Ġidentify": 2139,
      "Ġaction": 2140,
      "Ġability": 2141,
      "Ġaccount": 2142,
      "Ġrelationships": 2143,
      "Ġcut": 2144,
      "osing": 2145,
      "Ġevent": 2146,
      "ĠUnited": 2147,
      "Ġbuilding": 2148,
      "mit": 2149,
      "aries": 2150,
      "Ġproblem": 2151,
      "ulations": 2152,
      "Ġturn": 2153,
      "Ġprinc": 2154,
      "ĠUniversity": 2155,
      "Ġwebs": 2156,
      "Ġheart": 2157,
      "ird": 2158,
      "Ġcheck": 2159,
      "Ġcountry": 2160,
      "Ġorder": 2161,
      "Ġintegr": 2162,
      "ening": 2163,
      "aching": 2164,
      "\",": 2165,
      "lex": 2166,
      "Ġ|": 2167,
      "Ġmarketing": 2168,
      "Ġsustain": 2169,
      "Ġfour": 2170,
      "wh": 2171,
      "Ġstory": 2172,
      "ifically": 2173,
      "olutions": 2174,
      "Ġyoung": 2175,
      "Ġesp": 2176,
      "ches": 2177,
      "ĠMed": 2178,
      "Ġsays": 2179,
      "orth": 2180,
      "Ġclean": 2181,
      "ox": 2182,
      "Ġsum": 2183,
      "Ġvir": 2184,
      "ming": 2185,
      "Ġfamil": 2186,
      "care": 2187,
      "chan": 2188,
      "ged": 2189,
      "Ġaltern": 2190,
      "Ġselect": 2191,
      "Ġhandle": 2192,
      "ours": 2193,
      "Ġvalu": 2194,
      "idd": 2195,
      "Ġregular": 2196,
      "ĠSy": 2197,
      "Ġactivities": 2198,
      "Ġdoc": 2199,
      "Ġ15": 2200,
      "Ġmusic": 2201,
      "itions": 2202,
      "ites": 2203,
      "Ġdiff": 2204,
      "ooks": 2205,
      "Ġanim": 2206,
      "Ġobs": 2207,
      "Ġland": 2208,
      "ler": 2209,
      "Ġadapt": 2210,
      "Ġswitch": 2211,
      "Ġpolitical": 2212,
      "co": 2213,
      "Ġreli": 2214,
      "Ġhowever": 2215,
      "illed": 2216,
      "af": 2217,
      "Ġfr": 2218,
      "Ġgoing": 2219,
      "ĠBe": 2220,
      "Ġgreater": 2221,
      "Ġcontribute": 2222,
      "Ġtail": 2223,
      "Ġsat": 2224,
      "oney": 2225,
      "Ġlittle": 2226,
      "olve": 2227,
      "Ġitself": 2228,
      "icial": 2229,
      "For": 2230,
      "Ġund": 2231,
      "Ġadditional": 2232,
      "ĠThrough": 2233,
      "Ġstatements": 2234,
      "Ġcomplete": 2235,
      "Ġdom": 2236,
      "Ġstay": 2237,
      "Ġenough": 2238,
      "Ġpercent": 2239,
      "Ġtemper": 2240,
      "Ġcomponents": 2241,
      "ĊĠĠĠĠĠ": 2242,
      "inary": 2243,
      "Ġespecially": 2244,
      "Ġnever": 2245,
      "erson": 2246,
      "ibr": 2247,
      "Ġarg": 2248,
      "Ġexplain": 2249,
      "Ġrange": 2250,
      "Ġplatforms": 2251,
      "ĠAcc": 2252,
      "irit": 2253,
      "AT": 2254,
      "Ġlater": 2255,
      "Ġansw": 2256,
      "Ġnature": 2257,
      "Ġreflect": 2258,
      "ides": 2259,
      "Ġtypes": 2260,
      "Ġserve": 2261,
      "Ġglobal": 2262,
      "inally": 2263,
      "acks": 2264,
      "arr": 2265,
      "Ġprocesses": 2266,
      "Ġcommunities": 2267,
      "Ġlooking": 2268,
      "Ġexpert": 2269,
      "ids": 2270,
      "med": 2271,
      "Ġground": 2272,
      "Ġmanufact": 2273,
      "Ġfri": 2274,
      "sp": 2275,
      "Ġtas": 2276,
      "Ġblood": 2277,
      "Ġways": 2278,
      "Ġhistor": 2279,
      "Ġcritical": 2280,
      "Ġleft": 2281,
      "ude": 2282,
      "Ġprograms": 2283,
      "'ll": 2284,
      "ĠChe": 2285,
      "Ġinvolved": 2286,
      "Ġprint": 2287,
      "Ġnumerous": 2288,
      "Ġsubst": 2289,
      "Ġmethods": 2290,
      "case": 2291,
      "Ġfail": 2292,
      "Ġded": 2293,
      "ensive": 2294,
      "fect": 2295,
      "aster": 2296,
      "Ġquestion": 2297,
      "ror": 2298,
      "11": 2299,
      "ubl": 2300,
      "ems": 2301,
      "avor": 2302,
      "Ġtext": 2303,
      "Ġreason": 2304,
      "):": 2305,
      "Ġcoun": 2306,
      "Ġtaking": 2307,
      "Ġable": 2308,
      "icro": 2309,
      "Ġtherap": 2310,
      "Ġeffectively": 2311,
      "Ġz": 2312,
      "ecut": 2313,
      "aken": 2314,
      "Ġ12": 2315,
      "Ġleaders": 2316,
      "Ġconcerns": 2317,
      "Ġevalu": 2318,
      "Ġreally": 2319,
      "aged": 2320,
      "Ġfull": 2321,
      "Ġyourself": 2322,
      "Ġappropriate": 2323,
      "Ġpolicy": 2324,
      "ĠApp": 2325,
      "Ġonce": 2326,
      "Ġann": 2327,
      "Ġfrequ": 2328,
      "rehe": 2329,
      "Ġsoftware": 2330,
      "ĠĠĠĠĠĠĠ": 2331,
      "Ġrequired": 2332,
      "Ġlandsc": 2333,
      "ologies": 2334,
      "ynam": 2335,
      "part": 2336,
      "Ġrights": 2337,
      "Ġquestions": 2338,
      "iency": 2339,
      "Ġprec": 2340,
      "Ġapplications": 2341,
      "ĠThat": 2342,
      "Ġside": 2343,
      "mpt": 2344,
      "Ġengine": 2345,
      "Ġcamp": 2346,
      "ding": 2347,
      "ples": 2348,
      "Ġprior": 2349,
      "ample": 2350,
      "Ġdisease": 2351,
      "Ġrad": 2352,
      "How": 2353,
      "Ġadvant": 2354,
      "une": 2355,
      "ously": 2356,
      "Ġextract": 2357,
      "Ġmen": 2358,
      "Ġcompanies": 2359,
      "ĠUS": 2360,
      "Ġshare": 2361,
      "Another": 2362,
      "Ġenj": 2363,
      "icult": 2364,
      "Ġbreak": 2365,
      "Ġsound": 2366,
      "Ġfall": 2367,
      "abilities": 2368,
      "Ġapprec": 2369,
      "Ġevidence": 2370,
      "rel": 2371,
      "Ġlower": 2372,
      "ĠFr": 2373,
      "Ġtraining": 2374,
      "Ġfunctional": 2375,
      "phas": 2376,
      "()": 2377,
      "ean": 2378,
      "Ġeither": 2379,
      "Ġcy": 2380,
      "Ġpa": 2381,
      "13": 2382,
      "Ġsingle": 2383,
      "Ġdays": 2384,
      "Ġabove": 2385,
      "RE": 2386,
      "urop": 2387,
      "ences": 2388,
      "istance": 2389,
      "ees": 2390,
      "Ġmechan": 2391,
      "Ġsuggest": 2392,
      "ĠStates": 2393,
      "lo": 2394,
      "Ġbecomes": 2395,
      "Ġhelps": 2396,
      "ament": 2397,
      "Ġsty": 2398,
      "ienc": 2399,
      "ush": 2400,
      "ief": 2401,
      "Ġexperiences": 2402,
      "Ġavoid": 2403,
      "Ġur": 2404,
      "Ġinstead": 2405,
      "Ġentire": 2406,
      "Ġface": 2407,
      "Ġjob": 2408,
      "ĠCal": 2409,
      "Ġinstitut": 2410,
      "inking": 2411,
      "etic": 2412,
      "esc": 2413,
      "Ġphot": 2414,
      "Ġpatients": 2415,
      "Ġmental": 2416,
      "ender": 2417,
      "Ġpred": 2418,
      "Ġsense": 2419,
      "elines": 2420,
      "Ġexce": 2421,
      "Ġmom": 2422,
      "ilt": 2423,
      "Ġinternational": 2424,
      "Ġport": 2425,
      "cl": 2426,
      "izes": 2427,
      "Ġce": 2428,
      "Ġposition": 2429,
      "Ġsolutions": 2430,
      "based": 2431,
      "ĠCent": 2432,
      "ĠPr": 2433,
      "Ġmessage": 2434,
      "Ġleast": 2435,
      "ĠMan": 2436,
      "Ġarr": 2437,
      "When": 2438,
      "Ġcapt": 2439,
      "Ġ--": 2440,
      "Ġcompared": 2441,
      "Ġgroups": 2442,
      "alf": 2443,
      "ony": 2444,
      "Ġlikely": 2445,
      "minist": 2446,
      "ĠGu": 2447,
      "ference": 2448,
      "else": 2449,
      "Ġutil": 2450,
      "ĠTra": 2451,
      "Ġpractice": 2452,
      "Ġlives": 2453,
      "Ġbehavior": 2454,
      "rast": 2455,
      "Ġfoot": 2456,
      "Ġcontinue": 2457,
      "asc": 2458,
      "Ġlanguage": 2459,
      "Ġvi": 2460,
      "ift": 2461,
      "Ġcells": 2462,
      "Ġproduction": 2463,
      "iles": 2464,
      "Ġenjoy": 2465,
      "Ġappe": 2466,
      "Ġenhance": 2467,
      "aste": 2468,
      "Ġneeded": 2469,
      "Ġsite": 2470,
      "First": 2471,
      "ule": 2472,
      "Ġprincip": 2473,
      "Ġrob": 2474,
      "Ġever": 2475,
      "Ġvia": 2476,
      "Ġmonit": 2477,
      "Ġrates": 2478,
      "Here": 2479,
      "If": 2480,
      "ura": 2481,
      "sych": 2482,
      "Ġi": 2483,
      "IN": 2484,
      "Ġvide": 2485,
      "Ġ.": 2486,
      "Ġsure": 2487,
      "ĠAm": 2488,
      "ĠAll": 2489,
      "ĠNational": 2490,
      "ĠSim": 2491,
      "'ve": 2492,
      "ley": 2493,
      "ĠAss": 2494,
      "Ġinj": 2495,
      "aily": 2496,
      "Ġterm": 2497,
      "gen": 2498,
      "back": 2499,
      "Ġbar": 2500,
      "hem": 2501,
      "Ġdest": 2502,
      "Ġconcept": 2503,
      "ok": 2504,
      "ĠX": 2505,
      "ball": 2506,
      "onse": 2507,
      "Ġcustomer": 2508,
      "Ġemphas": 2509,
      "We": 2510,
      "Ġmax": 2511,
      "Ġlearn": 2512,
      "Ġoccur": 2513,
      "ready": 2514,
      "Ġanalysis": 2515,
      "ferences": 2516,
      "Ġdescrib": 2517,
      "Ġmention": 2518,
      "ruction": 2519,
      "Ġrelevant": 2520,
      "Ġcommitment": 2521,
      "50": 2522,
      "arent": 2523,
      "Ġautom": 2524,
      "Ġ*": 2525,
      "Ġshared": 2526,
      "But": 2527,
      "Ġvaluable": 2528,
      "Ġste": 2529,
      "Ġdeb": 2530,
      "Ġinsp": 2531,
      "Ġpath": 2532,
      "Ġliving": 2533,
      "ĠSome": 2534,
      "Ġcause": 2535,
      "Ġultimately": 2536,
      "ison": 2537,
      "Ġdoing": 2538,
      "Ġincrease": 2539,
      "Ġwind": 2540,
      "arily": 2541,
      "âĢĵ": 2542,
      "Ġdat": 2543,
      "Ġ+": 2544,
      "Ġdynam": 2545,
      "ival": 2546,
      "Ġassess": 2547,
      "ĠBl": 2548,
      "Ġlegal": 2549,
      "Ġsearch": 2550,
      "ĠJoh": 2551,
      "ster": 2552,
      "Ġdifficult": 2553,
      "Ġsteps": 2554,
      "ustr": 2555,
      "pts": 2556,
      "inct": 2557,
      "Ġloss": 2558,
      "know": 2559,
      "Ġpatient": 2560,
      "Ġbig": 2561,
      "place": 2562,
      "reen": 2563,
      "Ġkind": 2564,
      "Ġmodel": 2565,
      "Ġpowerful": 2566,
      "ĠEurop": 2567,
      "Ġdetermine": 2568,
      "Ġpressure": 2569,
      "itle": 2570,
      "Ġreview": 2571,
      "Ġintrodu": 2572,
      "ties": 2573,
      "Ġlove": 2574,
      "Ġrout": 2575,
      "ĠAfter": 2576,
      "ĠCont": 2577,
      "Ġcultural": 2578,
      "Ġcomments": 2579,
      "Ġ>": 2580,
      "aving": 2581,
      "ĠReg": 2582,
      "ump": 2583,
      "Ġdirectly": 2584,
      "ĠLe": 2585,
      "Ġvisual": 2586,
      "Ġhost": 2587,
      "ĠFrom": 2588,
      "Ġtax": 2589,
      "ĠSu": 2590,
      "Ġterms": 2591,
      "Ġprofessionals": 2592,
      "Ġlive": 2593,
      "Ġeth": 2594,
      "Ġfa": 2595,
      "Ġstra": 2596,
      "Ġworth": 2597,
      "Ġbook": 2598,
      "Ġspirit": 2599,
      "Ġclaim": 2600,
      "Ġengagement": 2601,
      "Ġmeasures": 2602,
      "Ġissue": 2603,
      "ĠHis": 2604,
      "Ġsett": 2605,
      "like": 2606,
      "Ġvital": 2607,
      "Ġcosts": 2608,
      "Ġprogress": 2609,
      "ules": 2610,
      "time": 2611,
      "Ġproblems": 2612,
      "Ġachieve": 2613,
      "18": 2614,
      "Ġexecut": 2615,
      "aff": 2616,
      "Ġsimple": 2617,
      "iously": 2618,
      "\")": 2619,
      "Ġalready": 2620,
      "Ġseason": 2621,
      "ĠWor": 2622,
      "Ġheav": 2623,
      ",âĢĿ": 2624,
      "hib": 2625,
      "Ġver": 2626,
      "Ġtot": 2627,
      "val": 2628,
      "ull": 2629,
      "pid": 2630,
      "Ġsurrounding": 2631,
      "Ġembra": 2632,
      "Ġconnections": 2633,
      "iar": 2634,
      "Ġconduct": 2635,
      "earch": 2636,
      "Ġiniti": 2637,
      "Ġred": 2638,
      "Ġopp": 2639,
      "Ġharm": 2640,
      "Ġshap": 2641,
      "iece": 2642,
      "Ġrisks": 2643,
      "Ġclos": 2644,
      "Ġfeed": 2645,
      "making": 2646,
      "Ġseen": 2647,
      "ĠIntern": 2648,
      "rehens": 2649,
      "just": 2650,
      "Ġhealthcare": 2651,
      "Ġcity": 2652,
      "Ġpromoting": 2653,
      "ĠEar": 2654,
      "Ġserves": 2655,
      "ww": 2656,
      "ĠRep": 2657,
      "Ġpoints": 2658,
      "rug": 2659,
      "Ġculture": 2660,
      "Ġones": 2661,
      "encies": 2662,
      "Ġenvironmental": 2663,
      "Ġsomeone": 2664,
      "Ġdecisions": 2665,
      "rite": 2666,
      "paren": 2667,
      "Ġlif": 2668,
      "Ġtypically": 2669,
      "Ġapplication": 2670,
      "ĠInc": 2671,
      "most": 2672,
      "standing": 2673,
      "Ġthreat": 2674,
      "Con": 2675,
      "epend": 2676,
      "Ġdeath": 2677,
      "iment": 2678,
      "olving": 2679,
      "adem": 2680,
      "su": 2681,
      "Ġorganization": 2682,
      "rect": 2683,
      "terns": 2684,
      "ĠDr": 2685,
      "Ġeconomic": 2686,
      "Ġreduce": 2687,
      "Ġmillion": 2688,
      "Ġexperienc": 2689,
      "ĠCan": 2690,
      "\".": 2691,
      "Ġsepar": 2692,
      "Ġbeaut": 2693,
      "comes": 2694,
      "Ġspecies": 2695,
      "Ġensures": 2696,
      "Ġoil": 2697,
      "Ġfacilit": 2698,
      "ID": 2699,
      "Ġdoesn": 2700,
      "Ġwide": 2701,
      "ĠAccording": 2702,
      "reg": 2703,
      "Ġadop": 2704,
      "Ġexisting": 2705,
      "Ġcancer": 2706,
      "Ġspe": 2707,
      "Ġmaxim": 2708,
      "ened": 2709,
      "Ġsuper": 2710,
      "Ġbat": 2711,
      "Ġefficient": 2712,
      "Ġforms": 2713,
      "ĠShe": 2714,
      "Ġmoney": 2715,
      "ground": 2716,
      "ĠĊĠĠĠ": 2717,
      "Ġexerc": 2718,
      "Ġcustomers": 2719,
      "Ġbrand": 2720,
      "hood": 2721,
      "urns": 2722,
      "Ġsubject": 2723,
      "Ġtakes": 2724,
      "ung": 2725,
      "Ġ17": 2726,
      "ops": 2727,
      "Ġstudies": 2728,
      "ott": 2729,
      "Ġdistribut": 2730,
      "etimes": 2731,
      "Ġcannot": 2732,
      "ĠInt": 2733,
      "Ġspecifically": 2734,
      "mptoms": 2735,
      "ched": 2736,
      "ĠAf": 2737,
      "ĠPer": 2738,
      "Ġinformed": 2739,
      "Ġprimary": 2740,
      "ked": 2741,
      "ĠWhat": 2742,
      "At": 2743,
      "nal": 2744,
      "plications": 2745,
      "Ġaware": 2746,
      "ores": 2747,
      "Ġ/": 2748,
      "Ġpartners": 2749,
      "Ġobserv": 2750,
      "ĠMar": 2751,
      "parency": 2752,
      "ormal": 2753,
      "going": 2754,
      "Ġfig": 2755,
      "Ġvisit": 2756,
      "Ġenables": 2757,
      "Ġchem": 2758,
      "Ġplanning": 2759,
      "AS": 2760,
      "Ġdiv": 2761,
      "By": 2762,
      "Ġeffects": 2763,
      "Ġwin": 2764,
      "Ġsurface": 2765,
      "Ġweb": 2766,
      "Ġrelig": 2767,
      "ze": 2768,
      "Ġreve": 2769,
      "ĠGen": 2770,
      "ĠUs": 2771,
      "ĠComp": 2772,
      "Sc": 2773,
      "15": 2774,
      "Ġoutcomes": 2775,
      "Ġengaging": 2776,
      "eter": 2777,
      "Ġrev": 2778,
      "istics": 2779,
      "Ġgoals": 2780,
      "Ġsection": 2781,
      "Ġrequirements": 2782,
      "ume": 2783,
      "Ġconvers": 2784,
      "Ġresearc": 2785,
      "200": 2786,
      "Ġsources": 2787,
      "Ġprob": 2788,
      "Ġcountries": 2789,
      "Ġlies": 2790,
      "Ġexcept": 2791,
      "Ġhands": 2792,
      "Ġtaken": 2793,
      "Ġ16": 2794,
      "asts": 2795,
      "Ġcollaboration": 2796,
      "Ġabs": 2797,
      "eration": 2798,
      "Ġplays": 2799,
      "Ġsize": 2800,
      "Ġpatterns": 2801,
      "Ġbalance": 2802,
      "Ġisn": 2803,
      "uel": 2804,
      "Ġmach": 2805,
      "ĠSec": 2806,
      "Ġactions": 2807,
      "Ġproced": 2808,
      "Ġhouse": 2809,
      "Ġweek": 2810,
      "ippet": 2811,
      "Ġmere": 2812,
      "Ġidea": 2813,
      "ĠCo": 2814,
      "Ġcalcul": 2815,
      "âĢľ": 2816,
      "Ġdaily": 2817,
      "Ġstream": 2818,
      "ĠGo": 2819,
      "Ġresponsible": 2820,
      "Ġalign": 2821,
      "Ġcore": 2822,
      "Ġscience": 2823,
      "Ġprinciples": 2824,
      "What": 2825,
      "Ġopportunity": 2826,
      "Ġdeveloping": 2827,
      "Ġ30": 2828,
      "porary": 2829,
      "itude": 2830,
      "Ġaddressing": 2831,
      "Ġjo": 2832,
      "aun": 2833,
      "Ġdemand": 2834,
      "Ġmass": 2835,
      "Ġfocusing": 2836,
      "Ġsect": 2837,
      "Ġactivity": 2838,
      "Ġpubl": 2839,
      "oman": 2840,
      "urance": 2841,
      "Ġ:": 2842,
      "Ġsource": 2843,
      "Ġgeneral": 2844,
      "Ġjourney": 2845,
      "Ġaccept": 2846,
      "Ġgive": 2847,
      "Ġwords": 2848,
      "Ġfile": 2849,
      "ĠWhe": 2850,
      "Ġresponse": 2851,
      "Ġsafe": 2852,
      "Ġquickly": 2853,
      "Ġsent": 2854,
      "Ġaddition": 2855,
      "ounts": 2856,
      "Ġamount": 2857,
      "Ġenab": 2858,
      "Ġ14": 2859,
      "Ġsex": 2860,
      "Ġsnippet": 2861,
      "ivil": 2862,
      "erve": 2863,
      "Ġnational": 2864,
      "amm": 2865,
      "Ġplayers": 2866,
      "pre": 2867,
      "Ġengage": 2868,
      "II": 2869,
      "Ġskin": 2870,
      "Ġexpand": 2871,
      "Ġuses": 2872,
      "atively": 2873,
      "oll": 2874,
      "Ġlocation": 2875,
      "aves": 2876,
      "Ġfive": 2877,
      "Ġfram": 2878,
      "Ġge": 2879,
      "Ġ198": 2880,
      "cks": 2881,
      "head": 2882,
      "Ġwebsite": 2883,
      "'m": 2884,
      "new": 2885,
      "Ġdeliver": 2886,
      "Ġoutside": 2887,
      "Ġinvestig": 2888,
      "Ġsociety": 2889,
      "Ġpack": 2890,
      "Ġreducing": 2891,
      "Ġflu": 2892,
      "aced": 2893,
      "Ġcomputer": 2894,
      "Ġimplementation": 2895,
      "pping": 2896,
      "ows": 2897,
      "Ġtailored": 2898,
      "Ġcondition": 2899,
      "Ġactually": 2900,
      "ply": 2901,
      "isms": 2902,
      "Ġexpress": 2903,
      "Ġmor": 2904,
      "gra": 2905,
      "iet": 2906,
      "Ġdevices": 2907,
      "Ġscenar": 2908,
      "Ġhours": 2909,
      "Ġdraw": 2910,
      "overy": 2911,
      "ĠEm": 2912,
      "Ġoperations": 2913,
      "Ġestablished": 2914,
      "ĠUnder": 2915,
      "aign": 2916,
      "Ġusually": 2917,
      "Ġimmed": 2918,
      "Ġviol": 2919,
      "ĠMay": 2920,
      "Ġcontext": 2921,
      "Ġdone": 2922,
      "Ġtransport": 2923,
      "ĠChristian": 2924,
      "Ġperfect": 2925,
      "Ġcat": 2926,
      "Ġlat": 2927,
      "Ġcross": 2928,
      "Ġincorporating": 2929,
      "tt": 2930,
      "Ġproperty": 2931,
      "ĠAct": 2932,
      "ype": 2933,
      "Ġextra": 2934,
      "Ġlandscape": 2935,
      "wise": 2936,
      "Ġstructure": 2937,
      "irm": 2938,
      "Ġconsid": 2939,
      "Ġrich": 2940,
      "Ġanswer": 2941,
      "Ġrecommend": 2942,
      "Ġnetwork": 2943,
      "30": 2944,
      "Ġthing": 2945,
      "Now": 2946,
      "Key": 2947,
      "enn": 2948,
      "eper": 2949,
      "Ġsmo": 2950,
      "Ġtechnologies": 2951,
      "Ġcontact": 2952,
      "Ġadminist": 2953,
      "Ġinvolve": 2954,
      "Ġpotentially": 2955,
      "Ġeveryone": 2956,
      "Ġstatement": 2957,
      "Ġlot": 2958,
      "augh": 2959,
      "Ġstrategy": 2960,
      "Ġsus": 2961,
      "Ġdocument": 2962,
      "Ġincreasingly": 2963,
      "itiz": 2964,
      "Ġ11": 2965,
      "Ġextreme": 2966,
      "Ġbur": 2967,
      "Ġtotal": 2968,
      "eb": 2969,
      "ĠHigh": 2970,
      "Ġexploring": 2971,
      "Ġprivate": 2972,
      "Ġincludes": 2973,
      "Ġbir": 2974,
      "run": 2975,
      "Ġwhole": 2976,
      "ifying": 2977,
      "Ġdou": 2978,
      "Ġstates": 2979,
      "ES": 2980,
      "Ġeasy": 2981,
      "Ex": 2982,
      "rim": 2983,
      "Ġinnovation": 2984,
      "Ġrate": 2985,
      "force": 2986,
      "astly": 2987,
      "Ġweight": 2988,
      "Ġarch": 2989,
      "Ġflex": 2990,
      "Ġconnection": 2991,
      "Ġtrends": 2992,
      "Ġetc": 2993,
      "Ġcomfort": 2994,
      "osure": 2995,
      "rict": 2996,
      "Ġpsych": 2997,
      "Ġinstall": 2998,
      "Ġpolicies": 2999,
      "So": 3000,
      "Ġcop": 3001,
      "vere": 3002,
      "ĠTrans": 3003,
      "Ġstandard": 3004,
      "Ġmut": 3005,
      "Ġdry": 3006,
      "Ġsetting": 3007,
      "vert": 3008,
      "ĠWar": 3009,
      "ipl": 3010,
      "Ġcentury": 3011,
      "Ġstru": 3012,
      "ĠRec": 3013,
      "Ġminut": 3014,
      "iction": 3015,
      "iveness": 3016,
      "Ġwa": 3017,
      "Ġcolle": 3018,
      "Ġrepresents": 3019,
      "Ġrobust": 3020,
      "Ġqual": 3021,
      "Ġdamage": 3022,
      "Ġreach": 3023,
      "Ġpopulation": 3024,
      "Ġdetails": 3025,
      "ctor": 3026,
      "Ġcolor": 3027,
      "Ġremember": 3028,
      "Ġing": 3029,
      "ĠCar": 3030,
      "Ġsatis": 3031,
      ":**": 3032,
      "Ġdistinct": 3033,
      "Ch": 3034,
      "ĠNo": 3035,
      "Ġdesp": 3036,
      "Ġcomprehens": 3037,
      "Ġregion": 3038,
      "Ġstress": 3039,
      "Ġfit": 3040,
      "umb": 3041,
      "Ġoriginal": 3042,
      "Ġtemperature": 3043,
      "ĠWhether": 3044,
      "Ġpurch": 3045,
      "ls": 3046,
      "ĠâĢ¢": 3047,
      "Ġbuilt": 3048,
      "ĊĠĠĠĠĠĠĠĠĠĠĠĠĠĠĠ": 3049,
      "Ġhalf": 3050,
      "Ġongoing": 3051,
      "Ġdatab": 3052,
      "Ġpiece": 3053,
      "itable": 3054,
      "Ġbound": 3055,
      "ĠBrit": 3056,
      "spect": 3057,
      "Ġwal": 3058,
      "idents": 3059,
      "Ġparts": 3060,
      "oor": 3061,
      "pose": 3062,
      "Ġwhite": 3063,
      "iance": 3064,
      "duc": 3065,
      "Ġfoster": 3066,
      "ĠNot": 3067,
      "quality": 3068,
      "Ġcontem": 3069,
      "NA": 3070,
      "Ġcreated": 3071,
      "Ġlimit": 3072,
      "ĠJohn": 3073,
      "Ġenhancing": 3074,
      "Ġresearchers": 3075,
      "Ġdepending": 3076,
      "uild": 3077,
      "Ġcry": 3078,
      "icles": 3079,
      "Ġbase": 3080,
      "ederal": 3081,
      "oud": 3082,
      "Ġresil": 3083,
      "Ġprojects": 3084,
      "Ġmob": 3085,
      "Ġestablish": 3086,
      "There": 3087,
      "Ġsymptoms": 3088,
      "ipment": 3089,
      "olic": 3090,
      "Ġdrug": 3091,
      "come": 3092,
      "ĊĠĠĠĠĊĠĠĠ": 3093,
      "Ġfeature": 3094,
      "illing": 3095,
      "Ġbecame": 3096,
      "Ġmis": 3097,
      "Ġhar": 3098,
      "ashing": 3099,
      "mber": 3100,
      "Ġaccur": 3101,
      "--------------------------------": 3102,
      "Ġblack": 3103,
      "ĠAfric": 3104,
      "Ġprep": 3105,
      "Ġmentioned": 3106,
      "ĠPres": 3107,
      "Ġsolid": 3108,
      "Ġplant": 3109,
      "Ġemotional": 3110,
      "Ġcampaign": 3111,
      "Ġconsidered": 3112,
      "Ã©": 3113,
      "ĠâĢĶ": 3114,
      "Ġmedic": 3115,
      "ĠWorld": 3116,
      "inating": 3117,
      "Ġbenefit": 3118,
      "Ġhistorical": 3119,
      "ĠNorth": 3120,
      "apter": 3121,
      "Ġenter": 3122,
      "Ġmanaging": 3123,
      "ĠStud": 3124,
      "hel": 3125,
      "Ġreact": 3126,
      "Ġearl": 3127,
      "ternal": 3128,
      "uck": 3129,
      "Ġstrategic": 3130,
      "Ġcele": 3131,
      "Ġlink": 3132,
      "Ġword": 3133,
      "urch": 3134,
      "Ġunc": 3135,
      "Ġmatter": 3136,
      "cking": 3137,
      "Ġadjust": 3138,
      "Ġtou": 3139,
      "orough": 3140,
      "Ġ==": 3141,
      "Ġsil": 3142,
      "Ġintric": 3143,
      "Ġofficial": 3144,
      "dom": 3145,
      "Ġprotection": 3146,
      "ried": 3147,
      "Ġhab": 3148,
      "Ġdisplay": 3149,
      "Ġalike": 3150,
      "Ġrapid": 3151,
      "ĠAb": 3152,
      "Ġfinal": 3153,
      "ĠĊ": 3154,
      "ĠHealth": 3155,
      "Ġclients": 3156,
      "oming": 3157,
      "Ġactive": 3158,
      "Ġdeeper": 3159,
      "Ġmonths": 3160,
      "Ġenabling": 3161,
      "__": 3162,
      "oes": 3163,
      "zing": 3164,
      "Ġ197": 3165,
      "Ġvideo": 3166,
      "Ġattem": 3167,
      "ev": 3168,
      "AR": 3169,
      "Ġcou": 3170,
      "Ġtry": 3171,
      "Ġstandards": 3172,
      "name": 3173,
      "rs": 3174,
      "Ġparam": 3175,
      "Ġmiss": 3176,
      "Ġarticle": 3177,
      "ĠAmerica": 3178,
      "Ġtook": 3179,
      "bo": 3180,
      "lease": 3181,
      "Ġchallenging": 3182,
      "enge": 3183,
      "Ġjud": 3184,
      "Ġalternative": 3185,
      "Ġteams": 3186,
      "Ġcame": 3187,
      "rig": 3188,
      "Ġcommunic": 3189,
      "pass": 3190,
      "Ġtoward": 3191,
      "ĠFl": 3192,
      "Ġlarger": 3193,
      "Ġinnovative": 3194,
      "aly": 3195,
      "ĠDep": 3196,
      "hips": 3197,
      "Ġforward": 3198,
      "Ġlonger": 3199,
      "ades": 3200,
      "ronic": 3201,
      "Ġthr": 3202,
      "icip": 3203,
      "Ġattract": 3204,
      "ulate": 3205,
      "Ġbroader": 3206,
      "Ġcloser": 3207,
      "Ġresulting": 3208,
      "Ġefficiency": 3209,
      "Ġchann": 3210,
      "onom": 3211,
      "Ġbelow": 3212,
      "LE": 3213,
      "ĠDef": 3214,
      "esign": 3215,
      "Ġperspect": 3216,
      "Ġapproaches": 3217,
      "Ġpromote": 3218,
      "uries": 3219,
      "Ġdeveloped": 3220,
      "Ġimproved": 3221,
      "Ġinitial": 3222,
      "ails": 3223,
      "Ġbring": 3224,
      "anks": 3225,
      "Ġdiagn": 3226,
      "Ġsometimes": 3227,
      "ĠJew": 3228,
      "Ġindepend": 3229,
      "Ġscore": 3230,
      "ĠYork": 3231,
      "artment": 3232,
      "Ġsituation": 3233,
      "Ġacqu": 3234,
      "Ġhygiene": 3235,
      "log": 3236,
      "oved": 3237,
      "arents": 3238,
      "ĠSystem": 3239,
      "Ġexpertise": 3240,
      "ĠSuch": 3241,
      "Ġtell": 3242,
      "ales": 3243,
      "Ġmodels": 3244,
      "Ġcareful": 3245,
      "ĠQu": 3246,
      "Ġseries": 3247,
      "ai": 3248,
      "lights": 3249,
      "Ġsolution": 3250,
      "Ġdial": 3251,
      "vention": 3252,
      "Ġlimited": 3253,
      "Ġhighlight": 3254,
      "Ġrefer": 3255,
      ".)": 3256,
      "Ġhor": 3257,
      "amin": 3258,
      "enses": 3259,
      "haps": 3260,
      "wide": 3261,
      "Ġprivacy": 3262,
      "Ġsets": 3263,
      "Ġdespite": 3264,
      "hy": 3265,
      "Ġspeed": 3266,
      "Ġ13": 3267,
      "Ġmatch": 3268,
      "You": 3269,
      "lish": 3270,
      "Ġcover": 3271,
      "Ġillustr": 3272,
      "Ġaverage": 3273,
      "Ġagree": 3274,
      "ĠMin": 3275,
      "inks": 3276,
      "ains": 3277,
      "Ġeducational": 3278,
      "Ġforce": 3279,
      "Ġgrowing": 3280,
      "Ġsle": 3281,
      "Ġbill": 3282,
      "Ġexact": 3283,
      "ibilities": 3284,
      "sequently": 3285,
      "Ġfaith": 3286,
      "14": 3287,
      "Ġpropos": 3288,
      "Ġaimed": 3289,
      "Ġinstitutions": 3290,
      "Ġsharing": 3291,
      "Ġstring": 3292,
      "ĊĠĠĠĠĠĠĠĠĠĠĠĠĠĠĠĠ": 3293,
      "itute": 3294,
      "ON": 3295,
      "Ġstatus": 3296,
      "akers": 3297,
      "Ġveh": 3298,
      "Ġtruly": 3299,
      "mon": 3300,
      "order": 3301,
      "Ġgot": 3302,
      "Ġroom": 3303,
      "ĠDevelop": 3304,
      "lear": 3305,
      "Ġprice": 3306,
      "urt": 3307,
      "Ġeffort": 3308,
      "pped": 3309,
      "Ġtable": 3310,
      "Ġmeasure": 3311,
      "Ġpossess": 3312,
      "Ġequipment": 3313,
      "ĠResearch": 3314,
      "Ġlab": 3315,
      "Ġnews": 3316,
      "Ġled": 3317,
      "Ġnut": 3318,
      "Ġhot": 3319,
      "ĠGe": 3320,
      "Ġpict": 3321,
      "Ġhighly": 3322,
      "ĠAg": 3323,
      "Ġstudent": 3324,
      "Ġcompl": 3325,
      "osis": 3326,
      "Ġthird": 3327,
      "25": 3328,
      "Ġstrugg": 3329,
      "Ġinfluence": 3330,
      "Ġfire": 3331,
      "Ġclimate": 3332,
      "Ġvict": 3333,
      "odies": 3334,
      "Ġwarm": 3335,
      "ĠState": 3336,
      "Ġfriends": 3337,
      "Ġprote": 3338,
      "Ġcapital": 3339,
      "',": 3340,
      "Ġsample": 3341,
      "Ġnarr": 3342,
      "ected": 3343,
      "Ġir": 3344,
      "Ġvirt": 3345,
      "Ġamid": 3346,
      "cho": 3347,
      "ĠDis": 3348,
      "Ġimage": 3349,
      "Ġchoice": 3350,
      "Ġgreen": 3351,
      "word": 3352,
      "Ġslow": 3353,
      "ĠUp": 3354,
      "Ġaccom": 3355,
      "Ġheat": 3356,
      "Ġcapable": 3357,
      "oration": 3358,
      "rown": 3359,
      "Ġsecure": 3360,
      "ln": 3361,
      "Ġadvance": 3362,
      "Ġdeg": 3363,
      "Al": 3364,
      "Ġ100": 3365,
      "ension": 3366,
      "Ġsimply": 3367,
      "17": 3368,
      "gest": 3369,
      "eli": 3370,
      "Ġcorrect": 3371,
      "Ġfavor": 3372,
      "istry": 3373,
      "Ġstor": 3374,
      "Ġsuff": 3375,
      "Ġcredit": 3376,
      "Ġadvanced": 3377,
      "Ġ25": 3378,
      "iec": 3379,
      "Ġmicro": 3380,
      "ĠPre": 3381,
      "ĠProf": 3382,
      "Ġshows": 3383,
      "ography": 3384,
      "anging": 3385,
      "etr": 3386,
      "ĠOver": 3387,
      "Ġreduced": 3388,
      "Ġexperienced": 3389,
      "Ġcultiv": 3390,
      "IT": 3391,
      "ira": 3392,
      "Ġhighlights": 3393,
      "ma": 3394,
      "bon": 3395,
      "IS": 3396,
      "Ġpage": 3397,
      "Ġcapabilities": 3398,
      "Ġfunctionality": 3399,
      "Ġenable": 3400,
      "ĠGerm": 3401,
      "Ġlines": 3402,
      "Ġtasks": 3403,
      "uments": 3404,
      "ription": 3405,
      "Ġexcell": 3406,
      "Ġitems": 3407,
      "Ġwritten": 3408,
      "Ġtend": 3409,
      "Ġprompt": 3410,
      "Ġgetting": 3411,
      "icated": 3412,
      "Ġliter": 3413,
      "Ġthus": 3414,
      "Ġthorough": 3415,
      "Ġreput": 3416,
      "Ġcand": 3417,
      "ingly": 3418,
      "Ġsignificance": 3419,
      "Ġconflic": 3420,
      "ressive": 3421,
      "Ġhealthy": 3422,
      "hent": 3423,
      "att": 3424,
      "ĠPart": 3425,
      "Ġearlier": 3426,
      "ĠDec": 3427,
      "Ġrefers": 3428,
      "Ġconsistent": 3429,
      "Ġexposure": 3430,
      "Ġgames": 3431,
      "Ġapart": 3432,
      "Ġsix": 3433,
      "ellow": 3434,
      "fficient": 3435,
      "oon": 3436,
      "Ġdive": 3437,
      "odes": 3438,
      "Ġeasily": 3439,
      "However": 3440,
      "Ġsess": 3441,
      "Ġremind": 3442,
      "ructure": 3443,
      "Ġbackground": 3444,
      "espite": 3445,
      "ocr": 3446,
      "Ġteac": 3447,
      "Ġchallenge": 3448,
      "Ġseems": 3449,
      "Ġenvironments": 3450,
      "sec": 3451,
      "ached": 3452,
      "Ġappl": 3453,
      "Ġadded": 3454,
      "Ġfair": 3455,
      "Ġhope": 3456,
      "ilitary": 3457,
      "Ġstar": 3458,
      "pper": 3459,
      "ux": 3460,
      "EN": 3461,
      "Ġinterests": 3462,
      "ieces": 3463,
      "Ġdidn": 3464,
      "Ġmovement": 3465,
      "Ġimag": 3466,
      "Ġsqu": 3467,
      "ĠSpec": 3468,
      "Ġhol": 3469,
      "ĠSouth": 3470,
      "ervation": 3471,
      "Ġfront": 3472,
      "ils": 3473,
      "Ġdevice": 3474,
      "Ġpresence": 3475,
      "Ġcateg": 3476,
      "Ġchoose": 3477,
      "Ġcomment": 3478,
      "Ġacadem": 3479,
      "den": 3480,
      "Ġpaper": 3481,
      "Ġeye": 3482,
      "org": 3483,
      "Ġcentral": 3484,
      "Ġfunctions": 3485,
      "che": 3486,
      "21": 3487,
      "**:": 3488,
      "Ġbegan": 3489,
      "ĠFirst": 3490,
      "Ġoption": 3491,
      "Ġbasic": 3492,
      "Ġpreferences": 3493,
      "my": 3494,
      "Ġstories": 3495,
      "Ġcaused": 3496,
      "ceed": 3497,
      "ocol": 3498,
      "Ġsun": 3499,
      "Ġclin": 3500,
      "holders": 3501,
      "Ġmoment": 3502,
      "where": 3503,
      "alse": 3504,
      "ĠUse": 3505,
      "Ġcircum": 3506,
      "Ġfully": 3507,
      "Ġconsumers": 3508,
      "alls": 3509,
      "Ġoutput": 3510,
      "rought": 3511,
      "Ġconce": 3512,
      "mission": 3513,
      "Ġplans": 3514,
      "Ġproduce": 3515,
      "itation": 3516,
      "Ġparties": 3517,
      "tr": 3518,
      "ĠEarth": 3519,
      "vey": 3520,
      "Ġlack": 3521,
      "amed": 3522,
      "ĠBra": 3523,
      "Ġtechnical": 3524,
      "Ġnumbers": 3525,
      "iddle": 3526,
      "Ġtim": 3527,
      "ancy": 3528,
      "equ": 3529,
      "ET": 3530,
      "Ġtur": 3531,
      "Ġgoal": 3532,
      "Ġbrain": 3533,
      "Ġspiritual": 3534,
      "esthet": 3535,
      "Ġinterp": 3536,
      "16": 3537,
      "ĠYour": 3538,
      "Ġec": 3539,
      "Ġstake": 3540,
      "Ġchemical": 3541,
      "Ġwatch": 3542,
      "ĠEach": 3543,
      "Ġtransparency": 3544,
      "Ġcapac": 3545,
      "Ġhon": 3546,
      "::": 3547,
      "Ġonto": 3548,
      "Ġseam": 3549,
      "rupt": 3550,
      "ĠIts": 3551,
      "Ġparents": 3552,
      "ager": 3553,
      "Ġregul": 3554,
      "bre": 3555,
      "Ġstaff": 3556,
      "Ġthereby": 3557,
      "Ġago": 3558,
      "Ġreceive": 3559,
      "://": 3560,
      "Ġcitiz": 3561,
      "Ġcareer": 3562,
      "Ġdelve": 3563,
      "Ġcivil": 3564,
      "onds": 3565,
      "Ġblock": 3566,
      "Ġinside": 3567,
      "Ġfamilies": 3568,
      "Ġempower": 3569,
      "Ġ196": 3570,
      "ault": 3571,
      "iff": 3572,
      "ĊĊĠ": 3573,
      "Ġgas": 3574,
      "ded": 3575,
      "Ġcam": 3576,
      "ĠTw": 3577,
      "ĠTheir": 3578,
      "23": 3579,
      "Ad": 3580,
      "elt": 3581,
      "resp": 3582,
      "Ġminutes": 3583,
      "Ġbit": 3584,
      "Ġbud": 3585,
      "Ġ50": 3586,
      "Ġconstant": 3587,
      "yl": 3588,
      "Ġeverything": 3589,
      "Ġconstruct": 3590,
      "Ġstructures": 3591,
      "Ġlabor": 3592,
      "Ġ2012": 3593,
      "ulner": 3594,
      "ffect": 3595,
      "mar": 3596,
      "Ġresource": 3597,
      "ĠTechn": 3598,
      "Ġsettings": 3599,
      "Ġnight": 3600,
      "ĠGra": 3601,
      "Ġmanage": 3602,
      "Ġoptimal": 3603,
      "Ġawareness": 3604,
      "ĠPe": 3605,
      "Ġroles": 3606,
      "Ġmanufacturing": 3607,
      "versity": 3608,
      "Ġwriting": 3609,
      "Ġmit": 3610,
      "Ġresilience": 3611,
      "Ġnormal": 3612,
      "Ġjew": 3613,
      "Ġvac": 3614,
      "Ġrunning": 3615,
      "ĠConsider": 3616,
      "ĠExper": 3617,
      "right": 3618,
      "Ġdim": 3619,
      "Ġweather": 3620,
      "ava": 3621,
      "Ġtesting": 3622,
      "ĠAlthough": 3623,
      "Ġanimals": 3624,
      "room": 3625,
      "Ġalmost": 3626,
      "Ġrig": 3627,
      "Ġfat": 3628,
      "Ġcontinued": 3629,
      "Ġidentity": 3630,
      "Ġsubstant": 3631,
      "Int": 3632,
      "Ġshaping": 3633,
      "CT": 3634,
      "Ġspread": 3635,
      "ran": 3636,
      "Ġanc": 3637,
      "ĠHar": 3638,
      "ister": 3639,
      "Ġhimself": 3640,
      "Ġbelieve": 3641,
      "Ġdrive": 3642,
      "Ġcontract": 3643,
      "Ġthinking": 3644,
      "Ġexternal": 3645,
      "ĠNe": 3646,
      "asons": 3647,
      "lusive": 3648,
      "Ġinvestment": 3649,
      "Ġproperties": 3650,
      "ength": 3651,
      "Ġscript": 3652,
      "Ġsurv": 3653,
      "Ġmeaningful": 3654,
      "uff": 3655,
      "ober": 3656,
      "Ġpeace": 3657,
      "Ġwond": 3658,
      "Ġscientific": 3659,
      "Ġcelebr": 3660,
      "oyal": 3661,
      "tenance": 3662,
      "Ġseamless": 3663,
      "iam": 3664,
      "Ġsav": 3665,
      "Ġlate": 3666,
      "Ġcard": 3667,
      "Ġjewel": 3668,
      "ĠRem": 3669,
      "oe": 3670,
      "Ġresponsibility": 3671,
      "Ġdatabase": 3672,
      "aks": 3673,
      "Ġinitiatives": 3674,
      "ogue": 3675,
      "mosp": 3676,
      "Ġvo": 3677,
      "icing": 3678,
      "ellig": 3679,
      "Ġtraffic": 3680,
      "Ġeyes": 3681,
      "Ġwon": 3682,
      "resh": 3683,
      "ĠMe": 3684,
      "AN": 3685,
      "Ġvulner": 3686,
      "Ġprevious": 3687,
      "ĠServ": 3688,
      "Ġnavigate": 3689,
      "Ġamidst": 3690,
      "?\"": 3691,
      "ads": 3692,
      "Ġtherapy": 3693,
      "On": 3694,
      "Pro": 3695,
      "Ġprop": 3696,
      "ifies": 3697,
      "Ġcontemporary": 3698,
      "Ġimplementing": 3699,
      "Ġingred": 3700,
      "Moreover": 3701,
      "clusion": 3702,
      "Ġrecords": 3703,
      "ĠMon": 3704,
      "Ġbelief": 3705,
      "idge": 3706,
      "Ġinvolving": 3707,
      "Ġord": 3708,
      "Ġep": 3709,
      "Ġschools": 3710,
      "add": 3711,
      "orders": 3712,
      "Ġcounter": 3713,
      "Ġten": 3714,
      "date": 3715,
      "herent": 3716,
      "ĠEl": 3717,
      "leg": 3718,
      "uth": 3719,
      "Ġplants": 3720,
      "ute": 3721,
      "ese": 3722,
      "osition": 3723,
      "Ġgenerally": 3724,
      "Ġrespond": 3725,
      "Ġauthent": 3726,
      "Ġlaws": 3727,
      "Ġembracing": 3728,
      "ias": 3729,
      "Ġemail": 3730,
      "Ġtrying": 3731,
      "Ġquite": 3732,
      "Ġfear": 3733,
      "ĠJes": 3734,
      "Ġtour": 3735,
      "Ġheld": 3736,
      "na": 3737,
      "ĠDry": 3738,
      "ĠTitle": 3739,
      "Ġalone": 3740,
      "Ġmonth": 3741,
      "ĠCO": 3742,
      "Ġvary": 3743,
      "work": 3744,
      "Ġanything": 3745,
      "ĠCheck": 3746,
      "Ġnothing": 3747,
      "Ġprobably": 3748,
      "Ġpublished": 3749,
      "Ġcomprehensive": 3750,
      "estern": 3751,
      "ultane": 3752,
      "Ġgradu": 3753,
      "ersonal": 3754,
      "inate": 3755,
      "uration": 3756,
      "Ġwild": 3757,
      "Ġstyle": 3758,
      "Ġmark": 3759,
      "ĠVal": 3760,
      "Ġbuy": 3761,
      "ĠEnglish": 3762,
      "rag": 3763,
      "ama": 3764,
      "Ġtrack": 3765,
      "set": 3766,
      "itect": 3767,
      "Ġcarefully": 3768,
      "Ġdriving": 3769,
      "Ġversion": 3770,
      "Ġadvantage": 3771,
      "Ġpan": 3772,
      "Ġpurpose": 3773,
      "lean": 3774,
      "Ġvot": 3775,
      "Ġ2010": 3776,
      "ĠâĢĺ": 3777,
      "Ġ```": 3778,
      "ĠOther": 3779,
      "Ġpoor": 3780,
      "Ġdedicated": 3781,
      "Ġprocedures": 3782,
      "Ġmilitary": 3783,
      "He": 3784,
      "Ġfuel": 3785,
      "Ġgold": 3786,
      "issions": 3787,
      "Ġwhose": 3788,
      "ĠJan": 3789,
      "Ġrecently": 3790,
      "iful": 3791,
      "ĠTherefore": 3792,
      "Ġcraf": 3793,
      "ĠCre": 3794,
      "Ġgoes": 3795,
      "Ġreligious": 3796,
      "Ġpieces": 3797,
      "Ġcircumst": 3798,
      "Ġadvoc": 3799,
      "Ġmonitoring": 3800,
      "Ġden": 3801,
      "Ġinstruct": 3802,
      "ĠThus": 3803,
      "plement": 3804,
      "Ġconcern": 3805,
      "Ġconsidering": 3806,
      "Ġtalk": 3807,
      "Ġcommer": 3808,
      "Ġsales": 3809,
      "Ġoffering": 3810,
      "Ġdefin": 3811,
      "Ġdiscover": 3812,
      "ĠInstead": 3813,
      "rastructure": 3814,
      "apan": 3815,
      "Ġdifference": 3816,
      "ĠHist": 3817,
      "Ġtiss": 3818,
      "Ġdog": 3819,
      "roll": 3820,
      "Ġusage": 3821,
      "Ġinsurance": 3822,
      "Ġfaced": 3823,
      "Ġexplaining": 3824,
      "iber": 3825,
      "asting": 3826,
      "Ġstorage": 3827,
      "ĠInternational": 3828,
      "Ġaesthet": 3829,
      "Ġoffered": 3830,
      "Ġimplications": 3831,
      "Ġnegative": 3832,
      "Ġsustainable": 3833,
      "ĠHer": 3834,
      "Ġ<<": 3835,
      "Ġ24": 3836,
      "Ġmal": 3837,
      "lev": 3838,
      "Ġguide": 3839,
      "Lastly": 3840,
      "ae": 3841,
      "Ġwat": 3842,
      "ĠMy": 3843,
      "ĠSimilar": 3844,
      "ban": 3845,
      "orous": 3846,
      "Ġexch": 3847,
      "Ġhandling": 3848,
      "Ġscenarios": 3849,
      "alysis": 3850,
      "ada": 3851,
      "ruit": 3852,
      "gar": 3853,
      "Ġvalid": 3854,
      "Ġexamine": 3855,
      "Ġfactor": 3856,
      "Ġx": 3857,
      "Ġbreat": 3858,
      "Ġconsult": 3859,
      "Ġmix": 3860,
      "Ġguidance": 3861,
      "ĠOb": 3862,
      "Ġplayer": 3863,
      "ĠMus": 3864,
      "Ġcontinuous": 3865,
      "Ġtouch": 3866,
      "Ġconsequ": 3867,
      "Ġdesired": 3868,
      "ĠSm": 3869,
      "Ġscientists": 3870,
      "ĠGl": 3871,
      "Ġsou": 3872,
      "Firstly": 3873,
      "raft": 3874,
      "Ġcommand": 3875,
      "Ġcandid": 3876,
      "rong": 3877,
      "Ġaffor": 3878,
      "Ġtopics": 3879,
      "Ġcauses": 3880,
      "Ġdate": 3881,
      "Ġshape": 3882,
      "Ġtrade": 3883,
      "iding": 3884,
      "ĠCount": 3885,
      "Ġexpectations": 3886,
      "used": 3887,
      "Ġimproving": 3888,
      "airs": 3889,
      "Ġbad": 3890,
      "Ġnetworks": 3891,
      "oday": 3892,
      "ĠWill": 3893,
      "22": 3894,
      "Ġfamiliar": 3895,
      "overn": 3896,
      "Ġstrength": 3897,
      "bor": 3898,
      "ximately": 3899,
      "ĠAust": 3900,
      "Ġshown": 3901,
      "Ġadvantages": 3902,
      "ĠCenter": 3903,
      "Ġstakeholders": 3904,
      "lim": 3905,
      "unction": 3906,
      "being": 3907,
      "book": 3908,
      "eds": 3909,
      "ogle": 3910,
      "Ġnovel": 3911,
      "Ġcarry": 3912,
      "Ġemployees": 3913,
      "Ġalongside": 3914,
      "Ġimprovement": 3915,
      "Ġstage": 3916,
      "ĠFinally": 3917,
      "Ġtrial": 3918,
      "ĠAc": 3919,
      "Ġseek": 3920,
      "formation": 3921,
      "Ġsleep": 3922,
      "Ġcourt": 3923,
      "Ġexercise": 3924,
      "ius": 3925,
      "ativity": 3926,
      "Ġprefer": 3927,
      "Ġwaste": 3928,
      "ided": 3929,
      "Ġsole": 3930,
      "Ġcreative": 3931,
      "ĠJesus": 3932,
      "ana": 3933,
      "Ġmission": 3934,
      "ask": 3935,
      "Ġatmosp": 3936,
      "Ġguidelines": 3937,
      "Ġchannels": 3938,
      "Ġcontinues": 3939,
      "Ġcompetitive": 3940,
      "Ġstarting": 3941,
      "Ġchapter": 3942,
      "Ġcollection": 3943,
      "Ġideas": 3944,
      "Ġunders": 3945,
      "RO": 3946,
      "ĠExt": 3947,
      "Ġsociet": 3948,
      "ĠMany": 3949,
      "overed": 3950,
      "Ġmil": 3951,
      "Ġdevelopers": 3952,
      "Ġreading": 3953,
      "aul": 3954,
      "ifications": 3955,
      "ĠProg": 3956,
      "Ġcenter": 3957,
      "Ġstarted": 3958,
      "uses": 3959,
      "Ġlost": 3960,
      "Ġforces": 3961,
      "Ġformer": 3962,
      "Ġinfrastructure": 3963,
      "orial": 3964,
      "astic": 3965,
      "Ġsites": 3966,
      "Ġsuggests": 3967,
      "Ġconven": 3968,
      "Ġchanging": 3969,
      "Ġcircumstances": 3970,
      "off": 3971,
      "Ġmaintenance": 3972,
      "Ġswe": 3973,
      "Ġyield": 3974,
      "Ġreported": 3975,
      "Ġaudiences": 3976,
      "Ġnor": 3977,
      "Ġanyone": 3978,
      "ĠConsequently": 3979,
      "print": 3980,
      "Ġleadership": 3981,
      "Ġhosp": 3982,
      "Ġhair": 3983,
      "Ġsupply": 3984,
      "Ġattempt": 3985,
      "Ġjewelry": 3986,
      "Ġfine": 3987,
      "ĠDav": 3988,
      "pected": 3989,
      "ounds": 3990,
      "'d": 3991,
      "ĠPar": 3992,
      "vest": 3993,
      "Ġdeal": 3994,
      "Ġadding": 3995,
      "Ġmotiv": 3996,
      "Ġfundament": 3997,
      "cil": 3998,
      "Ġtransl": 3999,
      "Ġreliable": 4000,
      "Is": 4001,
      "Ġrules": 4002,
      "Ġprem": 4003,
      "While": 4004,
      "Ġprospect": 4005,
      "Ġoperating": 4006,
      "Ġder": 4007,
      "Ġdead": 4008,
      "Ġprepar": 4009,
      "Ġfederal": 4010,
      "Ġreturns": 4011,
      "Ġconsideration": 4012,
      "Ġmemory": 4013,
      "Ġcitizens": 4014,
      "Ġimages": 4015,
      "ĠJust": 4016,
      "Ġrecip": 4017,
      "Ġcapacity": 4018,
      "Ġfinding": 4019,
      "And": 4020,
      "bit": 4021,
      "Ġfem": 4022,
      "Ġmount": 4023,
      "Ġpen": 4024,
      "Ġsymb": 4025,
      "athy": 4026,
      "Ġmag": 4027,
      "Ġworldwide": 4028,
      "Ġearth": 4029,
      "Ġball": 4030,
      "life": 4031,
      "Ġcreation": 4032,
      "rench": 4033,
      "Ġexactly": 4034,
      "ĠJapan": 4035,
      "Ġfiles": 4036,
      "Ġdescribed": 4037,
      "Ġlik": 4038,
      "ĠMod": 4039,
      "ĠEduc": 4040,
      "Ġpursu": 4041,
      "ultaneously": 4042,
      "ED": 4043,
      "Ġleave": 4044,
      "Ġcontributing": 4045,
      "rence": 4046,
      "Ġworkers": 4047,
      "faction": 4048,
      "PA": 4049,
      "Ġgiving": 4050,
      "ĠDo": 4051,
      "estic": 4052,
      "Ġprocessing": 4053,
      "Ġunderlying": 4054,
      "Ġchoices": 4055,
      "Ġconcepts": 4056,
      "ĠDuring": 4057,
      "itness": 4058,
      "Ġinfluenc": 4059,
      "Ġwent": 4060,
      "ĠProv": 4061,
      "Ġstore": 4062,
      "usion": 4063,
      "ĠDet": 4064,
      "Ġparticipants": 4065,
      "Ġsituations": 4066,
      "Ġ2011": 4067,
      "level": 4068,
      "Ġacknow": 4069,
      "Ġconcent": 4070,
      "Ġintegration": 4071,
      "Ġalg": 4072,
      "Ġinherent": 4073,
      "Ġgather": 4074,
      "mental": 4075,
      "Ġweak": 4076,
      "Ġdiet": 4077,
      "Ġinvesting": 4078,
      "Conclusion": 4079,
      "Ġsevere": 4080,
      "ĠBritish": 4081,
      "Ġnote": 4082,
      "Ġelectric": 4083,
      "Ġdepend": 4084,
      "Ġmid": 4085,
      "ensions": 4086,
      "Ġinteractions": 4087,
      "ented": 4088,
      "ĠCommun": 4089,
      "eria": 4090,
      "eline": 4091,
      "Ġregulations": 4092,
      "Ġsensitive": 4093,
      "Ġmother": 4094,
      "Ġsports": 4095,
      "IV": 4096,
      "compass": 4097,
      "ttp": 4098,
      "Ġcool": 4099,
      "Ġ40": 4100,
      "eters": 4101,
      "Ġexhib": 4102,
      "Ġactual": 4103,
      "ĠChar": 4104,
      "Ġpreserv": 4105,
      "Ġinternal": 4106,
      "ĠSchool": 4107,
      "ĠKe": 4108,
      "Ġcontroll": 4109,
      "Ġrelease": 4110,
      "ĠPresident": 4111,
      "Ġcater": 4112,
      "arant": 4113,
      "uge": 4114,
      "Ġbrought": 4115,
      "Ġproviders": 4116,
      "Ġobtain": 4117,
      "Ġreliability": 4118,
      "Ġsmooth": 4119,
      "key": 4120,
      "ipped": 4121,
      "Ġlogic": 4122,
      "Ġarchitect": 4123,
      "Ġath": 4124,
      "Ġelev": 4125,
      "ky": 4126,
      "Ġshif": 4127,
      "Ġfeet": 4128,
      "hand": 4129,
      "Ġfish": 4130,
      "olit": 4131,
      "osen": 4132,
      "roduction": 4133,
      "Ġfasc": 4134,
      "Ġsoon": 4135,
      "Ġcontains": 4136,
      "Ġnation": 4137,
      "rows": 4138,
      "###": 4139,
      "Ġthous": 4140,
      "Ġapply": 4141,
      "Ġcomponent": 4142,
      "Ġmechanisms": 4143,
      "Ġfast": 4144,
      "ĠPat": 4145,
      "efore": 4146,
      "Ġencourage": 4147,
      "Ġfeedback": 4148,
      "Com": 4149,
      "ups": 4150,
      "iny": 4151,
      "\";": 4152,
      "Ġmagn": 4153,
      "ĠKing": 4154,
      "Ġrequiring": 4155,
      "Ġwid": 4156,
      "Ġfarm": 4157,
      "Ġreson": 4158,
      "Ġprimarily": 4159,
      "40": 4160,
      "gn": 4161,
      "iers": 4162,
      "ought": 4163,
      "IC": 4164,
      "itors": 4165,
      "rics": 4166,
      "Ġaudience": 4167,
      "Ġtact": 4168,
      "ĠAut": 4169,
      "Ġalthough": 4170,
      "Ġflexibility": 4171,
      "coh": 4172,
      "oly": 4173,
      "ĠScience": 4174,
      "Ġobjects": 4175,
      "enty": 4176,
      "ocks": 4177,
      "ĠRuss": 4178,
      "ĠInter": 4179,
      "Ġemerging": 4180,
      "Ġclosely": 4181,
      "inations": 4182,
      "Ġlaun": 4183,
      "Ġowners": 4184,
      "Ġesc": 4185,
      "ĠAv": 4186,
      "Ġspaces": 4187,
      "Ġdefine": 4188,
      "Ġaffected": 4189,
      "pe": 4190,
      "Ġtests": 4191,
      "sect": 4192,
      "ĠEast": 4193,
      "Ġintellig": 4194,
      "Ġdang": 4195,
      "Ġsmaller": 4196,
      "Ġfilm": 4197,
      "Ġfalse": 4198,
      "Ġexcess": 4199,
      "ĠBar": 4200,
      "Ġincluded": 4201,
      "Ġcommercial": 4202,
      "Ġdemonstrate": 4203,
      "uary": 4204,
      "ĠEv": 4205,
      "Ġdecre": 4206,
      "egin": 4207,
      "Ġcollective": 4208,
      "Ġreven": 4209,
      "US": 4210,
      "Ġhyd": 4211,
      "Ġdynamic": 4212,
      "ĠEurope": 4213,
      "ĠCor": 4214,
      "AL": 4215,
      "amples": 4216,
      "Ġexperts": 4217,
      "Ġattribut": 4218,
      "Ġvariety": 4219,
      "iforn": 4220,
      "Ġattack": 4221,
      "ĠEngine": 4222,
      "ĠSw": 4223,
      "Ġcoord": 4224,
      "ĠUnderstanding": 4225,
      "Ġtheory": 4226,
      "Ġhyp": 4227,
      "Ġdetailed": 4228,
      "ris": 4229,
      "ilos": 4230,
      "Ġcutting": 4231,
      "Ġmanufacture": 4232,
      "Ġdistribution": 4233,
      "ution": 4234,
      "Ġenhanced": 4235,
      "ĠArt": 4236,
      "hus": 4237,
      "Ġneigh": 4238,
      "ĠOff": 4239,
      "Ġreports": 4240,
      "Ġupdates": 4241,
      "ĠGoogle": 4242,
      "esty": 4243,
      "Ġfrequently": 4244,
      "ibly": 4245,
      "coming": 4246,
      "ĠMc": 4247,
      "Ġassign": 4248,
      "Ġreceived": 4249,
      "Ġaccurate": 4250,
      "Ġbudget": 4251,
      "EO": 4252,
      "Ġencompass": 4253,
      "Ġ2008": 4254,
      "Ġbirth": 4255,
      "Ġdemands": 4256,
      "Ġboundaries": 4257,
      "ĠDepartment": 4258,
      "Ġafford": 4259,
      "Ġbeautiful": 4260,
      "Ġframew": 4261,
      "ystem": 4262,
      "Ġsequ": 4263,
      "ĠJu": 4264,
      "Ġbecoming": 4265,
      "ĠChina": 4266,
      "Ġquant": 4267,
      "Ġtransact": 4268,
      "Ġtransportation": 4269,
      "ĠAng": 4270,
      "Ġtransfer": 4271,
      "Ġpopulations": 4272,
      "ĠSimilarly": 4273,
      "Ġperhaps": 4274,
      "ĠAug": 4275,
      "Ġappreciate": 4276,
      "Ġ,": 4277,
      "Ġpow": 4278,
      "Ġapproximately": 4279,
      "Ġequal": 4280,
      "ĠSocial": 4281,
      "ĠImplement": 4282,
      "Ġegg": 4283,
      "Ġvision": 4284,
      "endly": 4285,
      "aur": 4286,
      "Ġnearly": 4287,
      "Ġpriorit": 4288,
      "Ġstop": 4289,
      "Ġvit": 4290,
      "Ġconfig": 4291,
      "Ġdialogue": 4292,
      "rant": 4293,
      "isl": 4294,
      "otal": 4295,
      "Ġmitig": 4296,
      "Ġdark": 4297,
      "Ġconfidence": 4298,
      "tion": 4299,
      "ĠCity": 4300,
      "Ġversat": 4301,
      "onic": 4302,
      "Ġbooks": 4303,
      "Ġincome": 4304,
      "Ġparty": 4305,
      "Ġmachine": 4306,
      "24": 4307,
      "Ġpharm": 4308,
      "Ġsurpr": 4309,
      "Ġmobile": 4310,
      "ifornia": 4311,
      "Us": 4312,
      "rest": 4313,
      "Ġang": 4314,
      "Ġfight": 4315,
      "Ġdecl": 4316,
      "Ġexamining": 4317,
      "Ġappeal": 4318,
      "Ġclient": 4319,
      "Ġcompetition": 4320,
      "cles": 4321,
      "Ġconstruction": 4322,
      "Ġfix": 4323,
      "Ġunf": 4324,
      "while": 4325,
      "ĠEuropean": 4326,
      "OR": 4327,
      "Ġcred": 4328,
      "Ġpractical": 4329,
      "zy": 4330,
      "Ġserious": 4331,
      "Ġsac": 4332,
      "orith": 4333,
      "isp": 4334,
      "Ġallowed": 4335,
      "poses": 4336,
      "Ġlayer": 4337,
      "Ġnotable": 4338,
      "Ġadvent": 4339,
      "Ġmo": 4340,
      "Ġcreativity": 4341,
      "chol": 4342,
      "Ġproduced": 4343,
      "Ġhous": 4344,
      "Ġintricate": 4345,
      "alle": 4346,
      "Ġfields": 4347,
      "Ġcraft": 4348,
      "80": 4349,
      "Ġhit": 4350,
      "ĠAnt": 4351,
      "Ġchance": 4352,
      "Ġlocated": 4353,
      "Ġskill": 4354,
      "Ġexpected": 4355,
      "ĠOnce": 4356,
      "Ġsatisfaction": 4357,
      "Of": 4358,
      "Sh": 4359,
      "Ġnames": 4360,
      "Ġconstitut": 4361,
      "Ġpredict": 4362,
      "Ġinterpret": 4363,
      "Ġconvent": 4364,
      "Ġexpression": 4365,
      "ĠIndia": 4366,
      "ushing": 4367,
      "Ġestim": 4368,
      "ĠAssoci": 4369,
      "Ġconsequences": 4370,
      "Ġroot": 4371,
      "Ġappreciation": 4372,
      "Ġsubstantial": 4373,
      "Ġpet": 4374,
      "uman": 4375,
      "ocation": 4376,
      "ĠRed": 4377,
      "Ġsupporting": 4378,
      "Ġprices": 4379,
      "Ġopin": 4380,
      "Ġmerely": 4381,
      "uro": 4382,
      "Ġcarbon": 4383,
      "Ġreasons": 4384,
      "cean": 4385,
      "Ġseparate": 4386,
      "Ġasp": 4387,
      "OT": 4388,
      "ino": 4389,
      "Ġnuc": 4390,
      "Ġdelic": 4391,
      "Ġ...": 4392,
      "ocal": 4393,
      "Ġunivers": 4394,
      "Ġevolution": 4395,
      "Ġenthus": 4396,
      "Ġsimultaneously": 4397,
      "Ġfoundation": 4398,
      "icians": 4399,
      "Ġleads": 4400,
      "ception": 4401,
      "ĠIndian": 4402,
      "ĠWest": 4403,
      "Ġideal": 4404,
      "Ġbehavi": 4405,
      "reet": 4406,
      "Ġmarkets": 4407,
      "Ġfocused": 4408,
      "60": 4409,
      "itor": 4410,
      "Ġmole": 4411,
      "Ġfollowed": 4412,
      "Ġerr": 4413,
      "urg": 4414,
      "Ġtechnique": 4415,
      "ares": 4416,
      "Ġvent": 4417,
      "Ġexceptional": 4418,
      "Ġgraph": 4419,
      "Ġrein": 4420,
      "Ġ2009": 4421,
      "Ġerror": 4422,
      "AM": 4423,
      "idential": 4424,
      "Ġpolitics": 4425,
      "load": 4426,
      "Ġexcellent": 4427,
      "eks": 4428,
      "edom": 4429,
      "Ġanti": 4430,
      "aid": 4431,
      "ene": 4432,
      "Ġchoosing": 4433,
      "ued": 4434,
      "Ġlength": 4435,
      "Ġsexual": 4436,
      "ingu": 4437,
      "edia": 4438,
      "Ġarts": 4439,
      "Ġnecessit": 4440,
      "ĠGuid": 4441,
      "arian": 4442,
      "Ġminimize": 4443,
      "Ġhom": 4444,
      "Ġcorresp": 4445,
      "Ġsea": 4446,
      "ĠEd": 4447,
      "Ġotherwise": 4448,
      "Ġoffice": 4449,
      "En": 4450,
      "Ġasked": 4451,
      "ounter": 4452,
      "Ġdifferences": 4453,
      "Ġpurposes": 4454,
      "Ġstability": 4455,
      "erate": 4456,
      "icit": 4457,
      "see": 4458,
      "Ġsyn": 4459,
      "iately": 4460,
      "Ġpresents": 4461,
      "Ġguarant": 4462,
      "Ġrepl": 4463,
      "Ġdemonstrates": 4464,
      "Ġnavigating": 4465,
      "Ġhumans": 4466,
      "Ġdepth": 4467,
      "Ġheight": 4468,
      "acters": 4469,
      "Ġconsumer": 4470,
      "Ġload": 4471,
      "Ġdouble": 4472,
      "Ġingredients": 4473,
      "cons": 4474,
      "Ġahead": 4475,
      "Ġlic": 4476,
      "cohol": 4477,
      "Ġcompat": 4478,
      "ditions": 4479,
      "Ġevolving": 4480,
      "Ġhelping": 4481,
      "ĠStr": 4482,
      "iration": 4483,
      "Ġask": 4484,
      "Ġrepe": 4485,
      "Ġinfl": 4486,
      "oses": 4487,
      "Ġsaw": 4488,
      "Ġdiscussion": 4489,
      "Ġethical": 4490,
      "Ġfacilitate": 4491,
      "rew": 4492,
      "Ġeconomy": 4493,
      "Ġrecognize": 4494,
      "Ġforeign": 4495,
      "ĠIS": 4496,
      "ĠThen": 4497,
      "uing": 4498,
      "Ġbab": 4499,
      "Ġrise": 4500,
      "Ġfootball": 4501,
      "Ġresistance": 4502,
      "Ġcontaining": 4503,
      "Ġbeauty": 4504,
      "idden": 4505,
      "Ġopening": 4506,
      "Ġexciting": 4507,
      "Ġmoving": 4508,
      "inated": 4509,
      "Ġlibr": 4510,
      "ĠBo": 4511,
      "Ġcoming": 4512,
      "ĠLaw": 4513,
      "ĠCalifornia": 4514,
      "Ġremote": 4515,
      "ken": 4516,
      "Ġox": 4517,
      "ĠInstitute": 4518,
      "Ġpul": 4519,
      "ricult": 4520,
      "ĠLow": 4521,
      "ĠOct": 4522,
      "Ġbarri": 4523,
      "Ġfresh": 4524,
      "ags": 4525,
      "Ġassistance": 4526,
      "Ġadds": 4527,
      "Ġsolely": 4528,
      "ĠWeb": 4529,
      "Pr": 4530,
      "gy": 4531,
      "oke": 4532,
      "Ġroad": 4533,
      "undred": 4534,
      "cious": 4535,
      "ague": 4536,
      "aint": 4537,
      "Ġabilities": 4538,
      "Ġ2007": 4539,
      "No": 4540,
      "Ġmetal": 4541,
      "ĠAustral": 4542,
      "Ġspecialized": 4543,
      "Ġselecting": 4544,
      "urrent": 4545,
      "ĠCong": 4546,
      "abet": 4547,
      "Ġsched": 4548,
      "useum": 4549,
      "Ġinjury": 4550,
      "Ġstri": 4551,
      "amb": 4552,
      "Ġtold": 4553,
      "unt": 4554,
      "Ġregional": 4555,
      "Ġdynamics": 4556,
      "Ġalgorith": 4557,
      "With": 4558,
      "uine": 4559,
      "ĠAnalysis": 4560,
      "CH": 4561,
      "water": 4562,
      "Ġreality": 4563,
      "Ġhear": 4564,
      "Ġselection": 4565,
      "Ġsurg": 4566,
      "Ġbox": 4567,
      "Ġappears": 4568,
      "Ġanimal": 4569,
      "=\"": 4570,
      "eries": 4571,
      "active": 4572,
      "Ġacademic": 4573,
      "Ġminimizing": 4574,
      "Ġtask": 4575,
      "inent": 4576,
      "atically": 4577,
      "Ġdedication": 4578,
      "Ġcopy": 4579,
      "unately": 4580,
      "Ġunw": 4581,
      "Ġkeeping": 4582,
      "Ġbodies": 4583,
      "Ġstraight": 4584,
      "ht": 4585,
      "alt": 4586,
      "Ġvirtual": 4587,
      "do": 4588,
      "ĠWashing": 4589,
      "ecause": 4590,
      "Ġconsumption": 4591,
      "Ġwrong": 4592,
      "Ġanx": 4593,
      "Ġencourages": 4594,
      "year": 4595,
      "Ġgenetic": 4596,
      "Ġfindings": 4597,
      "Ġbeginning": 4598,
      "Ġannoun": 4599,
      "lements": 4600,
      "Ġinstru": 4601,
      "Ġsem": 4602,
      "idity": 4603,
      "fl": 4604,
      "Ġvast": 4605,
      "Ġthemes": 4606,
      "Ġcurrently": 4607,
      "Ġcompar": 4608,
      "ĠNow": 4609,
      "Ġfigure": 4610,
      "Ġbul": 4611,
      "Ġmer": 4612,
      "Ġwood": 4613,
      "Ġbank": 4614,
      "aming": 4615,
      "---": 4616,
      "ĠMarch": 4617,
      "ĠDem": 4618,
      "Ġdistance": 4619,
      "Ġ2013": 4620,
      "Ġpassage": 4621,
      "Ġaccordingly": 4622,
      "Ġfundamental": 4623,
      "Ġcorpor": 4624,
      "Ġrecommended": 4625,
      "icity": 4626,
      "Ġment": 4627,
      "Ġcreates": 4628,
      "Ġslight": 4629,
      "ĠBoth": 4630,
      "Ġrare": 4631,
      "ixt": 4632,
      "Ġourselves": 4633,
      "Ġartists": 4634,
      "Ġobjectives": 4635,
      "Ġgender": 4636,
      "Ġleaving": 4637,
      "Ġtechnological": 4638,
      "Write": 4639,
      "Ġenforce": 4640,
      "Ġcontrast": 4641,
      "Ġtow": 4642,
      "ĠMain": 4643,
      "Re": 4644,
      "Ġsong": 4645,
      "Ġplaces": 4646,
      "iant": 4647,
      "ĠPress": 4648,
      "Ġoffic": 4649,
      "Ġoverl": 4650,
      "Ġgenuine": 4651,
      "Ġdiscussions": 4652,
      "ham": 4653,
      "essor": 4654,
      "Ġgenerations": 4655,
      "ront": 4656,
      "ha": 4657,
      "utical": 4658,
      "Ġserver": 4659,
      "Ġcalls": 4660,
      "Ġdiseases": 4661,
      "Ġreveal": 4662,
      "bl": 4663,
      "Ġalt": 4664,
      "Ġgenerate": 4665,
      "hest": 4666,
      "Ġchosen": 4667,
      "Ġjustice": 4668,
      "Ġmember": 4669,
      "Ġindustries": 4670,
      "Ġrigorous": 4671,
      "nel": 4672,
      "Ġexperiment": 4673,
      "amil": 4674,
      "Ġpoll": 4675,
      "prove": 4676,
      "iat": 4677,
      "Ġremov": 4678,
      "Ġcharacters": 4679,
      "ographic": 4680,
      "De": 4681,
      "lig": 4682,
      "ĠFrench": 4683,
      "IM": 4684,
      "Â°": 4685,
      "Ġsigns": 4686,
      "Le": 4687,
      "Ġprove": 4688,
      "ĠAre": 4689,
      "Ġ21": 4690,
      "ĠOf": 4691,
      "Ġpregn": 4692,
      "Ġconsistently": 4693,
      "Ġsymbol": 4694,
      "Sp": 4695,
      "aceutical": 4696,
      "Ġfosters": 4697,
      "Ġphen": 4698,
      "Ġvibr": 4699,
      "Ġassist": 4700,
      "Ġaims": 4701,
      "Ġperspective": 4702,
      "Ġancient": 4703,
      "Ġbott": 4704,
      "que": 4705,
      "ĠGovern": 4706,
      "Ġrequest": 4707,
      "Ġminor": 4708,
      "Ġnamed": 4709,
      "thern": 4710,
      "mitted": 4711,
      "Ġwoman": 4712,
      "Ġupdate": 4713,
      "Ġimmediately": 4714,
      "))": 4715,
      "Ġnegot": 4716,
      "Ġcrypt": 4717,
      "Ġking": 4718,
      "Ġcold": 4719,
      "othing": 4720,
      "Ġassum": 4721,
      "Ġconsent": 4722,
      "Ġoccas": 4723,
      "Ġsan": 4724,
      "Ġolder": 4725,
      "Ġillness": 4726,
      "Im": 4727,
      "Ġmeeting": 4728,
      "Ġrapidly": 4729,
      "Ġinteresting": 4730,
      "Ġmedium": 4731,
      "Ġshowc": 4732,
      "Ġpicture": 4733,
      "Ġathlet": 4734,
      "Ġelement": 4735,
      "Ġblog": 4736,
      "Ġmatters": 4737,
      "OS": 4738,
      "lines": 4739,
      "Ġgives": 4740,
      "Ġgeneration": 4741,
      "Ġprotein": 4742,
      "ulated": 4743,
      "ĠSee": 4744,
      "Ġaren": 4745,
      "Ġcomplexity": 4746,
      "Ġreplace": 4747,
      "Ġsold": 4748,
      "Ġweeks": 4749,
      "Ġagencies": 4750,
      "Ġuseful": 4751,
      "lam": 4752,
      "Ġtown": 4753,
      "ĠEnc": 4754,
      "ĠIsra": 4755,
      "Ġregularly": 4756,
      "Ġapplied": 4757,
      "Ġeasier": 4758,
      "Ġidentifying": 4759,
      "ĠProfessional": 4760,
      "Ġatmosphere": 4761,
      "Ġdoctor": 4762,
      "Ġpresented": 4763,
      "Ġheavy": 4764,
      "Ġmaximum": 4765,
      "Ġtree": 4766,
      "pril": 4767,
      "Ġcausing": 4768,
      "Ġhundred": 4769,
      "omb": 4770,
      "------------": 4771,
      "Ġformat": 4772,
      "Ġemergency": 4773,
      "ĠEducation": 4774,
      "iety": 4775,
      "Ġpun": 4776,
      "Ġtherefore": 4777,
      "ĠVir": 4778,
      "Ġbed": 4779,
      "Ġrock": 4780,
      "Ġimpacts": 4781,
      "Ġdiversity": 4782,
      "Ġincreases": 4783,
      "ĠProt": 4784,
      "known": 4785,
      "www": 4786,
      "ses": 4787,
      "Ġfirm": 4788,
      "Ġbeg": 4789,
      "Ġsuppl": 4790,
      "Ġthreats": 4791,
      "iling": 4792,
      "Ġplayed": 4793,
      "ĠSept": 4794,
      "Ġanalyt": 4795,
      "ĠĊĠĠĠĠĠĠĠ": 4796,
      "Ġdire": 4797,
      "ĠMost": 4798,
      "Ġphilos": 4799,
      "Ġrecognition": 4800,
      "Cl": 4801,
      "Ġpret": 4802,
      "Ġmessages": 4803,
      "Ġsummer": 4804,
      "Ġdelivering": 4805,
      "PS": 4806,
      "Ġtap": 4807,
      "Ġsave": 4808,
      "Ġ60": 4809,
      "Ġroutine": 4810,
      "rial": 4811,
      "Ġdivid": 4812,
      "Ġunit": 4813,
      "Ġunex": 4814,
      "Ġimmediate": 4815,
      "Ġcorrespond": 4816,
      "ĠWashington": 4817,
      "Ġranging": 4818,
      "Ġspent": 4819,
      "Ġphone": 4820,
      "ams": 4821,
      "ĠUN": 4822,
      "Ġregions": 4823,
      "Ġdesigns": 4824,
      "Ġdegree": 4825,
      "yth": 4826,
      "Ġattend": 4827,
      "Ġelim": 4828,
      "Ġachieving": 4829,
      "Ġcloud": 4830,
      "aker": 4831,
      "Ġintegrating": 4832,
      "Ġvictim": 4833,
      "char": 4834,
      "Ġ23": 4835,
      "faces": 4836,
      "Ġaw": 4837,
      "Un": 4838,
      "anch": 4839,
      "Ġperiods": 4840,
      "rol": 4841,
      "sts": 4842,
      "Ġshift": 4843,
      "Ġoccup": 4844,
      "Ġjournal": 4845,
      "Ġaid": 4846,
      "Ġfans": 4847,
      "acing": 4848,
      "avors": 4849,
      "Ġgets": 4850,
      "Ġ&&": 4851,
      "ĠAfrican": 4852,
      "Ġsolar": 4853,
      "Ġcompletely": 4854,
      "!\"": 4855,
      "ĠDon": 4856,
      "Ġclinical": 4857,
      "Ġpray": 4858,
      "Ġteachers": 4859,
      "Ġrule": 4860,
      "Ġencouraging": 4861,
      "ygiene": 4862,
      "Ġsmart": 4863,
      "Ġveget": 4864,
      "Ġsessions": 4865,
      "ĠII": 4866,
      "ipping": 4867,
      "Ġeventually": 4868,
      "Ġturned": 4869,
      "uilding": 4870,
      "Ġcompelling": 4871,
      "Ġimpressive": 4872,
      "Ġbillion": 4873,
      "ffective": 4874,
      "Ġbacter": 4875,
      "Ġloyal": 4876,
      "Ġteaching": 4877,
      "house": 4878,
      "vity": 4879,
      "world": 4880,
      "uk": 4881,
      "ĠToday": 4882,
      "anges": 4883,
      "ĠAdd": 4884,
      "Ġproductivity": 4885,
      "64": 4886,
      "po": 4887,
      "son": 4888,
      "vis": 4889,
      "Ġmast": 4890,
      "Ġdro": 4891,
      "raw": 4892,
      "ĠJour": 4893,
      "Ġkids": 4894,
      "Ġutilizing": 4895,
      "Ġmedicine": 4896,
      "Ġ22": 4897,
      "ĠDespite": 4898,
      "ĠEns": 4899,
      "Ġlatest": 4900,
      "Ġlegisl": 4901,
      "Ġcriteria": 4902,
      "Ġdental": 4903,
      "Ġmel": 4904,
      "Ġinterested": 4905,
      "Ġoccurs": 4906,
      "Ġgrant": 4907,
      "iot": 4908,
      "Ġice": 4909,
      "arity": 4910,
      "Ġcontributes": 4911,
      "ĠMedic": 4912,
      "Ġstaying": 4913,
      "iter": 4914,
      "orrow": 4915,
      "ĠCour": 4916,
      "Ġband": 4917,
      "ellect": 4918,
      "Ġprecise": 4919,
      ".'": 4920,
      "atur": 4921,
      "Ġecho": 4922,
      "ĠMarket": 4923,
      "ĠPark": 4924,
      "Ġheard": 4925,
      "Ġemotions": 4926,
      "fri": 4927,
      "rich": 4928,
      "ondon": 4929,
      "UR": 4930,
      "Ġcert": 4931,
      "Ġlever": 4932,
      "Ġclub": 4933,
      "Ġsignal": 4934,
      "Ġprotocol": 4935,
      "Ġregardless": 4936,
      "mat": 4937,
      "ett": 4938,
      "Ġperce": 4939,
      "ĠJune": 4940,
      "Ġoperation": 4941,
      "dr": 4942,
      "dent": 4943,
      "ĠMore": 4944,
      "Ġappearance": 4945,
      "Ġcharacteristics": 4946,
      "Ġadvert": 4947,
      "ommod": 4948,
      "Ġplaced": 4949,
      "ĠJava": 4950,
      "Ġremark": 4951,
      "Ġdecades": 4952,
      "egu": 4953,
      "era": 4954,
      "ĠTips": 4955,
      "Ġspect": 4956,
      "Ġconsiderations": 4957,
      "Ġprepared": 4958,
      "Ġplaying": 4959,
      "anning": 4960,
      "Ġmouth": 4961,
      "Ġgar": 4962,
      "Ġstands": 4963,
      "ĠUt": 4964,
      "Ġliqu": 4965,
      "ĠFeb": 4966,
      "Ġidentified": 4967,
      "Ġcalculate": 4968,
      "outs": 4969,
      "Ġisol": 4970,
      "ishes": 4971,
      "ĠMaking": 4972,
      "Ġexploration": 4973,
      "Ġexamples": 4974,
      "Ġadvice": 4975,
      "afety": 4976,
      "Ġinjuries": 4977,
      "ula": 4978,
      "Ġassets": 4979,
      "Ġentertain": 4980,
      "roduct": 4981,
      "Ġscene": 4982,
      "Ġcleaning": 4983,
      "osystem": 4984,
      "ieved": 4985,
      "Ġamb": 4986,
      "Ġmutual": 4987,
      "ĠSince": 4988,
      "ĠOrgan": 4989,
      "Ġintegrity": 4990,
      "des": 4991,
      "Ġfather": 4992,
      "Ġbelong": 4993,
      "orporate": 4994,
      "Ġcollege": 4995,
      "Ġhabit": 4996,
      "oles": 4997,
      "ĠIN": 4998,
      "Ġserving": 4999,
      "Ġfilled": 5000,
      "ĠHouse": 5001,
      "Ġintervention": 5002,
      "ovember": 5003,
      "Ġfacilities": 5004,
      "Finally": 5005,
      "Ġple": 5006,
      "Ġadequ": 5007,
      "Ġwebsites": 5008,
      "Ġadvancements": 5009,
      "ocument": 5010,
      "ĠData": 5011,
      "Ġdisorders": 5012,
      "Ġtreatments": 5013,
      "ndom": 5014,
      "Ġvill": 5015,
      "Ġfascinating": 5016,
      "Ġdri": 5017,
      "Ġtruth": 5018,
      "Ġcampaigns": 5019,
      "Ġmiles": 5020,
      "Ġconv": 5021,
      "Ġtrig": 5022,
      "Ġscale": 5023,
      "Ġpositions": 5024,
      "Ġpassion": 5025,
      "Ġseemingly": 5026,
      "Ġindicating": 5027,
      "Ġcoverage": 5028,
      "32": 5029,
      "tery": 5030,
      "ĠOut": 5031,
      "Ġwellbeing": 5032,
      "Ġclaims": 5033,
      "Ġscreen": 5034,
      "Ġvoice": 5035,
      "pat": 5036,
      "Ġschol": 5037,
      "ĠPM": 5038,
      "Ġdefault": 5039,
      "board": 5040,
      "icul": 5041,
      "unning": 5042,
      "Ġpassed": 5043,
      "199": 5044,
      "ica": 5045,
      "acking": 5046,
      "Ġwealth": 5047,
      "ĠKey": 5048,
      "Ġclearly": 5049,
      "Ġtissue": 5050,
      "Ġrevenue": 5051,
      "ĠSoci": 5052,
      "ĠRiver": 5053,
      "Ġrelatively": 5054,
      "nes": 5055,
      "Ġsell": 5056,
      "Ġwitness": 5057,
      "ĠSan": 5058,
      "unte": 5059,
      "Ġinterview": 5060,
      "Ġdiscovered": 5061,
      "Ġsimpl": 5062,
      "Ġresponses": 5063,
      "QL": 5064,
      "semb": 5065,
      "roup": 5066,
      "Ġelectr": 5067,
      "uracy": 5068,
      "Ġcul": 5069,
      "Ġseg": 5070,
      "Ġshall": 5071,
      "Ġaccommod": 5072,
      "Ġcoop": 5073,
      "Ġpolice": 5074,
      "Ġrealm": 5075,
      "Ġcombination": 5076,
      "Ġsustainability": 5077,
      "Ġrely": 5078,
      "Ġsche": 5079,
      "ensity": 5080,
      "assion": 5081,
      "Ġupdated": 5082,
      "ĠJuly": 5083,
      "`,": 5084,
      "Ġmoments": 5085,
      "ĠRegular": 5086,
      "ĠCounty": 5087,
      "ĠAugust": 5088,
      "Ġ=>": 5089,
      "Ġviolence": 5090,
      "AC": 5091,
      "Ġcook": 5092,
      "aught": 5093,
      "Ġdirection": 5094,
      "cember": 5095,
      "Ġgun": 5096,
      "Ġwaters": 5097,
      "tra": 5098,
      "edge": 5099,
      "Ġspot": 5100,
      "ĠChild": 5101,
      "Ġentry": 5102,
      "Ġregulatory": 5103,
      "35": 5104,
      "AP": 5105,
      "Ġwrite": 5106,
      "Ġeight": 5107,
      "antic": 5108,
      "Ġsafegu": 5109,
      "Ġlessons": 5110,
      "Ġalternatives": 5111,
      "Ph": 5112,
      "hab": 5113,
      "ĠPublic": 5114,
      "Ġready": 5115,
      "Ġconnected": 5116,
      "road": 5117,
      "ĠAS": 5118,
      "ĠMich": 5119,
      "Ġflo": 5120,
      "Ġdeli": 5121,
      "ĠGuidelines": 5122,
      "Ġobst": 5123,
      "ĠProgram": 5124,
      "Ġrelative": 5125,
      "Ġconstra": 5126,
      "Ġfacing": 5127,
      "Ġreleased": 5128,
      "Ġvehicle": 5129,
      "ocratic": 5130,
      "Ġpreserving": 5131,
      "Ġappoint": 5132,
      "Ġcommonly": 5133,
      "related": 5134,
      "ĠAtt": 5135,
      "Ġlisten": 5136,
      "Ġfigures": 5137,
      "ĠDay": 5138,
      "ĠRel": 5139,
      "nee": 5140,
      "Ġgained": 5141,
      "Ġacknowled": 5142,
      "Ġconcerning": 5143,
      "Ġdelivery": 5144,
      "ero": 5145,
      "ĠVol": 5146,
      "ĠDavid": 5147,
      "Ġsoph": 5148,
      "Ġparent": 5149,
      "lege": 5150,
      "igration": 5151,
      "Ġwear": 5152,
      "inding": 5153,
      "Ġprogramming": 5154,
      "Ġefficiently": 5155,
      "then": 5156,
      "Ġic": 5157,
      "Ġregist": 5158,
      "Ġdemonstrated": 5159,
      "Ġconventional": 5160,
      "Ġstock": 5161,
      "hern": 5162,
      "Ġdetect": 5163,
      "ĠUsing": 5164,
      "29": 5165,
      "mm": 5166,
      "Ġeat": 5167,
      "Ġdefined": 5168,
      "Ġfreedom": 5169,
      "ĠJewish": 5170,
      "ython": 5171,
      "Ġsort": 5172,
      "arter": 5173,
      "Ġexpans": 5174,
      "Ġadministr": 5175,
      "opping": 5176,
      "Ġalcohol": 5177,
      "ĠMr": 5178,
      "Ġextensive": 5179,
      "prof": 5180,
      "ĠApril": 5181,
      "Ġfulf": 5182,
      "Ġannual": 5183,
      "Ġphenomen": 5184,
      "TM": 5185,
      "ĠTest": 5186,
      "Ġdocuments": 5187,
      "Ġlimitations": 5188,
      "Ġsocietal": 5189,
      "rees": 5190,
      "Ġsuccessfully": 5191,
      "Ġmonitor": 5192,
      "ĠDefine": 5193,
      "Ġexchange": 5194,
      "Ġaccompl": 5195,
      "ĠRob": 5196,
      "rick": 5197,
      "olved": 5198,
      "Ġfeeling": 5199,
      "Ġinteraction": 5200,
      "Ġconsole": 5201,
      "45": 5202,
      "lands": 5203,
      "ico": 5204,
      "urd": 5205,
      "ĠUltimately": 5206,
      "Ġbehaviors": 5207,
      "Ġintent": 5208,
      "ĠAmericans": 5209,
      "Ġsector": 5210,
      "Ġofficials": 5211,
      "70": 5212,
      "Cre": 5213,
      "These": 5214,
      "Ġlasting": 5215,
      "Ġanalyzing": 5216,
      "Ġevaluate": 5217,
      "pen": 5218,
      "Ġreb": 5219,
      "Ġadults": 5220,
      "Ġnotes": 5221,
      "ĠJanuary": 5222,
      "Ġmoist": 5223,
      "ĠÂ": 5224,
      "Ġrenew": 5225,
      "ĠHand": 5226,
      "Ġroll": 5227,
      "Ġwonder": 5228,
      "Ġintelligence": 5229,
      "ĠBegin": 5230,
      "Ġindependent": 5231,
      "ĠKeep": 5232,
      "ĠSeptember": 5233,
      "Ġunexpected": 5234,
      "ette": 5235,
      "Ġnorth": 5236,
      "eech": 5237,
      "Ġconflict": 5238,
      "ĠRemember": 5239,
      "Ġmist": 5240,
      "Ġvote": 5241,
      "emic": 5242,
      "Ġanticip": 5243,
      "Ġpreviously": 5244,
      "Ġvisitors": 5245,
      "Ġrot": 5246,
      "Ġgene": 5247,
      "Ġecosystem": 5248,
      "ĠFin": 5249,
      "Ġintended": 5250,
      "Ġcove": 5251,
      "Ġarrange": 5252,
      "Ġgir": 5253,
      "Ġsynt": 5254,
      "Ġserved": 5255,
      "Ġbrings": 5256,
      "Ġsaying": 5257,
      "Ġpharmaceutical": 5258,
      "Ġtit": 5259,
      "Ġpit": 5260,
      "Ġencounter": 5261,
      "Ġcommitted": 5262,
      "Ġtransformation": 5263,
      "LL": 5264,
      "Ġap": 5265,
      "Ġqualities": 5266,
      "Ġdura": 5267,
      "Ġsugar": 5268,
      "ĠEst": 5269,
      "Ġaccuracy": 5270,
      "Ġ2006": 5271,
      "Ġvariables": 5272,
      "ara": 5273,
      "riage": 5274,
      "Ġthousands": 5275,
      "Ġnu": 5276,
      "Ġheavily": 5277,
      "ĠAssociation": 5278,
      "Ġmiddle": 5279,
      "Ġstd": 5280,
      "ĠEven": 5281,
      "Ġchecks": 5282,
      "Ġboard": 5283,
      "Ġtrou": 5284,
      "ĠGree": 5285,
      "ĠManagement": 5286,
      "Ġsusp": 5287,
      "ĠAir": 5288,
      "ĠPower": 5289,
      "tee": 5290,
      "Ġperforming": 5291,
      "Ġconducted": 5292,
      "Ġhospital": 5293,
      "Ġgave": 5294,
      "ĠRetr": 5295,
      "ĠLondon": 5296,
      "Ġpresident": 5297,
      "Ġtrend": 5298,
      "Ġmovements": 5299,
      "Ġuncertain": 5300,
      "ibl": 5301,
      "ĠRead": 5302,
      "Ġintellect": 5303,
      "Ġcrim": 5304,
      "flow": 5305,
      "makers": 5306,
      "Ġtransc": 5307,
      "Ġprofound": 5308,
      "umn": 5309,
      "orthern": 5310,
      "Ġdevelopments": 5311,
      "Ġattacks": 5312,
      "Ġfeelings": 5313,
      "Ġpartnerships": 5314,
      "Ġdoub": 5315,
      "Ar": 5316,
      "EC": 5317,
      "pan": 5318,
      "ĠDesign": 5319,
      "Ġarray": 5320,
      "Ġglass": 5321,
      "ND": 5322,
      "Ġwel": 5323,
      "Ġknowing": 5324,
      "Ġcombined": 5325,
      "iosity": 5326,
      "Ġfailure": 5327,
      "mt": 5328,
      "Ġhttp": 5329,
      "ida": 5330,
      "Ġtrib": 5331,
      "Ġtransition": 5332,
      "Ġexamination": 5333,
      "Ġtalent": 5334,
      "ĠRepublic": 5335,
      "abetes": 5336,
      "ĠPaul": 5337,
      "Ġtopic": 5338,
      "Ġviews": 5339,
      "Ġindicate": 5340,
      "ĠCalcul": 5341,
      "ĠSun": 5342,
      "Ġimpl": 5343,
      "Ġagg": 5344,
      "Ġcharge": 5345,
      "Ġstronger": 5346,
      "ĠDevelopment": 5347,
      "Ġign": 5348,
      "Ġcomprom": 5349,
      "Ġrecovery": 5350,
      "ĠConst": 5351,
      "Ġemployed": 5352,
      "Ġinternet": 5353,
      "ĠJournal": 5354,
      "zz": 5355,
      "Ġcrow": 5356,
      "ĠMicro": 5357,
      "Ġteeth": 5358,
      "Ġfeat": 5359,
      "Ġaffecting": 5360,
      "Ġdrugs": 5361,
      "ĠIsrael": 5362,
      "such": 5363,
      "requ": 5364,
      "acies": 5365,
      "ĠWord": 5366,
      "Ġblue": 5367,
      "Ġvariable": 5368,
      "ATE": 5369,
      "Ġeffectiveness": 5370,
      "ĠCanada": 5371,
      "oma": 5372,
      "ĠAP": 5373,
      "ĠDNA": 5374,
      "itage": 5375,
      "rogen": 5376,
      "urren": 5377,
      "Ġoutl": 5378,
      "Ġaccounts": 5379,
      "Ġacid": 5380,
      "Ġlargest": 5381,
      "Ġcompliance": 5382,
      "Ġvibrant": 5383,
      "ĠHere": 5384,
      "Ġamounts": 5385,
      "Ġcoast": 5386,
      "Ġboasts": 5387,
      "MS": 5388,
      "Ġplanet": 5389,
      "26": 5390,
      "ching": 5391,
      "Ġfoods": 5392,
      "Ġban": 5393,
      "==": 5394,
      "Ġcogn": 5395,
      "Ġvacc": 5396,
      "Ġengaged": 5397,
      "Ġpossibilities": 5398,
      "Ġinitially": 5399,
      "eding": 5400,
      "Ġbol": 5401,
      "Ġhop": 5402,
      "Ġinstances": 5403,
      "Ġhighest": 5404,
      "ĠMor": 5405,
      "Ġteach": 5406,
      "Ġdoll": 5407,
      "agers": 5408,
      "ĊĠĠĠĠĊĠĠĠĠĠĠĠ": 5409,
      "Ġinfect": 5410,
      "Ġbarriers": 5411,
      "Ġhealing": 5412,
      "Ġrepresentation": 5413,
      "</": 5414,
      "ros": 5415,
      "ĠDecision": 5416,
      "Ġpattern": 5417,
      "Ġempathy": 5418,
      "Rec": 5419,
      "usiness": 5420,
      "Ġinfection": 5421,
      "Ġstyles": 5422,
      "ĠExtreme": 5423,
      "ĠChurch": 5424,
      "apping": 5425,
      "iology": 5426,
      "Ġult": 5427,
      "apes": 5428,
      "ĠAlso": 5429,
      "Ġdeeply": 5430,
      "Ġcities": 5431,
      "Ġpick": 5432,
      "Ġlinks": 5433,
      "Ġcolon": 5434,
      "Ġhabits": 5435,
      "mary": 5436,
      "ĠCoun": 5437,
      "Ġindustrial": 5438,
      "Ġauthorities": 5439,
      "Ġlayers": 5440,
      "atin": 5441,
      "ĠGreen": 5442,
      "Ġbasis": 5443,
      "Ġargument": 5444,
      "Ġanxiety": 5445,
      "27": 5446,
      "aper": 5447,
      "Ġpal": 5448,
      "Ġwasn": 5449,
      "Ġnutrit": 5450,
      "Ġ26": 5451,
      "eyond": 5452,
      "cies": 5453,
      "ĠPhil": 5454,
      "Ġreputation": 5455,
      "Ġnuclear": 5456,
      "Ġreference": 5457,
      "Ġhidden": 5458,
      "ander": 5459,
      "taining": 5460,
      "Ġremarkable": 5461,
      "ny": 5462,
      "eless": 5463,
      "ogen": 5464,
      "Ġ2005": 5465,
      "ĠIncorporate": 5466,
      "ulating": 5467,
      "Ġchances": 5468,
      "();": 5469,
      "Ġdealing": 5470,
      "Ġreserv": 5471,
      "Ġrelax": 5472,
      "Ġrandom": 5473,
      "Ġworked": 5474,
      "Ġminimum": 5475,
      "Ġpreventing": 5476,
      "Ġenforcement": 5477,
      "TE": 5478,
      "iced": 5479,
      "Ġcountless": 5480,
      "Ġharness": 5481,
      "ĠMat": 5482,
      "ĠPort": 5483,
      "ĠJames": 5484,
      "Ġcontributions": 5485,
      "Ġwanted": 5486,
      "ĠCollege": 5487,
      "DA": 5488,
      "Ġborn": 5489,
      "ĠEnviron": 5490,
      "ĠDeterm": 5491,
      "point": 5492,
      "ĠMal": 5493,
      "ĠMet": 5494,
      "ĠBen": 5495,
      "ĠWilliam": 5496,
      ".;": 5497,
      "ether": 5498,
      "Ġnurt": 5499,
      "Ġdisapp": 5500,
      "mented": 5501,
      "neys": 5502,
      "Ġrecognizing": 5503,
      "ĠBlack": 5504,
      "trans": 5505,
      "Ġenthusi": 5506,
      "Ġstim": 5507,
      "Ġmanip": 5508,
      "Ġrecommendations": 5509,
      "ĠGerman": 5510,
      "nect": 5511,
      "Ġfaster": 5512,
      "Ġlooks": 5513,
      "Ġround": 5514,
      "string": 5515,
      "ĠHistory": 5516,
      "ĠStrateg": 5517,
      "Once": 5518,
      "Ġtox": 5519,
      "ĠNovember": 5520,
      "Ġju": 5521,
      "Ġaccessibility": 5522,
      "Ġurban": 5523,
      "ĠRetrieved": 5524,
      "28": 5525,
      "Ġeast": 5526,
      "asp": 5527,
      "Ġchurch": 5528,
      "ĠAfrica": 5529,
      "Ġfemale": 5530,
      "ĠSur": 5531,
      "ford": 5532,
      "Ġkill": 5533,
      "Ġwilling": 5534,
      "Ġnarratives": 5535,
      "Ġphilosoph": 5536,
      "istan": 5537,
      "ĠCommon": 5538,
      "iled": 5539,
      "agues": 5540,
      "ourage": 5541,
      "ĠDecember": 5542,
      "Ġminimal": 5543,
      "eanwhile": 5544,
      "ĠInternet": 5545,
      "Ġwidely": 5546,
      "rote": 5547,
      "Ġsufficient": 5548,
      "empl": 5549,
      "Ġlearned": 5550,
      "Ġpaid": 5551,
      "Ġtaste": 5552,
      "Ġson": 5553,
      "Ġshed": 5554,
      "Ġkn": 5555,
      "Ġrestrict": 5556,
      "Line": 5557,
      "Ġoperational": 5558,
      "ĠEngland": 5559,
      "Ġfellow": 5560,
      "Ġpoly": 5561,
      "Ġhardware": 5562,
      "Ġfelt": 5563,
      "Ġdow": 5564,
      "ĠDisc": 5565,
      "ĠSte": 5566,
      "Ġdiam": 5567,
      "Ġlocations": 5568,
      "Ġaesthetic": 5569,
      "onents": 5570,
      "Ġofferings": 5571,
      "Ġcompatibility": 5572,
      "Ġpretty": 5573,
      "inter": 5574,
      "using": 5575,
      "ĠPost": 5576,
      "Ġchronic": 5577,
      "Ġmanaged": 5578,
      "Ġrace": 5579,
      "Ġcritic": 5580,
      "Ġtang": 5581,
      "Ġsouth": 5582,
      "uls": 5583,
      "ĠSch": 5584,
      "Ġradio": 5585,
      "Ġ28": 5586,
      "Ġacts": 5587,
      "Ġaccessible": 5588,
      "Ġparticipation": 5589,
      "Ġtactics": 5590,
      "cast": 5591,
      "Ġremaining": 5592,
      "Ġhappen": 5593,
      "Ġholds": 5594,
      "Ġtemperatures": 5595,
      "cular": 5596,
      "Ġhomes": 5597,
      "Ġreduces": 5598,
      "Ġproperly": 5599,
      "Ġbreast": 5600,
      "Ġwinter": 5601,
      "Ġpages": 5602,
      "improve": 5603,
      "Ġweap": 5604,
      "Ġsoil": 5605,
      "Ġagricult": 5606,
      "Ġdefense": 5607,
      "Ġestablishing": 5608,
      "sequent": 5609,
      "ĠSociety": 5610,
      "Ġdestro": 5611,
      "After": 5612,
      "Ġrain": 5613,
      "Ġconcentr": 5614,
      "ste": 5615,
      "Ġtrip": 5616,
      "Ġfunds": 5617,
      "Ġlinked": 5618,
      "elihood": 5619,
      "Ġitem": 5620,
      "Ġanalyze": 5621,
      "Ġslightly": 5622,
      "Ġbow": 5623,
      "rain": 5624,
      "Ġengineering": 5625,
      "Ġcandidates": 5626,
      "ĠWind": 5627,
      "Ġfrequency": 5628,
      "arp": 5629,
      "umber": 5630,
      "Ġimprovements": 5631,
      "Ġtum": 5632,
      "rad": 5633,
      "Ġstages": 5634,
      "Ġproceed": 5635,
      "soft": 5636,
      "orge": 5637,
      "ĠPal": 5638,
      "ube": 5639,
      "Ġbaby": 5640,
      "Ġleveraging": 5641,
      "iated": 5642,
      "inger": 5643,
      "Ġdream": 5644,
      "ĠWH": 5645,
      "Ġlooked": 5646,
      "Ġcatch": 5647,
      "arrow": 5648,
      "unct": 5649,
      "mal": 5650,
      "ĠSen": 5651,
      "Ġyouth": 5652,
      "ressed": 5653,
      "Ġinvestors": 5654,
      "Ġintroduced": 5655,
      "Ġ>=": 5656,
      "ml": 5657,
      "Ġmort": 5658,
      "Ġcolors": 5659,
      "Ġthanks": 5660,
      "Ġauthority": 5661,
      "Ġinspiration": 5662,
      "Ġdram": 5663,
      "roc": 5664,
      "ille": 5665,
      "ventions": 5666,
      "Ġobserved": 5667,
      "ĠService": 5668,
      "bal": 5669,
      "bed": 5670,
      "Ġcompassion": 5671,
      "ĠLeg": 5672,
      "Ġentities": 5673,
      "Ġdepart": 5674,
      "share": 5675,
      "Ġlikelihood": 5676,
      "no": 5677,
      "Ġid": 5678,
      "Ġtack": 5679,
      "alk": 5680,
      "igr": 5681,
      "ĠSub": 5682,
      "Ġexplicit": 5683,
      "def": 5684,
      "ĠDel": 5685,
      "Ġ2000": 5686,
      "ĠGeneral": 5687,
      "Ġgard": 5688,
      "ĠFort": 5689,
      "Ġresolution": 5690,
      "Ġtracking": 5691,
      "ij": 5692,
      "Under": 5693,
      "uous": 5694,
      "ĠSk": 5695,
      "ĠLear": 5696,
      "Ġample": 5697,
      "Ġenhances": 5698,
      "Ġparticipate": 5699,
      "Ġadequate": 5700,
      "Ġod": 5701,
      "Ġdisrupt": 5702,
      "ĠOur": 5703,
      "arsh": 5704,
      "ĠPlay": 5705,
      "Ġcooking": 5706,
      "ĠSam": 5707,
      "Ġvig": 5708,
      "umes": 5709,
      "dule": 5710,
      "Ġoverw": 5711,
      "lick": 5712,
      "Ġencount": 5713,
      "Ġmorning": 5714,
      "That": 5715,
      "Ġcertainly": 5716,
      "38": 5717,
      "oad": 5718,
      "Ġdil": 5719,
      "Ġspecified": 5720,
      "Ġextended": 5721,
      "Cons": 5722,
      "ĠBr": 5723,
      "inese": 5724,
      "Ġformed": 5725,
      "ĠColl": 5726,
      "Ġerrors": 5727,
      "men": 5728,
      "Ġexists": 5729,
      "Ġapplying": 5730,
      "Ġfees": 5731,
      "Ġactively": 5732,
      "Ġexpenses": 5733,
      "Ġdied": 5734,
      "Ġvehicles": 5735,
      "Tr": 5736,
      "band": 5737,
      "Ġspl": 5738,
      "icks": 5739,
      "ĠAI": 5740,
      "Ġseven": 5741,
      "Ġclassic": 5742,
      "BC": 5743,
      "Ġdu": 5744,
      "ĠTH": 5745,
      "Ġdecided": 5746,
      "Ġfinally": 5747,
      "Ġcris": 5748,
      "Low": 5749,
      "ĠHuman": 5750,
      "Ġ27": 5751,
      "Ġprotecting": 5752,
      "eted": 5753,
      "ession": 5754,
      "Ġdoct": 5755,
      "Ġgovernments": 5756,
      "Ġindicates": 5757,
      "Ġabsor": 5758,
      "CO": 5759,
      "down": 5760,
      "ĠTex": 5761,
      "Ġunits": 5762,
      "Ġstrict": 5763,
      "Ġexplo": 5764,
      "ĊĊĊ": 5765,
      "Ġthoughts": 5766,
      "Ġconversations": 5767,
      "Ġcouple": 5768,
      "iating": 5769,
      "za": 5770,
      "Ġfruit": 5771,
      "ĠFound": 5772,
      "Ġinspect": 5773,
      "Ġmulti": 5774,
      "Ġstruggle": 5775,
      "uit": 5776,
      "ĠWater": 5777,
      "Ġtradition": 5778,
      "Ġleader": 5779,
      "Ġsecret": 5780,
      "Ġdetermining": 5781,
      "ĠSecond": 5782,
      "Ġprioritize": 5783,
      "Ġsafeguard": 5784,
      "pert": 5785,
      "Ġhighlighting": 5786,
      "ĠExperts": 5787,
      "gypt": 5788,
      "othes": 5789,
      "Ġremove": 5790,
      "Ġreaders": 5791,
      "Ġlifesty": 5792,
      "Ġsweet": 5793,
      "90": 5794,
      "backs": 5795,
      "ael": 5796,
      "field": 5797,
      "Ġlux": 5798,
      "iments": 5799,
      "ĠHave": 5800,
      "Ġcommunicate": 5801,
      "Ġhoriz": 5802,
      "Ġnarrative": 5803,
      "enders": 5804,
      "ashion": 5805,
      "Ġreporting": 5806,
      "Ġsounds": 5807,
      "prene": 5808,
      "Ġbeliefs": 5809,
      "friendly": 5810,
      "Ġcrisis": 5811,
      "lor": 5812,
      "ĠDirect": 5813,
      "rome": 5814,
      "ilet": 5815,
      "Ġprison": 5816,
      "Ġboost": 5817,
      "Ġloans": 5818,
      "Ġperspectives": 5819,
      "reprene": 5820,
      "Ġstored": 5821,
      "istent": 5822,
      "Ġroof": 5823,
      "ologist": 5824,
      "Ġagency": 5825,
      "Ġchanged": 5826,
      "Ġparamount": 5827,
      "Ġinstructions": 5828,
      "ĊĠĠ": 5829,
      "ĠĊĠ": 5830,
      "Ġmaximize": 5831,
      "ĠEngineer": 5832,
      "mp": 5833,
      "Ġhaz": 5834,
      "Ġbright": 5835,
      "Ġmuscle": 5836,
      "Ġmillions": 5837,
      "Ġassessment": 5838,
      "Ġcovered": 5839,
      "Ġnations": 5840,
      "Ġpromises": 5841,
      "Ġavailability": 5842,
      "ĠCongress": 5843,
      "free": 5844,
      "Ġconver": 5845,
      "ĠWell": 5846,
      "Ġresidents": 5847,
      "Ġmodule": 5848,
      "Ġpayment": 5849,
      "ĠCD": 5850,
      "Ġspeech": 5851,
      "tical": 5852,
      "iday": 5853,
      "Ġstem": 5854,
      "ĠIdent": 5855,
      "ums": 5856,
      "Ġchain": 5857,
      "Ġpromising": 5858,
      "liness": 5859,
      "Ġdescription": 5860,
      "Ġentirely": 5861,
      "Ġhour": 5862,
      "Ġconstraints": 5863,
      "hors": 5864,
      "ĠMex": 5865,
      "Ġresponsibilities": 5866,
      "hemat": 5867,
      "Res": 5868,
      "unch": 5869,
      "Ġkit": 5870,
      "Ġgenes": 5871,
      "Ġreceiving": 5872,
      "Ġadaptability": 5873,
      "From": 5874,
      "fulness": 5875,
      "ĠWhy": 5876,
      "Ġcultures": 5877,
      "Ġemployment": 5878,
      "ĠMedical": 5879,
      "Ġselected": 5880,
      "disc": 5881,
      "iable": 5882,
      "ĠWestern": 5883,
      "Ġartistic": 5884,
      "Ġvolume": 5885,
      "SS": 5886,
      "yc": 5887,
      "Ġrat": 5888,
      "Ġemissions": 5889,
      "Ġpopularity": 5890,
      "reshold": 5891,
      "\":": 5892,
      "AD": 5893,
      "isdom": 5894,
      "ecess": 5895,
      "Ġnotice": 5896,
      "Ġinterface": 5897,
      "Ġsubsequent": 5898,
      "Ġequipped": 5899,
      "Ġsupports": 5900,
      "Ġloyalty": 5901,
      "Ġintellectual": 5902,
      "cont": 5903,
      "eut": 5904,
      "ĠPract": 5905,
      "ĠFace": 5906,
      "ĠGreat": 5907,
      "Ġgenerated": 5908,
      "bing": 5909,
      "Ġmap": 5910,
      "Ġdeploy": 5911,
      "Ġjoin": 5912,
      "ĠProfessionals": 5913,
      "gl": 5914,
      "Ġpip": 5915,
      "Ġmetrics": 5916,
      "ĠIslam": 5917,
      "Ġdomestic": 5918,
      "Script": 5919,
      "wood": 5920,
      "ĠUnion": 5921,
      "Ġcurren": 5922,
      "Ġcorner": 5923,
      "Ġconsistency": 5924,
      "33": 5925,
      "Ġfort": 5926,
      "ĠMary": 5927,
      "Ġfocuses": 5928,
      "ĠCouncil": 5929,
      "ait": 5930,
      "Ġevaluation": 5931,
      "iations": 5932,
      "Ġcast": 5933,
      "ĠGr": 5934,
      "cores": 5935,
      "Ġsilver": 5936,
      "Ġproposed": 5937,
      "Some": 5938,
      "Ġmaster": 5939,
      "Ġrating": 5940,
      "rian": 5941,
      "Ġpool": 5942,
      "Ġorganic": 5943,
      "Ġbrands": 5944,
      "Ġimmers": 5945,
      "\");": 5946,
      "Ġintrig": 5947,
      "ruary": 5948,
      "Ġaudio": 5949,
      "Ġfriend": 5950,
      "Ġadministration": 5951,
      "ĠCourt": 5952,
      "iability": 5953,
      "Ġbrows": 5954,
      "ĠWhite": 5955,
      "Ġstanding": 5956,
      "Ġhappens": 5957,
      "gs": 5958,
      "ĠSer": 5959,
      "Ġmilk": 5960,
      "Ġwall": 5961,
      "ĠResp": 5962,
      "plays": 5963,
      "inder": 5964,
      "Ġraw": 5965,
      "Ġdiscrim": 5966,
      "ĠYet": 5967,
      "Ġ2004": 5968,
      "Ġdetermined": 5969,
      "Ġrecognized": 5970,
      "App": 5971,
      "Ġwrote": 5972,
      "ĠEmb": 5973,
      "olute": 5974,
      "Ġcycle": 5975,
      "lin": 5976,
      "Ġrent": 5977,
      "raction": 5978,
      "ocurren": 5979,
      "Ġshoot": 5980,
      "Ġarise": 5981,
      "Ġproducing": 5982,
      "Ġcounsel": 5983,
      "Ġexecution": 5984,
      "Ġimagine": 5985,
      "ĠEnsure": 5986,
      "Ġ]": 5987,
      "Ġtitle": 5988,
      "Ġast": 5989,
      "cell": 5990,
      "Ġstunning": 5991,
      "ĠEgypt": 5992,
      "Ġoverwhel": 5993,
      "Ġmanual": 5994,
      "Ġcourses": 5995,
      "Ġdiss": 5996,
      "Ġpractition": 5997,
      "Ġdomain": 5998,
      "Ġcategories": 5999,
      "High": 6000,
      "Ġtut": 6001,
      "etry": 6002,
      "ĠAM": 6003,
      "Ġenem": 6004,
      "Ġacce": 6005,
      "Ġliterature": 6006,
      "olitical": 6007,
      "Ġhuge": 6008,
      "Ġdoor": 6009,
      "Ġperformed": 6010,
      "Ġrepresenting": 6011,
      "Ġargue": 6012,
      "can": 6013,
      "Ġreaching": 6014,
      "atever": 6015,
      "Ġves": 6016,
      "ighter": 6017,
      "Ġmemories": 6018,
      "Ġmotion": 6019,
      "spec": 6020,
      "Ġcaptiv": 6021,
      "Ġwait": 6022,
      "oral": 6023,
      "Ġbond": 6024,
      "Ġcompetitors": 6025,
      "IG": 6026,
      "top": 6027,
      "Ġglance": 6028,
      "Ġterrit": 6029,
      "Ġdrawing": 6030,
      "ĠPeople": 6031,
      "Ġcrafting": 6032,
      "long": 6033,
      "Ġpiv": 6034,
      "Ġran": 6035,
      "Ġfloor": 6036,
      "Ġcombat": 6037,
      "Ġrespective": 6038,
      "Ġrevolution": 6039,
      "Ġinvestigation": 6040,
      "All": 6041,
      "Ġreform": 6042,
      "ĠBecause": 6043,
      "ĠChinese": 6044,
      "....": 6045,
      "Ġstrengthen": 6046,
      "nected": 6047,
      "Ġcards": 6048,
      "ĠIT": 6049,
      "Ġsuitable": 6050,
      "Ġdispar": 6051,
      "Ġscr": 6052,
      "Ġraised": 6053,
      "Ġphase": 6054,
      "Ġdiscovery": 6055,
      "Ġmemor": 6056,
      "Ġ80": 6057,
      "Ġjobs": 6058,
      "ĠOctober": 6059,
      "rab": 6060,
      "Ġ29": 6061,
      "Ġprovider": 6062,
      "Ġlimits": 6063,
      "valid": 6064,
      "ĊĠĠĠĠĠĠĠĠĠĠĠĠĠĠĠĠĠĠĠ": 6065,
      "ĠSpecifically": 6066,
      "Ġclasses": 6067,
      "Ġparticipating": 6068,
      "Ġloan": 6069,
      "Ġorganizational": 6070,
      "Ġcomfortable": 6071,
      "Ġcognitive": 6072,
      "ugg": 6073,
      "ald": 6074,
      "Ġforth": 6075,
      "Ġcuriosity": 6076,
      "Ġstrengths": 6077,
      "Level": 6078,
      "Ġprotocols": 6079,
      "Ġsen": 6080,
      "Ġsand": 6081,
      "irms": 6082,
      "Ġincident": 6083,
      "ĠSecurity": 6084,
      "Ġbonds": 6085,
      "Ġcharm": 6086,
      "Ġinvent": 6087,
      "Ġstrike": 6088,
      "Ġtrees": 6089,
      "ĠReview": 6090,
      "Cont": 6091,
      "nam": 6092,
      "urning": 6093,
      "Ġraise": 6094,
      "Ġhelped": 6095,
      "Ġvisibility": 6096,
      "Ġreviews": 6097,
      "ĠTwo": 6098,
      "Ġunderscores": 6099,
      "Ġcredibility": 6100,
      "CC": 6101,
      "bility": 6102,
      "ĠTime": 6103,
      "ĠInformation": 6104,
      "Ġreferred": 6105,
      "Ġtransactions": 6106,
      "Ġfan": 6107,
      "state": 6108,
      "ado": 6109,
      "Ġsuperior": 6110,
      "Ġrub": 6111,
      "ĠRet": 6112,
      "Ġtrading": 6113,
      "Ġformal": 6114,
      "Ġcombining": 6115,
      "Ġvitamin": 6116,
      "Ġlens": 6117,
      "Ġsatisf": 6118,
      "rapy": 6119,
      "Ġconvenience": 6120,
      "ĠBeginners": 6121,
      "Ġease": 6122,
      "Ġembrace": 6123,
      "ĠMuslim": 6124,
      ",'": 6125,
      "nings": 6126,
      "Ġtip": 6127,
      "Ġmeticul": 6128,
      "Ġmajority": 6129,
      "Ġpersonnel": 6130,
      "ĠTechnology": 6131,
      "Ġvulnerable": 6132,
      "pet": 6133,
      "lets": 6134,
      "roph": 6135,
      "ĠFood": 6136,
      "Ġnoted": 6137,
      "Ġarm": 6138,
      "Ġpricing": 6139,
      "ancer": 6140,
      "Ġdiabetes": 6141,
      "Ġimmune": 6142,
      "Ġdiscussing": 6143,
      "Ġcapture": 6144,
      "Ġsurgery": 6145,
      "Ġcash": 6146,
      "asure": 6147,
      "ĠRoman": 6148,
      "apers": 6149,
      "Ġwhereas": 6150,
      "Ġlandscapes": 6151,
      "Ġdivine": 6152,
      "75": 6153,
      "New": 6154,
      "itter": 6155,
      "never": 6156,
      "Ġwaiting": 6157,
      "Ġpurchase": 6158,
      "Ġvarying": 6159,
      "Ġformation": 6160,
      "amiliar": 6161,
      "Ġbottom": 6162,
      "Ġanalytics": 6163,
      "Ġwisdom": 6164,
      "Ġhun": 6165,
      "Ġnative": 6166,
      "ago": 6167,
      "Ġexistence": 6168,
      "Ġbattle": 6169,
      "ĠGermany": 6170,
      "Ġfeaturing": 6171,
      "Ġocean": 6172,
      "ĠMac": 6173,
      "Ġtraditions": 6174,
      "Ġfunding": 6175,
      "Ġincorporate": 6176,
      "Ġprocedure": 6177,
      "SE": 6178,
      "Ġextends": 6179,
      "well": 6180,
      "stone": 6181,
      "imal": 6182,
      "Ġwindow": 6183,
      "Ġaccurately": 6184,
      "100": 6185,
      "AB": 6186,
      "Ġleaves": 6187,
      "Ġcompr": 6188,
      "Ġincred": 6189,
      "Ġfavorite": 6190,
      "Ġtips": 6191,
      "itis": 6192,
      "Ġlib": 6193,
      "Ġupper": 6194,
      "ĠHol": 6195,
      "rue": 6196,
      "Ġentreprene": 6197,
      "espread": 6198,
      "ĠNews": 6199,
      "Ġcalc": 6200,
      "Ġvirus": 6201,
      "Ġhosting": 6202,
      "Ġcrafts": 6203,
      "39": 6204,
      "ona": 6205,
      "Ġinner": 6206,
      "Ġagents": 6207,
      "Ġaccountability": 6208,
      "Ġscenario": 6209,
      "iest": 6210,
      "ĠBusiness": 6211,
      "ĠEvery": 6212,
      "ĠUK": 6213,
      "Ġexplan": 6214,
      "Ġcriminal": 6215,
      "Americ": 6216,
      "icious": 6217,
      "They": 6218,
      "Ġgoods": 6219,
      "Ġmotor": 6220,
      "Te": 6221,
      "orks": 6222,
      "Ġfrag": 6223,
      "ĠCare": 6224,
      "ested": 6225,
      "ĠLife": 6226,
      "ypes": 6227,
      "ĠFlor": 6228,
      "Ġsend": 6229,
      "Ġnarrow": 6230,
      "ĠBet": 6231,
      "Ġknew": 6232,
      "Ġschem": 6233,
      "Ġdistingu": 6234,
      "includ": 6235,
      "Ġpsychological": 6236,
      "Ġmanufacturers": 6237,
      "icking": 6238,
      "stream": 6239,
      "ĠPersonal": 6240,
      "opy": 6241,
      "Ġunless": 6242,
      "ĠCho": 6243,
      "Ġcenturies": 6244,
      "Ġelectricity": 6245,
      "65": 6246,
      "oper": 6247,
      "Ġsport": 6248,
      "Ġ2001": 6249,
      "Ġstrengthe": 6250,
      "Ġreflects": 6251,
      "Ġfalls": 6252,
      "Ġmand": 6253,
      "Ġeating": 6254,
      "otic": 6255,
      "Ġcompleted": 6256,
      "Ġtargeted": 6257,
      "ĠAmong": 6258,
      "Ġbirds": 6259,
      "function": 6260,
      "wer": 6261,
      "Ġpure": 6262,
      "ĠRich": 6263,
      "Ġdisput": 6264,
      "ificial": 6265,
      "Ġarticles": 6266,
      "Ġorigin": 6267,
      "Ġthoughtful": 6268,
      "Ġprintln": 6269,
      "Ġhousehold": 6270,
      "Ġderived": 6271,
      "rep": 6272,
      "Ġped": 6273,
      "Ġpair": 6274,
      "ĠPol": 6275,
      "udes": 6276,
      "Ġ194": 6277,
      "Ġdesigning": 6278,
      "Ġbrief": 6279,
      "Ġexcessive": 6280,
      "Ġalgorithms": 6281,
      "Ġfab": 6282,
      "Ġforget": 6283,
      "âĢ¢": 6284,
      "Ġshot": 6285,
      "Ġmeat": 6286,
      "Ġindeed": 6287,
      "Ġelection": 6288,
      "Ġnearby": 6289,
      "Ġevaluating": 6290,
      "Ġreached": 6291,
      "cel": 6292,
      "Ġstatic": 6293,
      "oding": 6294,
      "Ġscre": 6295,
      "ĠChristians": 6296,
      "Ġtun": 6297,
      "Ġcere": 6298,
      "itz": 6299,
      "Ġmale": 6300,
      "izations": 6301,
      "Ġspring": 6302,
      "ĠJul": 6303,
      "Ġ2003": 6304,
      "Ġgrand": 6305,
      "Ġprepare": 6306,
      "Introduction": 6307,
      "parent": 6308,
      "ĠEth": 6309,
      "Ġtried": 6310,
      "Ġjoint": 6311,
      "Ġreturned": 6312,
      "etime": 6313,
      "ĠNetwor": 6314,
      "Ġabuse": 6315,
      "Ġoblig": 6316,
      "herence": 6317,
      "ulf": 6318,
      "ĠID": 6319,
      "Ġtele": 6320,
      "Ġjur": 6321,
      "Ġoutline": 6322,
      "Ġshowed": 6323,
      "Ġelectronic": 6324,
      "Ġbelieved": 6325,
      "Ġexpanding": 6326,
      "Ġscholars": 6327,
      "Ġestate": 6328,
      "vance": 6329,
      "with": 6330,
      "ye": 6331,
      "Ġspend": 6332,
      "Ġinterventions": 6333,
      "aughter": 6334,
      "Ġbacteria": 6335,
      "Ġsnow": 6336,
      "Ġpush": 6337,
      "ĠBel": 6338,
      "ĠExpl": 6339,
      "ĠPerform": 6340,
      "Ġenterpr": 6341,
      "Ġdelicate": 6342,
      "ctu": 6343,
      "Ġthick": 6344,
      "ĠIP": 6345,
      "Ġsuit": 6346,
      "osm": 6347,
      "ressing": 6348,
      "Ġcharacterized": 6349,
      "Ġexercises": 6350,
      "Ġ\\": 6351,
      "omas": 6352,
      "Ġstars": 6353,
      "uling": 6354,
      "ĠNever": 6355,
      "fortunately": 6356,
      "page": 6357,
      "enth": 6358,
      "user": 6359,
      "ĠLike": 6360,
      "Ġkid": 6361,
      "Ġmode": 6362,
      "Ġdemonstrating": 6363,
      "Ġperceived": 6364,
      "++": 6365,
      "igen": 6366,
      "ĠLord": 6367,
      "Ġutilize": 6368,
      "____": 6369,
      "Ġconstantly": 6370,
      "Ġframework": 6371,
      "78": 6372,
      "under": 6373,
      "Ġbath": 6374,
      "Ġtrain": 6375,
      "theless": 6376,
      "ĠConf": 6377,
      "Ġwalk": 6378,
      "Ġintricacies": 6379,
      "Ġexempl": 6380,
      "Ġmanif": 6381,
      "Ġflavor": 6382,
      "Ġweakness": 6383,
      "Ġwidespread": 6384,
      "Ġplease": 6385,
      "ocking": 6386,
      "ĠLa": 6387,
      "Ġ195": 6388,
      "Ġworksh": 6389,
      "Ġflexible": 6390,
      "Ġillustrate": 6391,
      "Ġcultivating": 6392,
      "ĠDist": 6393,
      "Ġadult": 6394,
      "ĠGroup": 6395,
      "ionally": 6396,
      "ĠConsole": 6397,
      "Ġnoting": 6398,
      "ĠOpt": 6399,
      "Ġextend": 6400,
      "Ġreminder": 6401,
      "Ġmeant": 6402,
      "ologists": 6403,
      "Ġpurchasing": 6404,
      "Ġtight": 6405,
      "ĠTur": 6406,
      "Ġrecon": 6407,
      "Ġobv": 6408,
      "ĊĠĠĠĠĠĠĠĠĠ": 6409,
      "Ġende": 6410,
      "Ġoperate": 6411,
      "uster": 6412,
      "Ġunn": 6413,
      "Ġsupported": 6414,
      "Ġappealing": 6415,
      "Ġsquare": 6416,
      "ym": 6417,
      "ĠMount": 6418,
      "ĠArch": 6419,
      "Ġruns": 6420,
      "wing": 6421,
      "etary": 6422,
      "ĠMart": 6423,
      "ĠMeanwhile": 6424,
      "Ġathletes": 6425,
      "Ind": 6426,
      "Ġly": 6427,
      "ola": 6428,
      "what": 6429,
      "itu": 6430,
      "ourse": 6431,
      "Ġconservation": 6432,
      "ĠProject": 6433,
      "Ġinvestments": 6434,
      "itution": 6435,
      "Ġsalt": 6436,
      "Ġdocumentation": 6437,
      "Ġdestroy": 6438,
      "eutic": 6439,
      "Acc": 6440,
      "Ġpp": 6441,
      "Ġforced": 6442,
      "irt": 6443,
      "ĠFore": 6444,
      "Ġapparent": 6445,
      "ĠEnergy": 6446,
      "dden": 6447,
      "Ġdent": 6448,
      "Ġexposed": 6449,
      "Ġoptimize": 6450,
      "Ġexperiencing": 6451,
      "Ġdegrees": 6452,
      "ĠProvide": 6453,
      "Ġsacr": 6454,
      "umin": 6455,
      "uality": 6456,
      "Ġunlike": 6457,
      "Ġconsists": 6458,
      "Ġindex": 6459,
      "obal": 6460,
      "Ġstructured": 6461,
      "Ġholding": 6462,
      "words": 6463,
      "Ġobstac": 6464,
      "atus": 6465,
      "Ġwors": 6466,
      "Ġoutd": 6467,
      "Ġfinance": 6468,
      "Why": 6469,
      "ĠOnly": 6470,
      "Ġmoved": 6471,
      "Ġstriking": 6472,
      "Ġcryptocurren": 6473,
      "ĠMicrosoft": 6474,
      "ĠSet": 6475,
      "Ġ(\"": 6476,
      "Ġneuro": 6477,
      "Ġworry": 6478,
      "Ġcrime": 6479,
      "Ġnorms": 6480,
      "Ġinflamm": 6481,
      "Ġ!": 6482,
      "ĠFollow": 6483,
      "ossible": 6484,
      "plicated": 6485,
      "ĠTexas": 6486,
      "Gu": 6487,
      "ST": 6488,
      "Ġsought": 6489,
      "ĠMass": 6490,
      "ĠElect": 6491,
      "ĠGet": 6492,
      "Ġimplements": 6493,
      "Ġperm": 6494,
      "Ġtreated": 6495,
      "which": 6496,
      "ĠFranc": 6497,
      "Ġadopting": 6498,
      "ician": 6499,
      "ĠSafety": 6500,
      "Ġclim": 6501,
      "berg": 6502,
      "Ġprominent": 6503,
      "Ġauthors": 6504,
      "Ġ90": 6505,
      "Ġsummary": 6506,
      "Ġcorporate": 6507,
      "press": 6508,
      "inity": 6509,
      "Ġriver": 6510,
      "Ġemphasis": 6511,
      "chen": 6512,
      "mans": 6513,
      "win": 6514,
      "Ġpand": 6515,
      "Ġshut": 6516,
      "Ġcontrols": 6517,
      "Ġbrother": 6518,
      "ĠCommission": 6519,
      "ING": 6520,
      "Ġinvolvement": 6521,
      "ĠFebruary": 6522,
      "iverse": 6523,
      "ĠSl": 6524,
      "Ġyes": 6525,
      "ĠWork": 6526,
      "Ġvessel": 6527,
      "Despite": 6528,
      "Your": 6529,
      "Ġsudden": 6530,
      "ivacy": 6531,
      "ĠUtil": 6532,
      "Ġelectrical": 6533,
      "cers": 6534,
      "Ġfashion": 6535,
      "Ġtypical": 6536,
      "Ġprofit": 6537,
      "ĠAtl": 6538,
      "Ġholistic": 6539,
      "body": 6540,
      "yr": 6541,
      "Ġremoved": 6542,
      "Ġ70": 6543,
      "Ġstudying": 6544,
      "Ġlanguages": 6545,
      "Ġteacher": 6546,
      "Ġenthusiasts": 6547,
      "ygen": 6548,
      "Ġdut": 6549,
      "Ġinclus": 6550,
      "Ġletter": 6551,
      "Ġintegrated": 6552,
      "ASA": 6553,
      "Ġmarked": 6554,
      "Ġbegins": 6555,
      "Ġentertainment": 6556,
      "lock": 6557,
      "ĠAccess": 6558,
      "Ġplenty": 6559,
      "Ġpersons": 6560,
      "Ġexpensive": 6561,
      "Ġedge": 6562,
      "Ġreduction": 6563,
      "Before": 6564,
      "olf": 6565,
      "Ġclick": 6566,
      "Ġsavings": 6567,
      "Sec": 6568,
      "ĠBro": 6569,
      "Ġcompens": 6570,
      "ensus": 6571,
      "Ġera": 6572,
      "Ġcyber": 6573,
      "Ġspeaking": 6574,
      "Ġwire": 6575,
      "ĠHIV": 6576,
      "udd": 6577,
      "ĠKnow": 6578,
      "Ġopinion": 6579,
      "Ġhearing": 6580,
      "Ġaccum": 6581,
      "weight": 6582,
      "Ġattor": 6583,
      "Ġvolunte": 6584,
      "Ġempowerment": 6585,
      "Ġownership": 6586,
      "Ġprayer": 6587,
      "Ġring": 6588,
      "Ġskilled": 6589,
      "ĠAsia": 6590,
      "isticated": 6591,
      "Ġtalking": 6592,
      "Ġdebt": 6593,
      "Ġaccepted": 6594,
      "Ġcultivate": 6595,
      "Ġarchitecture": 6596,
      "gers": 6597,
      "telling": 6598,
      "Ġlived": 6599,
      "ĠBay": 6600,
      "alled": 6601,
      "Ġscal": 6602,
      "Ġartist": 6603,
      "Ġmatches": 6604,
      "ĠVirgin": 6605,
      "Ġcorresponding": 6606,
      "Ġacceler": 6607,
      "ĠCap": 6608,
      "Ġexpansion": 6609,
      "Ġpractitioners": 6610,
      "`.": 6611,
      "Ġoral": 6612,
      "Ġinclusive": 6613,
      "ĠKen": 6614,
      "Ġdiscip": 6615,
      "Ġdepends": 6616,
      "ĠCentral": 6617,
      "ĠFacebook": 6618,
      "aver": 6619,
      "ĠNOT": 6620,
      "Ġuns": 6621,
      "Ġneighbor": 6622,
      "mun": 6623,
      "rust": 6624,
      "ĠĊĠĠĠĠĠĠĠĠĠĠĠ": 6625,
      "Ġwants": 6626,
      "Ġvs": 6627,
      "Ġcomplement": 6628,
      "Ġconnecting": 6629,
      "Ġoccurred": 6630,
      "Ġselling": 6631,
      "Ġremained": 6632,
      "ographical": 6633,
      "ERE": 6634,
      "Ġpositively": 6635,
      "Ġsession": 6636,
      "Ġturning": 6637,
      "Ġpreparation": 6638,
      "itivity": 6639,
      "Ġalloc": 6640,
      "Ġbeneficial": 6641,
      "Ġstatistics": 6642,
      "Ġmovie": 6643,
      "Ġpackage": 6644,
      "Ġinstallation": 6645,
      "Ġthoroughly": 6646,
      "Ġversatile": 6647,
      "Ġnurturing": 6648,
      "amination": 6649,
      "Ġsuc": 6650,
      "ruption": 6651,
      "Ġsurvey": 6652,
      "Ġrestaur": 6653,
      "Ġlighting": 6654,
      "Ġreligion": 6655,
      "->": 6656,
      "Ġfle": 6657,
      "ĠLook": 6658,
      "Ġseconds": 6659,
      "Ġemphasizing": 6660,
      "ĠProper": 6661,
      "Ġnecessarily": 6662,
      "Ġdiscussed": 6663,
      "Ġcooperation": 6664,
      "isher": 6665,
      "Ġnic": 6666,
      "Ġwhom": 6667,
      "ogether": 6668,
      "Ġcenters": 6669,
      "Ġencry": 6670,
      "Ġposts": 6671,
      "Ġreinfor": 6672,
      "ĠAustralia": 6673,
      "roid": 6674,
      "iform": 6675,
      "ĠMuseum": 6676,
      "Ġshowing": 6677,
      "Ċĉĉ": 6678,
      "Ġsubjects": 6679,
      "Se": 6680,
      "rie": 6681,
      "Ġfol": 6682,
      "Ġfert": 6683,
      "Ġstated": 6684,
      "ocra": 6685,
      "Ġstrive": 6686,
      "Ġorganized": 6687,
      "Ġhappened": 6688,
      "Ġfacilitating": 6689,
      "Ġcategory": 6690,
      "ecessary": 6691,
      "ĠMag": 6692,
      "ĠMiss": 6693,
      "Ġneck": 6694,
      "Ġperformances": 6695,
      "connected": 6696,
      "ĠAnother": 6697,
      "Ġpremium": 6698,
      "SP": 6699,
      "Ġsed": 6700,
      "Ġbone": 6701,
      "Ġtooth": 6702,
      "Ġgaming": 6703,
      "ĠIran": 6704,
      "Ġship": 6705,
      "Ġblend": 6706,
      "Ġflour": 6707,
      "Ġmessaging": 6708,
      "Ġradiation": 6709,
      "Ġabsolute": 6710,
      "Ġproteins": 6711,
      "Ġsophisticated": 6712,
      "ĠFe": 6713,
      "ĠGood": 6714,
      "ĠStar": 6715,
      "ĠRev": 6716,
      "Ġversions": 6717,
      "Ġtargets": 6718,
      "Ġvideos": 6719,
      "Ġeggs": 6720,
      "Ġmitigate": 6721,
      "ĠGovernment": 6722,
      "anes": 6723,
      "Ġnode": 6724,
      "Ġspending": 6725,
      "ailing": 6726,
      "Ġknows": 6727,
      "ĠFrance": 6728,
      "Ġcryst": 6729,
      "Ġestimated": 6730,
      "Ġvigil": 6731,
      "Ġpivotal": 6732,
      "36": 6733,
      "ĠSEO": 6734,
      "Ġoutcome": 6735,
      "Ġbutter": 6736,
      "ĠVis": 6737,
      "Ġconversation": 6738,
      "Ġoverlook": 6739,
      "owers": 6740,
      "ĠBal": 6741,
      "ossing": 6742,
      "col": 6743,
      "kes": 6744,
      "ĠÃ": 6745,
      "ĠProm": 6746,
      "estion": 6747,
      "Ġaccident": 6748,
      "Ġentered": 6749,
      "Ġfamous": 6750,
      "Design": 6751,
      "Ġther": 6752,
      "Ġbot": 6753,
      "ĠBas": 6754,
      "Ġdisp": 6755,
      "Invalid": 6756,
      "Ġmissing": 6757,
      "Enter": 6758,
      "Ġadvertising": 6759,
      "agine": 6760,
      "ĠHen": 6761,
      "Ġkept": 6762,
      "Ġconversion": 6763,
      "Ġcolleagues": 6764,
      "Ġreaction": 6765,
      "Ġchemicals": 6766,
      "Ġaccomplish": 6767,
      "ĠDetermine": 6768,
      "Ġstead": 6769,
      "ĠRober": 6770,
      "Ġkilled": 6771,
      "Ġdesire": 6772,
      "Ġbreaking": 6773,
      "Ġparameters": 6774,
      "ĠAcadem": 6775,
      "Ġdangerous": 6776,
      "Ġlibrary": 6777,
      "Ġacknowledging": 6778,
      "Pl": 6779,
      "mes": 6780,
      "Ġeveryday": 6781,
      "Ġelig": 6782,
      "Ġemphasizes": 6783,
      "Print": 6784,
      "ÃŃ": 6785,
      "attle": 6786,
      "ĠSol": 6787,
      "ĠBased": 6788,
      "antly": 6789,
      "Ġclosed": 6790,
      "ĠStand": 6791,
      "Ġdiscipl": 6792,
      "ĠTrust": 6793,
      "Ġlifestyle": 6794,
      "Ġsucceed": 6795,
      ":\"": 6796,
      "CA": 6797,
      "Ġinsect": 6798,
      "ĠMem": 6799,
      "Ġrough": 6800,
      "Ġarms": 6801,
      "Ġ>>": 6802,
      "Ġdogs": 6803,
      "Ġcontrolled": 6804,
      "Ġshifts": 6805,
      "IP": 6806,
      "cher": 6807,
      "rete": 6808,
      "Ġlung": 6809,
      "ache": 6810,
      "Ġplastic": 6811,
      "Ġmeets": 6812,
      "Ġsecuring": 6813,
      "Ġreflection": 6814,
      "worth": 6815,
      "Ġdebate": 6816,
      "Ġdiagnosis": 6817,
      "Ġpictures": 6818,
      "Ġadventure": 6819,
      "Ġliquid": 6820,
      "Hygiene": 6821,
      "erior": 6822,
      "asive": 6823,
      "unk": 6824,
      "ĠGeorge": 6825,
      "Ġconflicts": 6826,
      "Ġaspiring": 6827,
      "points": 6828,
      "ĠEmbra": 6829,
      "31": 6830,
      "34": 6831,
      "Ġwife": 6832,
      "Ġemployee": 6833,
      "Ġmarg": 6834,
      "Ġpartner": 6835,
      "Ġtreating": 6836,
      "Ġimmense": 6837,
      "hetic": 6838,
      "Ġautomatically": 6839,
      "Med": 6840,
      "Ġwhenever": 6841,
      "Ġretail": 6842,
      "Ġlearners": 6843,
      "ĠSpace": 6844,
      "Ġtherapeutic": 6845,
      "Beyond": 6846,
      "high": 6847,
      "ĠType": 6848,
      "ĠCB": 6849,
      "ĠNF": 6850,
      "Ġdispos": 6851,
      "Ġquery": 6852,
      "Ġdesigners": 6853,
      "Ġcontrovers": 6854,
      "Ġfollows": 6855,
      "Ġpassing": 6856,
      "onomy": 6857,
      "och": 6858,
      "pact": 6859,
      "Ġ||": 6860,
      "uests": 6861,
      "'.": 6862,
      "Up": 6863,
      "VID": 6864,
      "Ġsides": 6865,
      "agon": 6866,
      "ĠNon": 6867,
      "ĠOpen": 6868,
      "Ġtransmission": 6869,
      "Ġsurve": 6870,
      "Ġreveals": 6871,
      "onge": 6872,
      "Ġloved": 6873,
      "Ġgod": 6874,
      "ĠSom": 6875,
      "phone": 6876,
      "Ġnoise": 6877,
      "Ġmultif": 6878,
      "Ġlargely": 6879,
      "Ġacquis": 6880,
      "ĠSQL": 6881,
      "ĠRather": 6882,
      "Ġdisorder": 6883,
      "Ġfailed": 6884,
      "Ġsections": 6885,
      "Ġburn": 6886,
      "oub": 6887,
      "Ġrewards": 6888,
      "chain": 6889,
      "Ġasking": 6890,
      "Ġ35": 6891,
      "Ġflat": 6892,
      "Ġlistening": 6893,
      "Ġavoiding": 6894,
      "Ġportion": 6895,
      "Ġinspire": 6896,
      "ĠRussia": 6897,
      "ĠAvoid": 6898,
      "Ġproactive": 6899,
      "ĠBible": 6900,
      "ĠInf": 6901,
      "ĠApple": 6902,
      "Ġwish": 6903,
      "aria": 6904,
      "ĠCustom": 6905,
      "ĠKore": 6906,
      "Ġpresc": 6907,
      "Ġ2002": 6908,
      "Ġgoverning": 6909,
      "Ġprevention": 6910,
      "Ġreasoning": 6911,
      "ĠCalculate": 6912,
      "ota": 6913,
      "Ġpros": 6914,
      "Ġconscious": 6915,
      "anged": 6916,
      "oving": 6917,
      "lessly": 6918,
      "Ġpressing": 6919,
      "ĠJews": 6920,
      "Ġprospects": 6921,
      "Ġhousing": 6922,
      "Ġdurability": 6923,
      "ĠMill": 6924,
      "ĠLou": 6925,
      "ĠGold": 6926,
      "Ġunity": 6927,
      "iblical": 6928,
      "37": 6929,
      "Ġgone": 6930,
      "ĠTV": 6931,
      "Ġalter": 6932,
      "Ġtimely": 6933,
      "Ġwarrant": 6934,
      "ĠServices": 6935,
      "ka": 6936,
      "rooms": 6937,
      "irty": 6938,
      "Ġsurfaces": 6939,
      "Ġmarriage": 6940,
      "ĠMedicine": 6941,
      "ĠAlex": 6942,
      "ffee": 6943,
      "Ġwashing": 6944,
      "Ġperman": 6945,
      "ordinary": 6946,
      "text": 6947,
      "Ġentails": 6948,
      "Ġpatience": 6949,
      "Ġpromise": 6950,
      "Ġvictims": 6951,
      "My": 6952,
      "Ġsamples": 6953,
      "Ġrefine": 6954,
      "Ġdetermination": 6955,
      "Ġlabel": 6956,
      "Time": 6957,
      "Ġrow": 6958,
      "Ġmathemat": 6959,
      "ĠIsland": 6960,
      "Ġseasoned": 6961,
      "ĠCompany": 6962,
      "Ġauthentic": 6963,
      "Ġdownt": 6964,
      ")-": 6965,
      "Ġven": 6966,
      "Ġimper": 6967,
      "Ġcoal": 6968,
      "ĠCommit": 6969,
      "ĠFlorida": 6970,
      "05": 6971,
      "ĠSal": 6972,
      "ĠHel": 6973,
      "Ġresist": 6974,
      "Ġimplemented": 6975,
      "Ġbringing": 6976,
      "Ġthin": 6977,
      "Ġnurs": 6978,
      "ĠInvest": 6979,
      "Ġassume": 6980,
      "Ġ45": 6981,
      "Ġsuggested": 6982,
      "Ġseamlessly": 6983,
      "Ġfixed": 6984,
      "rum": 6985,
      "uce": 6986,
      "erge": 6987,
      "Ġdating": 6988,
      "ĠJer": 6989,
      "Ġampl": 6990,
      "Ġheritage": 6991,
      "iplom": 6992,
      "manship": 6993,
      "data": 6994,
      "Ġiron": 6995,
      "Ġquarter": 6996,
      "Ġpeak": 6997,
      "Ġraises": 6998,
      "fol": 6999,
      "Ġfmt": 7000,
      "Ġupcoming": 7001,
      "Ġhelpful": 7002,
      "ĠIndeed": 7003,
      "Ġoptimization": 7004,
      "Score": 7005,
      "Ġinfluencing": 7006,
      "lers": 7007,
      "Ġcomposition": 7008,
      "Ġcentered": 7009,
      "ĠAnaly": 7010,
      "ĠPlan": 7011,
      "Ġengineers": 7012,
      "Ġfitness": 7013,
      "Ġdefinition": 7014,
      "Ġneighb": 7015,
      "aturally": 7016,
      "Ġmoisture": 7017,
      "Do": 7018,
      "Ġfro": 7019,
      "iciency": 7020,
      "Ġnodes": 7021,
      "ĠMake": 7022,
      "ĠMedia": 7023,
      "sembly": 7024,
      "Ġobstacles": 7025,
      "box": 7026,
      "Ġrelying": 7027,
      "Ġstone": 7028,
      "ĠOld": 7029,
      "Ġachieved": 7030,
      "Ġcollected": 7031,
      "Ġpenal": 7032,
      "DF": 7033,
      "Ġgem": 7034,
      "verty": 7035,
      "ĠViet": 7036,
      "Ġpoverty": 7037,
      "Ġgenerating": 7038,
      "Ġclassroom": 7039,
      "EF": 7040,
      "See": 7041,
      "Ġsin": 7042,
      "Ġfold": 7043,
      "Ġconclud": 7044,
      "zen": 7045,
      "Ġpil": 7046,
      "Ġfell": 7047,
      "Ġstret": 7048,
      "Ġstuff": 7049,
      "ĠCath": 7050,
      "ĠMo": 7051,
      "ĠPlus": 7052,
      "Ġparticles": 7053,
      "Ġcomputers": 7054,
      "ĠOnline": 7055,
      "ĠSuper": 7056,
      "Develop": 7057,
      "Ext": 7058,
      "Next": 7059,
      "Ġdin": 7060,
      "Ġessence": 7061,
      "Ġalignment": 7062,
      "amily": 7063,
      "Ġallev": 7064,
      "ĠFact": 7065,
      "ĠJud": 7066,
      "Ġsignals": 7067,
      "versely": 7068,
      "Ġspeak": 7069,
      "Ġthrive": 7070,
      "Ġreputable": 7071,
      "itudes": 7072,
      "Ġclothing": 7073,
      "Ġwouldn": 7074,
      "ceptions": 7075,
      "Ġservers": 7076,
      "Ġdimensions": 7077,
      "')": 7078,
      "Ġdie": 7079,
      "eck": 7080,
      "Ġallerg": 7081,
      "Ġfewer": 7082,
      "Ġdestination": 7083,
      "Ġil": 7084,
      "Ġtro": 7085,
      "step": 7086,
      "ĠIns": 7087,
      "Ġphr": 7088,
      "Ġsubtle": 7089,
      "Ġaddresses": 7090,
      "Ġmedications": 7091,
      "Trans": 7092,
      "Ġdance": 7093,
      "Ġincidents": 7094,
      "Ġtraum": 7095,
      "Ġcoaches": 7096,
      "ĠControl": 7097,
      "Ġmachines": 7098,
      "Ġattributes": 7099,
      "Ġphenomenon": 7100,
      "Ġdilig": 7101,
      "Or": 7102,
      "Ġtiny": 7103,
      "Ġfirms": 7104,
      "that": 7105,
      "Ġdepression": 7106,
      "Ġfluid": 7107,
      "Ġtutorial": 7108,
      "anish": 7109,
      "osc": 7110,
      "Ġflight": 7111,
      "Ġpaint": 7112,
      "Ġfrequent": 7113,
      "Ġmechanism": 7114,
      "Ġreactions": 7115,
      "ĠMichael": 7116,
      "kin": 7117,
      "Ġdrop": 7118,
      "Ġgear": 7119,
      "Ġnotion": 7120,
      "Ġapps": 7121,
      "reatment": 7122,
      ".\");": 7123,
      "Ġmusical": 7124,
      "Ġ<=": 7125,
      "Ġstorytelling": 7126,
      "Ġsteel": 7127,
      "Ġroute": 7128,
      "Ġagreement": 7129,
      "Ġoxygen": 7130,
      "Ġmemorable": 7131,
      "Ġchief": 7132,
      "Ġconsiderable": 7133,
      "ĠAny": 7134,
      "Ġcomplications": 7135,
      "ĠWomen": 7136,
      "Ġeleg": 7137,
      "ĠClass": 7138,
      "Ġcollaborative": 7139,
      "Ġrepeated": 7140,
      "ora": 7141,
      "ĠDiv": 7142,
      "Ġscores": 7143,
      "Ġactors": 7144,
      "Ġattending": 7145,
      "Ġconfirm": 7146,
      "ĠPhys": 7147,
      "grade": 7148,
      "Ġtangible": 7149,
      "Let": 7150,
      "UN": 7151,
      "Ġcher": 7152,
      "Ġpushing": 7153,
      "otes": 7154,
      "Ġantib": 7155,
      "Ġinteractive": 7156,
      "Ġtransformed": 7157,
      "Ġbiological": 7158,
      "Ġanswers": 7159,
      "Ġextraordinary": 7160,
      "war": 7161,
      "Ġfoss": 7162,
      "Ġstores": 7163,
      "ials": 7164,
      "aceted": 7165,
      "Ġmaybe": 7166,
      "oven": 7167,
      "Ġputs": 7168,
      "Ġsubstance": 7169,
      "Ġlosses": 7170,
      "erb": 7171,
      "istical": 7172,
      "ĠBre": 7173,
      "Ġvisible": 7174,
      "Ġphotograph": 7175,
      "Ġversatility": 7176,
      "ixture": 7177,
      "Ġreward": 7178,
      "acific": 7179,
      "ĠInit": 7180,
      "Ġreflecting": 7181,
      "Ġmassive": 7182,
      "Ġsuffering": 7183,
      "igure": 7184,
      "Ġraising": 7185,
      "Ġpossibility": 7186,
      "ograp": 7187,
      "Ġpromotes": 7188,
      "Ġprinciple": 7189,
      "ĠOffice": 7190,
      "Ġdiscrimination": 7191,
      "Per": 7192,
      "ĠCult": 7193,
      "Ġnetworking": 7194,
      "WriteLine": 7195,
      "Ġpandemic": 7196,
      "table": 7197,
      "ĠHome": 7198,
      "Ġrelevance": 7199,
      "Ġtargeting": 7200,
      "Ġlatter": 7201,
      "Ġmotivation": 7202,
      "Create": 7203,
      "Ġsizes": 7204,
      "Ġwalls": 7205,
      "Ġthreshold": 7206,
      "Ġguests": 7207,
      "Ġharmful": 7208,
      "ĠCarol": 7209,
      "ĠWindows": 7210,
      "Ġnone": 7211,
      "ĠPlease": 7212,
      "ĠGal": 7213,
      "Ġdefect": 7214,
      "scale": 7215,
      "ĊĉĠĠĠ": 7216,
      "Ġpercentage": 7217,
      "ION": 7218,
      "Ġwine": 7219,
      "Ġfill": 7220,
      "Ġretain": 7221,
      "Ġdish": 7222,
      "rior": 7223,
      "Ġdetection": 7224,
      "Ġcommunications": 7225,
      "oys": 7226,
      "Ġtoler": 7227,
      "oted": 7228,
      "ĠArab": 7229,
      "Ġjoy": 7230,
      "Ġprime": 7231,
      "Ġcoaching": 7232,
      "Ġpreserve": 7233,
      "Ġyounger": 7234,
      "CR": 7235,
      "TS": 7236,
      "craft": 7237,
      "Ã¡": 7238,
      "Ġbanks": 7239,
      "aser": 7240,
      "Ġgall": 7241,
      "EX": 7242,
      "Type": 7243,
      "Ġborrow": 7244,
      "Ġchamp": 7245,
      "Ġarrest": 7246,
      "Ġfeels": 7247,
      "Ġadoption": 7248,
      "ĠAns": 7249,
      "ĠRights": 7250,
      "Ġjump": 7251,
      "Ġconserv": 7252,
      "Ġtwice": 7253,
      "Ġpregnancy": 7254,
      "Ġpump": 7255,
      "Ġhus": 7256,
      "Ġinsight": 7257,
      "TO": 7258,
      "core": 7259,
      "ki": 7260,
      "orter": 7261,
      "pled": 7262,
      "Ġhumanity": 7263,
      "Ġgrass": 7264,
      "Ġemerged": 7265,
      "Ġtaxes": 7266,
      "onomic": 7267,
      "Ġnutri": 7268,
      "Build": 7269,
      "fast": 7270,
      "Ġnet": 7271,
      "adian": 7272,
      "ĠRef": 7273,
      "ĠĠĠĠĠĠĠĠĠĠĠĠĠĠĠĠ": 7274,
      "ircraft": 7275,
      "Ġminds": 7276,
      "Ġextremely": 7277,
      "night": 7278,
      "ĠFederal": 7279,
      "Ġmeal": 7280,
      "ĠReport": 7281,
      "println": 7282,
      "ĠRussian": 7283,
      "02": 7284,
      "mark": 7285,
      "Ġfishing": 7286,
      "ĠSa": 7287,
      "osit": 7288,
      "Ġdisplays": 7289,
      "Ġmanner": 7290,
      "Ġflavors": 7291,
      "Ġenduring": 7292,
      "Ġcarried": 7293,
      "Ġpaying": 7294,
      "Ġconcerned": 7295,
      "Ġtrials": 7296,
      "49": 7297,
      "Data": 7298,
      "IA": 7299,
      "Ġcro": 7300,
      "Ġstable": 7301,
      "ĠSum": 7302,
      "Ġyellow": 7303,
      "ĠMiddle": 7304,
      "ĠPen": 7305,
      "ĠDig": 7306,
      "ruits": 7307,
      "Ġinterconnected": 7308,
      "ĠVict": 7309,
      "Ġdecide": 7310,
      "Ġemploying": 7311,
      "Ġveter": 7312,
      "Ġachievements": 7313,
      "Ġschedule": 7314,
      "Ġdoubt": 7315,
      "Ġeager": 7316,
      "Ġcong": 7317,
      "ĠAND": 7318,
      "Ġdishes": 7319,
      "onym": 7320,
      "ĠInteg": 7321,
      "Ġjudg": 7322,
      "ĠSmith": 7323,
      "nov": 7324,
      "Ġlose": 7325,
      "uled": 7326,
      "Ġadm": 7327,
      "ports": 7328,
      "hyth": 7329,
      "ĠObama": 7330,
      "CS": 7331,
      "DP": 7332,
      "Ġwed": 7333,
      "ione": 7334,
      "Ġthrow": 7335,
      "Ġstation": 7336,
      "hering": 7337,
      "ords": 7338,
      "Ġrelation": 7339,
      "Ġrelief": 7340,
      "Ġextent": 7341,
      "Ġflood": 7342,
      "Ġzero": 7343,
      "Ġagreements": 7344,
      "Ġpreparing": 7345,
      "ĠEstabl": 7346,
      "writ": 7347,
      "Ġleverage": 7348,
      "ĠEconom": 7349,
      "merce": 7350,
      "Ġconfident": 7351,
      "Ġowner": 7352,
      "Ġrecommendation": 7353,
      "Ġintriguing": 7354,
      "Ġfib": 7355,
      "etics": 7356,
      "ĠCam": 7357,
      "ĠPers": 7358,
      "ĠRad": 7359,
      "Ġcohes": 7360,
      "Ġdescribe": 7361,
      "ĠFoundation": 7362,
      "lete": 7363,
      "Ġrender": 7364,
      "Ġmeals": 7365,
      "Ġseeing": 7366,
      "Ġepis": 7367,
      "gent": 7368,
      "Ġfra": 7369,
      "omy": 7370,
      "Ġequally": 7371,
      "('": 7372,
      "48": 7373,
      "BN": 7374,
      "from": 7375,
      "ini": 7376,
      "ndrome": 7377,
      "Ġnorm": 7378,
      "Ġdirector": 7379,
      "ĠBritain": 7380,
      "IL": 7381,
      "Name": 7382,
      "],": 7383,
      "Ġwet": 7384,
      "Ġgal": 7385,
      "ĠBefore": 7386,
      "Ġgreatly": 7387,
      "Ġframeworks": 7388,
      "Ġuncertainty": 7389,
      "input": 7390,
      "Ġcas": 7391,
      "ĠLo": 7392,
      "Ġinnovations": 7393,
      "Ġexcite": 7394,
      "Ġ1990": 7395,
      "Ġprecision": 7396,
      "mod": 7397,
      "Ġalb": 7398,
      "umps": 7399,
      "Ġincent": 7400,
      "Ġchecking": 7401,
      "Ġviewers": 7402,
      "Ġattempts": 7403,
      "Ġunnecessary": 7404,
      "According": 7405,
      "Ġsight": 7406,
      "ĠAdminist": 7407,
      "Ġelectron": 7408,
      "Ġcomputing": 7409,
      "Ġstarts": 7410,
      "Ġproport": 7411,
      "Ġletters": 7412,
      "Ġgrapp": 7413,
      "Ġtemporary": 7414,
      "ĠChildren": 7415,
      "Ġrestrictions": 7416,
      "ocracy": 7417,
      "een": 7418,
      "Ġgap": 7419,
      "Ġ31": 7420,
      "Ġarguments": 7421,
      "ĠGreek": 7422,
      "Ġfabric": 7423,
      "tes": 7424,
      "hered": 7425,
      "itt": 7426,
      "Ġforg": 7427,
      "Ġvoid": 7428,
      "ĠHy": 7429,
      "REATE": 7430,
      "Ġexpressed": 7431,
      "Ġaffordable": 7432,
      "Ġworship": 7433,
      "EM": 7434,
      "alian": 7435,
      "Ġspin": 7436,
      "Ġprofile": 7437,
      "Ġdelight": 7438,
      "Ġgrace": 7439,
      "Ġcalling": 7440,
      "Ġparalle": 7441,
      "ĠExamples": 7442,
      "Ġtempl": 7443,
      "Ġbias": 7444,
      "Ġframe": 7445,
      "Ġcamera": 7446,
      "ĠNevertheless": 7447,
      "Ġfif": 7448,
      "ĠVer": 7449,
      "ĠProcess": 7450,
      "Ġcorn": 7451,
      "Ġ1999": 7452,
      "Ġ+=": 7453,
      "Ġweapons": 7454,
      "chers": 7455,
      "Ġallocation": 7456,
      "Ġunp": 7457,
      "Ġtelev": 7458,
      "Ġmuscles": 7459,
      "Ġadjustments": 7460,
      "ĠValley": 7461,
      "ĠHistor": 7462,
      "ya": 7463,
      "Ġsour": 7464,
      "ĠPsych": 7465,
      "Ġproven": 7466,
      "Ġcurric": 7467,
      "Ġequity": 7468,
      "Ġequival": 7469,
      "ĠAmaz": 7470,
      "CD": 7471,
      "dem": 7472,
      "Ġhorm": 7473,
      "Ġnice": 7474,
      "Ġgent": 7475,
      "ĠLong": 7476,
      "Ġnewly": 7477,
      "riptions": 7478,
      "ĠQue": 7479,
      "Ġcovering": 7480,
      "American": 7481,
      "01": 7482,
      "Ġfly": 7483,
      "Ġnose": 7484,
      "198": 7485,
      "Ġfilter": 7486,
      "Ġzone": 7487,
      "Ġsectors": 7488,
      "ĠEmp": 7489,
      "ĠStudy": 7490,
      "Ġcorrectly": 7491,
      "Ġpursuing": 7492,
      "Ġexplicitly": 7493,
      "ĠCollabor": 7494,
      "06": 7495,
      "eness": 7496,
      "Ġconvey": 7497,
      "Ġisland": 7498,
      "Ġneut": 7499,
      "Ġemerge": 7500,
      "Ġpreval": 7501,
      "party": 7502,
      "Ġethn": 7503,
      "Ġexhibit": 7504,
      "ĠMexico": 7505,
      "Ġilleg": 7506,
      "ii": 7507,
      "Ġreject": 7508,
      "ĠTim": 7509,
      "Ġstreet": 7510,
      "Ġforming": 7511,
      "Ġbridge": 7512,
      "Ġgovernance": 7513,
      "ĠCOVID": 7514,
      "Ġopinions": 7515,
      "Ġbread": 7516,
      "Ġduration": 7517,
      "Ġnaturally": 7518,
      "ĠTop": 7519,
      "ĠMD": 7520,
      "ĠWild": 7521,
      "Ġmanagers": 7522,
      "Ġovercome": 7523,
      "Ġsubs": 7524,
      "Ġvisually": 7525,
      "Ġdomin": 7526,
      "Ġsurvival": 7527,
      "ROM": 7528,
      "ĠCharles": 7529,
      "Ġvegetables": 7530,
      "Ġmild": 7531,
      "ĠSou": 7532,
      "resent": 7533,
      "Ġunderst": 7534,
      "Ġfacts": 7535,
      "Ġconfront": 7536,
      "Ġpayments": 7537,
      "Ġforest": 7538,
      "Ġurl": 7539,
      "Ġarrangements": 7540,
      "Ġinclusivity": 7541,
      "ĠVirginia": 7542,
      "imens": 7543,
      "Ġintense": 7544,
      "Ġshares": 7545,
      "Ġweigh": 7546,
      "elled": 7547,
      "icken": 7548,
      "Ġlicens": 7549,
      "Post": 7550,
      "vy": 7551,
      "Ġ_": 7552,
      "Ġske": 7553,
      "agram": 7554,
      "Ġwhatever": 7555,
      "Ġrural": 7556,
      "Ġmostly": 7557,
      "Ġrecorded": 7558,
      "Ġlaunch": 7559,
      "Ġshopping": 7560,
      "ĠNASA": 7561,
      "Ġcouldn": 7562,
      "Ġintegral": 7563,
      "Ġterror": 7564,
      "ĠColor": 7565,
      "Ġhappy": 7566,
      "Ġmoral": 7567,
      "Ġmultifaceted": 7568,
      "Tra": 7569,
      "bi": 7570,
      "ĠTake": 7571,
      "ĠPolic": 7572,
      "Ġdrinking": 7573,
      "Ġdrawn": 7574,
      "Ġtransformative": 7575,
      "Ġtables": 7576,
      "Ġtex": 7577,
      "ĠString": 7578,
      "Ġends": 7579,
      "Ġapplicable": 7580,
      "Ġseemed": 7581,
      "46": 7582,
      "Over": 7583,
      "cal": 7584,
      "Ġthread": 7585,
      "ĠLabor": 7586,
      "parts": 7587,
      "Ġbroken": 7588,
      "elfare": 7589,
      "Ġphotos": 7590,
      "ascular": 7591,
      "Ġwatching": 7592,
      "Ġpreferred": 7593,
      "ĠJapanese": 7594,
      "ĠEnvironmental": 7595,
      "55": 7596,
      "[:": 7597,
      "eath": 7598,
      "isk": 7599,
      "ĠMil": 7600,
      "Ġbuying": 7601,
      "Ġpersonality": 7602,
      "Ġartificial": 7603,
      "pring": 7604,
      "Ġlegit": 7605,
      "Ġopened": 7606,
      "Ġmarine": 7607,
      "Ġprotected": 7608,
      "EL": 7609,
      "iary": 7610,
      "ĠTer": 7611,
      "Ġbeat": 7612,
      "ĠEr": 7613,
      "Ġdemocratic": 7614,
      "Ġbeneath": 7615,
      "Ġadopt": 7616,
      "Ġwalking": 7617,
      "Ġshowcasing": 7618,
      "Ġentrepreneurs": 7619,
      "ĠOh": 7620,
      "Ġimmun": 7621,
      "Ġintroduce": 7622,
      "Ġadopted": 7623,
      "Ġfluctu": 7624,
      "Ġpowers": 7625,
      "eal": 7626,
      "oto": 7627,
      "ading": 7628,
      "unc": 7629,
      "Ġadherence": 7630,
      "Ġrepair": 7631,
      "oves": 7632,
      "Ġelections": 7633,
      "Ġaffects": 7634,
      "Ġgradually": 7635,
      "Ġsouthern": 7636,
      "Ġsurprise": 7637,
      "Understanding": 7638,
      "Ġcaptivating": 7639,
      "ria": 7640,
      "ouble": 7641,
      "Ġtheme": 7642,
      "ĠEnter": 7643,
      "appy": 7644,
      "Ġinspired": 7645,
      "ENT": 7646,
      "Ġconvenient": 7647,
      "ocumented": 7648,
      "500": 7649,
      "oning": 7650,
      "othe": 7651,
      "ĠAD": 7652,
      "ĠBer": 7653,
      "ĠDan": 7654,
      "oster": 7655,
      "orship": 7656,
      "Ġregulation": 7657,
      "Ġrequests": 7658,
      "ĠUnlike": 7659,
      "Ġtransforming": 7660,
      "Ġpromptly": 7661,
      "Ġsequence": 7662,
      "Ġrevealed": 7663,
      "ĠRobert": 7664,
      "ongevity": 7665,
      "Qu": 7666,
      "normal": 7667,
      "reed": 7668,
      "Ġwider": 7669,
      "isd": 7670,
      "urric": 7671,
      "Ġbear": 7672,
      "Ġprohib": 7673,
      "ĠGiven": 7674,
      "Ġkil": 7675,
      "Ġindicators": 7676,
      "Ġsuggesting": 7677,
      "Ġuniversal": 7678,
      "Ġwest": 7679,
      "ari": 7680,
      "icago": 7681,
      "ĠList": 7682,
      "Ġattitude": 7683,
      "Ġaven": 7684,
      "Ġmarks": 7685,
      "Ġputting": 7686,
      "ĠSpecial": 7687,
      "Ġannounced": 7688,
      "Ġdollars": 7689,
      "08": 7690,
      "eem": 7691,
      "ĠĊĠĠĠĠĠ": 7692,
      "ĠNote": 7693,
      "Ġimpossible": 7694,
      "Ġcream": 7695,
      "Ġsky": 7696,
      "Ġpartnership": 7697,
      "Ġprospective": 7698,
      "Ġexcitement": 7699,
      "47": 7700,
      "Gen": 7701,
      "ref": 7702,
      "Ġpra": 7703,
      "Ġborder": 7704,
      "ĠSign": 7705,
      "ĠLit": 7706,
      "itely": 7707,
      "Ġdimin": 7708,
      "Furthermore": 7709,
      "SA": 7710,
      "heast": 7711,
      "Ġpose": 7712,
      "Ġdust": 7713,
      "Ġnorthern": 7714,
      "imming": 7715,
      "Ġhaven": 7716,
      "Ġbuildings": 7717,
      "Ġindependence": 7718,
      "09": 7719,
      "arn": 7720,
      "ĠCy": 7721,
      "ushed": 7722,
      "Ġenrich": 7723,
      "Ġcoffee": 7724,
      "ĠYear": 7725,
      "Ġlegacy": 7726,
      "ĠTransform": 7727,
      "Ġresonate": 7728,
      "Ġfant": 7729,
      "ĠCivil": 7730,
      "ĠLastly": 7731,
      "Ġuniverse": 7732,
      "Ġquiet": 7733,
      "Ġwriters": 7734,
      "Ġinstitution": 7735,
      "Ġobservations": 7736,
      "Ġslowly": 7737,
      "RA": 7738,
      "RI": 7739,
      "how": 7740,
      "lar": 7741,
      "tw": 7742,
      "Ġtub": 7743,
      "Ġdiplom": 7744,
      "ĠHall": 7745,
      "ĠDi": 7746,
      "Ġlisted": 7747,
      "Ġconducting": 7748,
      "mph": 7749,
      "Ġsharp": 7750,
      "Ġplate": 7751,
      "Ġcareers": 7752,
      "ĠAnn": 7753,
      "Ġdrink": 7754,
      "Ġstructural": 7755,
      "03": 7756,
      "laim": 7757,
      "mers": 7758,
      "Ġfest": 7759,
      "Ġmir": 7760,
      "ĠStreet": 7761,
      "ĠConnect": 7762,
      "ohn": 7763,
      "Ġvariations": 7764,
      "Ġinfluences": 7765,
      "Ġvolumes": 7766,
      "Ġmanifest": 7767,
      "!!": 7768,
      ".|": 7769,
      "type": 7770,
      "illa": 7771,
      "Ġtraits": 7772,
      "Ġinterpretation": 7773,
      "Ġnutrition": 7774,
      "Ġ)": 7775,
      "rem": 7776,
      "ston": 7777,
      "ctions": 7778,
      "sey": 7779,
      "anted": 7780,
      "ĠEnd": 7781,
      "Ġadversity": 7782,
      "ateral": 7783,
      "Ġgrat": 7784,
      "Ġmoves": 7785,
      "Ġstreamline": 7786,
      "Ġempowering": 7787,
      "Ġhundreds": 7788,
      "front": 7789,
      "iner": 7790,
      "Ġcab": 7791,
      "Ġstre": 7792,
      "ĠPeter": 7793,
      "Ġdism": 7794,
      "Ġarmy": 7795,
      "Ġdoors": 7796,
      "Ġrecre": 7797,
      "Ġinitiative": 7798,
      "Ġbattery": 7799,
      "Yes": 7800,
      "Ġturns": 7801,
      "ulum": 7802,
      "ĠBook": 7803,
      "----------": 7804,
      "ĠGlobal": 7805,
      "Ġrecyc": 7806,
      "Ġdelay": 7807,
      "Ġtrusted": 7808,
      "Ġmixed": 7809,
      "ĠNetwork": 7810,
      "Ġinflammation": 7811,
      "CE": 7812,
      "Man": 7813,
      "post": 7814,
      "Ġnine": 7815,
      "osite": 7816,
      "Ġintr": 7817,
      "Ġintake": 7818,
      "Ġmembr": 7819,
      "Ġrising": 7820,
      "Ġfacility": 7821,
      "Ġparad": 7822,
      "Ġloop": 7823,
      "Ġinputs": 7824,
      "Ġappeared": 7825,
      "ĠHarry": 7826,
      "Ġsupplies": 7827,
      "ih": 7828,
      "list": 7829,
      "ville": 7830,
      "ĊĊĠĠĠĠĠĠĠ": 7831,
      "Ġtick": 7832,
      "Ġbiblical": 7833,
      "ctic": 7834,
      "otion": 7835,
      "Ġclarity": 7836,
      "Ġentering": 7837,
      "Ġherself": 7838,
      "Ġdriven": 7839,
      "Ġemployers": 7840,
      "Ġattractive": 7841,
      "Ġconstitutes": 7842,
      "Ġofficers": 7843,
      "Ġculinary": 7844,
      "ders": 7845,
      "asy": 7846,
      "ĠTem": 7847,
      "ĠMont": 7848,
      "forward": 7849,
      "Ġsupportive": 7850,
      "Ġtells": 7851,
      "ĠAngel": 7852,
      "ĠMarketing": 7853,
      "Ab": 7854,
      "Ġcaught": 7855,
      "Ġalle": 7856,
      "Ġguess": 7857,
      "Ġbalanced": 7858,
      "Ġmechanical": 7859,
      "ĠStudents": 7860,
      "Ġcatering": 7861,
      "ĠWHERE": 7862,
      "kins": 7863,
      "Ġrom": 7864,
      "esis": 7865,
      "ĠPacific": 7866,
      "ĠBuilding": 7867,
      "Ġintu": 7868,
      "Ġwearing": 7869,
      "ostic": 7870,
      "Ġdistrict": 7871,
      "Ġcharges": 7872,
      "Ġembark": 7873,
      "Ġharmon": 7874,
      "Ġ===": 7875,
      "Ġaccompan": 7876,
      "gu": 7877,
      "Ġtheore": 7878,
      "Ġcodes": 7879,
      "ĠPot": 7880,
      "Ġqueries": 7881,
      "class": 7882,
      "Ġexpanded": 7883,
      "Ġbackgrounds": 7884,
      "Ġweaknesses": 7885,
      "uke": 7886,
      "Ġpeers": 7887,
      "Ġprotective": 7888,
      "Ġoutdoor": 7889,
      "ĠCommittee": 7890,
      "04": 7891,
      "Ġaf": 7892,
      "through": 7893,
      "ĠBi": 7894,
      "Ġadj": 7895,
      "aked": 7896,
      "Ġhumidity": 7897,
      "Ġgrade": 7898,
      "Ġdownload": 7899,
      "Ġmetals": 7900,
      "Ġexclusive": 7901,
      "Ġpaths": 7902,
      "ĠChristianity": 7903,
      "ĠParty": 7904,
      "ĠCreate": 7905,
      "Ġaesthetics": 7906,
      "95": 7907,
      "Reg": 7908,
      "Ġspark": 7909,
      "Ġunable": 7910,
      "ĠThomas": 7911,
      "Ġscan": 7912,
      "Ġinterior": 7913,
      "Ġchildhood": 7914,
      "Ġcarries": 7915,
      "Ġidentification": 7916,
      "Ġaffil": 7917,
      "Ġnecessitates": 7918,
      "Ġphilosophy": 7919,
      "Ġneighborhood": 7920,
      "ĠCatholic": 7921,
      "Su": 7922,
      "etric": 7923,
      "Ġcann": 7924,
      "ĠRating": 7925,
      "ulty": 7926,
      "Ġunion": 7927,
      "Ġdecline": 7928,
      "Ġsubsc": 7929,
      "Ġamongst": 7930,
      "ictionary": 7931,
      "Ġcounterparts": 7932,
      "Ġsafeguarding": 7933,
      "Not": 7934,
      "itative": 7935,
      "Ġblow": 7936,
      "Ġproof": 7937,
      "Ġprofessor": 7938,
      "Ġfinished": 7939,
      "ĠSpirit": 7940,
      "Ġperfectly": 7941,
      "Ġremoval": 7942,
      "Ġlegislation": 7943,
      "Many": 7944,
      "bles": 7945,
      "Ġble": 7946,
      "Ġlongevity": 7947,
      "Ġstick": 7948,
      "ĠMer": 7949,
      "ĠPython": 7950,
      "Ġevident": 7951,
      "ictions": 7952,
      "Ġcars": 7953,
      "III": 7954,
      ".).": 7955,
      "fall": 7956,
      "west": 7957,
      "Ġaircraft": 7958,
      "organ": 7959,
      "Ġpin": 7960,
      "Ġpark": 7961,
      "ĠLake": 7962,
      "Ġadvances": 7963,
      "Ġsupplement": 7964,
      "Ġrepresented": 7965,
      "cules": 7966,
      "Ġgains": 7967,
      "Ġtexture": 7968,
      "Ġoneself": 7969,
      "Ġwildlife": 7970,
      "Ġbuyers": 7971,
      "Ġguarantee": 7972,
      "Ġworkshops": 7973,
      "lia": 7974,
      "rary": 7975,
      "itals": 7976,
      "Ġinject": 7977,
      "ĠMark": 7978,
      "Ġdefend": 7979,
      "afe": 7980,
      "irable": 7981,
      "Ġshifting": 7982,
      "Ġhouses": 7983,
      "Ġluxury": 7984,
      "oubted": 7985,
      "ĠLouis": 7986,
      "but": 7987,
      "rate": 7988,
      "Ġwaves": 7989,
      "section": 7990,
      "urations": 7991,
      "ĠCP": 7992,
      "ipe": 7993,
      "Ġunus": 7994,
      "ĠStep": 7995,
      "Ġlawy": 7996,
      "ĠDisplay": 7997,
      "check": 7998,
      "Ġescape": 7999,
      "Ġguarantees": 8000,
      "Ġnuances": 8001,
      "Ġinfections": 8002,
      "Ġjurisd": 8003,
      "Most": 8004,
      "ugh": 8005,
      "Ġinclusion": 8006,
      "Ġovers": 8007,
      "Che": 8008,
      "Ġ^": 8009,
      "Ġfurn": 8010,
      "ĠClean": 8011,
      "Ġroots": 8012,
      "Ġmedication": 8013,
      "Ġempowers": 8014,
      "Ġcomprehension": 8015,
      "Although": 8016,
      "RM": 8017,
      "Ġaward": 8018,
      "avy": 8019,
      "Ġtalents": 8020,
      "Ġ:=": 8021,
      "security": 8022,
      "Ġrooted": 8023,
      "Other": 8024,
      "Ġlie": 8025,
      "ĠPet": 8026,
      "Ġchat": 8027,
      "Ġneither": 8028,
      "Ġperception": 8029,
      "ancies": 8030,
      "Ġcovers": 8031,
      "Ġcounty": 8032,
      "Ġgaining": 8033,
      "Ġtraveling": 8034,
      "ĠSuccess": 8035,
      "Ġchannel": 8036,
      "ĠUpdate": 8037,
      "oubtedly": 8038,
      "Ġuniversity": 8039,
      "Ġopposition": 8040,
      "Ġgarden": 8041,
      "Ġtexts": 8042,
      "df": 8043,
      "ĠCamp": 8044,
      "Ġabst": 8045,
      "Ġuniform": 8046,
      "Ġattached": 8047,
      "ĠAdv": 8048,
      "Ġexcellence": 8049,
      "Ġlaboratory": 8050,
      "Ġcardi": 8051,
      "ĠCommunity": 8052,
      "Ġiconic": 8053,
      "Ġhusband": 8054,
      "66": 8055,
      "TC": 8056,
      "Ġcart": 8057,
      "uts": 8058,
      "ĠCancer": 8059,
      "ivate": 8060,
      "ortion": 8061,
      "Ġpreced": 8062,
      "ĠStay": 8063,
      "Ġtransparent": 8064,
      "...\"": 8065,
      "ĠSystems": 8066,
      "BA": 8067,
      "host": 8068,
      "Ġdates": 8069,
      "eping": 8070,
      "Ġmodifications": 8071,
      "Ġdepartment": 8072,
      "Ġkeeps": 8073,
      "Ġpriorities": 8074,
      "Ġvillage": 8075,
      "Ġastr": 8076,
      "Ġwelfare": 8077,
      "Ġmac": 8078,
      "Ġmamm": 8079,
      "igious": 8080,
      "ĠTimes": 8081,
      "ĠMi": 8082,
      "employ": 8083,
      "ptions": 8084,
      "ĠLibr": 8085,
      "Ġaband": 8086,
      "Ġpermission": 8087,
      "Ġ75": 8088,
      "ographics": 8089,
      "Ġsuscept": 8090,
      "Ġgathering": 8091,
      "Ġoverwhelming": 8092,
      "pin": 8093,
      "Ġpu": 8094,
      "Ġiter": 8095,
      "ĠJose": 8096,
      "Ġtwenty": 8097,
      "Ġcourts": 8098,
      "Ġpersonalized": 8099,
      "Ġobjective": 8100,
      "Ġnavigation": 8101,
      "Ġtissues": 8102,
      "Ġcandidate": 8103,
      "Ġrecipe": 8104,
      "Ġfarmers": 8105,
      "Ġkitchen": 8106,
      "Ġniche": 8107,
      "During": 8108,
      "Please": 8109,
      "cre": 8110,
      "Ġtast": 8111,
      "Ġlists": 8112,
      "ethe": 8113,
      "Ġcompare": 8114,
      "Ġprofiles": 8115,
      "Ġcarrying": 8116,
      "Dr": 8117,
      "yle": 8118,
      "Ġwash": 8119,
      "ĠJe": 8120,
      "ĠStart": 8121,
      "Ġdivided": 8122,
      "Ġdoctors": 8123,
      "ĠSov": 8124,
      "ĠRo": 8125,
      "Ġabund": 8126,
      "Ġengines": 8127,
      "Ġgreatest": 8128,
      "Ġauthenticity": 8129,
      "Ġuniversities": 8130,
      "Ġheightened": 8131,
      "Ġannounce": 8132,
      "Ġdisciplines": 8133,
      "99": 8134,
      "Take": 8135,
      "eded": 8136,
      "Ġrecept": 8137,
      "Ġ2014": 8138,
      "Ġsecondary": 8139,
      "Ġfloat": 8140,
      ".\\": 8141,
      "ta": 8142,
      "Ġtension": 8143,
      "Ġhorse": 8144,
      "Ġmolecular": 8145,
      "driven": 8146,
      "OL": 8147,
      "mas": 8148,
      "Ġmood": 8149,
      "ĠCase": 8150,
      "action": 8151,
      "Ġunknown": 8152,
      "ĠYes": 8153,
      "const": 8154,
      "exp": 8155,
      "Ġdrives": 8156,
      "Ġautomated": 8157,
      "Ġshapes": 8158,
      "Ġgeographical": 8159,
      "secut": 8160,
      "Ġcontracts": 8161,
      "Ġmonthly": 8162,
      "Ġacquisition": 8163,
      "ĠAmazon": 8164,
      "Ġtheories": 8165,
      "ĠPC": 8166,
      "opic": 8167,
      "Ġcolumn": 8168,
      "ĠChicago": 8169,
      "Ġshel": 8170,
      "Ġembed": 8171,
      "Ġelsewhere": 8172,
      "Ġconcentration": 8173,
      "Ġgirls": 8174,
      "ĠAcademy": 8175,
      "met": 8176,
      "Ġdeals": 8177,
      "Ġstudied": 8178,
      "Ġdecade": 8179,
      "Ġcompeting": 8180,
      "ĠFrank": 8181,
      "clop": 8182,
      "Ġmilest": 8183,
      "Ġschedules": 8184,
      "Ġinstruments": 8185,
      "Ġtelevision": 8186,
      "].": 8187,
      "Ġ%": 8188,
      "Ġpitch": 8189,
      "rand": 8190,
      "ĠIr": 8191,
      "ardless": 8192,
      "Ġinches": 8193,
      "Ġmeasured": 8194,
      "Ġcollaborations": 8195,
      "Ġexpressions": 8196,
      "LECT": 8197,
      "Ġvoices": 8198,
      "Ġmarginal": 8199,
      "osh": 8200,
      "ĠFoot": 8201,
      "ĠLight": 8202,
      "Ġinstruction": 8203,
      "String": 8204,
      "Ġbiology": 8205,
      "Ġdifficulty": 8206,
      "Ġdecrease": 8207,
      "ĠISBN": 8208,
      "Ġagricultural": 8209,
      "Ġcosm": 8210,
      "ĠĠĠĠĠ": 8211,
      "Ġchrom": 8212,
      "Ġcrew": 8213,
      "Ġinterpre": 8214,
      "obile": 8215,
      "Ġcontributed": 8216,
      "Ġexcer": 8217,
      "Ġinstalled": 8218,
      "Ġblockchain": 8219,
      "Ġcelebrate": 8220,
      "ĠLearning": 8221,
      "Last": 8222,
      "Ps": 8223,
      "ĠLatin": 8224,
      "Ġrepresentatives": 8225,
      "ĠSea": 8226,
      "Ġinspiring": 8227,
      "trust": 8228,
      "Ġorders": 8229,
      "Ġdriver": 8230,
      "Ġfulfill": 8231,
      "Ġpermanent": 8232,
      "Ġgentle": 8233,
      "orse": 8234,
      "Ġconcrete": 8235,
      "Ġsubmit": 8236,
      "Ġvisits": 8237,
      "Ġresulted": 8238,
      "Ġ${": 8239,
      "Ġelected": 8240,
      "Ġutility": 8241,
      "Ġphoto": 8242,
      "Ġconfiguration": 8243,
      "ĠLin": 8244,
      "Ġundoubtedly": 8245,
      "Ġordinary": 8246,
      "Ġdiscipline": 8247,
      "TH": 8248,
      "Ġbold": 8249,
      "Ġbrown": 8250,
      "imental": 8251,
      "ĠSar": 8252,
      "ĠMad": 8253,
      "Ġhero": 8254,
      "enced": 8255,
      "Ġobtained": 8256,
      "Ġmastering": 8257,
      "rine": 8258,
      "Ġindu": 8259,
      "nowned": 8260,
      "Ġblocks": 8261,
      "Ġlocally": 8262,
      "Ġdefe": 8263,
      "Ġgrasp": 8264,
      "Ġsick": 8265,
      "Ġinher": 8266,
      "Ġgaps": 8267,
      "Ġsto": 8268,
      "ĠNatural": 8269,
      "Ġorganisms": 8270,
      "bur": 8271,
      "entral": 8272,
      "Ġorient": 8273,
      "Ġrid": 8274,
      "ĠRub": 8275,
      "ĠNext": 8276,
      "Ġ\"\\": 8277,
      "Ġmanager": 8278,
      "Ġ500": 8279,
      "azine": 8280,
      "isco": 8281,
      "Ġsensitivity": 8282,
      "Ġfalling": 8283,
      "Ġmobility": 8284,
      "Additionally": 8285,
      "Ġconditionally": 8286,
      "ĠSat": 8287,
      "ĠCast": 8288,
      "ureau": 8289,
      "ĠLead": 8290,
      "Ġunderm": 8291,
      "Ġvisiting": 8292,
      "Ġtested": 8293,
      "apped": 8294,
      "Ġpolicymakers": 8295,
      "Ġstrain": 8296,
      "Guid": 8297,
      "itting": 8298,
      "ican": 8299,
      "Ġlosing": 8300,
      "throp": 8301,
      "estry": 8302,
      "Ġdetermines": 8303,
      "Ġmeasurements": 8304,
      "Pe": 8305,
      "ras": 8306,
      "Ġcough": 8307,
      "owered": 8308,
      "ĠIll": 8309,
      "Ġattach": 8310,
      "Ġretrie": 8311,
      "Ġintroduction": 8312,
      "Ġstreaml": 8313,
      "Ġdistinctive": 8314,
      "ĠUpon": 8315,
      "omic": 8316,
      "ĠIII": 8317,
      "ĠBit": 8318,
      "oga": 8319,
      "ĠLab": 8320,
      "Ġ\"$": 8321,
      "Ġacting": 8322,
      "Ġasset": 8323,
      "Ġ300": 8324,
      "Ġgrown": 8325,
      "Ġtestament": 8326,
      "Ġpresentation": 8327,
      "Ġsupposed": 8328,
      "Ġhistoric": 8329,
      "ĠAppro": 8330,
      "Ġcaptured": 8331,
      "Ġpanel": 8332,
      "CL": 8333,
      "Read": 8334,
      "mail": 8335,
      "van": 8336,
      "inem": 8337,
      "Ġfollowers": 8338,
      "Ġconfusion": 8339,
      "Ġfaces": 8340,
      "Ġoptimizing": 8341,
      "ĠAssess": 8342,
      "Ġcompensation": 8343,
      "Ġprosper": 8344,
      "Extreme": 8345,
      "ML": 8346,
      "Ġfruits": 8347,
      "ĠMS": 8348,
      "Ġclar": 8349,
      "Ġbelievers": 8350,
      "mptom": 8351,
      "Ġoutlined": 8352,
      "rid": 8353,
      "itarian": 8354,
      "Ġworse": 8355,
      "Ġ2020": 8356,
      "Ġadvis": 8357,
      "ĠForce": 8358,
      "Ġpracticing": 8359,
      "Ġpossibly": 8360,
      "ouraging": 8361,
      "ĠColumb": 8362,
      "oxide": 8363,
      "Ġexecutive": 8364,
      "Ġopponents": 8365,
      "iplinary": 8366,
      "Ġpollution": 8367,
      "Ġenemy": 8368,
      "Be": 8369,
      "Ġmuseum": 8370,
      "terior": 8371,
      "ĠBrown": 8372,
      "Ġtech": 8373,
      "Ġfinish": 8374,
      "Ġfinds": 8375,
      "paralle": 8376,
      "Ġmeetings": 8377,
      "Ġdifficulties": 8378,
      "ĠSupport": 8379,
      "Ġdistributed": 8380,
      "ĠTwitter": 8381,
      "Ġattempting": 8382,
      "Ġultimate": 8383,
      "Ġtackle": 8384,
      "inction": 8385,
      "Ġax": 8386,
      "Ġwave": 8387,
      "Ġagreed": 8388,
      "iances": 8389,
      "ĠClin": 8390,
      "Ġcalculated": 8391,
      "Ġsuspect": 8392,
      "Ġpsychology": 8393,
      "Ġsenior": 8394,
      "igenous": 8395,
      "documented": 8396,
      "Ġpull": 8397,
      "ĠContin": 8398,
      "Ġnegotiations": 8399,
      "Ġtoxic": 8400,
      "Ġwestern": 8401,
      "Ġfract": 8402,
      "Ġbird": 8403,
      "ĠTor": 8404,
      "akistan": 8405,
      "lecting": 8406,
      "Ġtestim": 8407,
      "Ġvictory": 8408,
      "Ġsocieties": 8409,
      "Ġstraightforward": 8410,
      "iture": 8411,
      "Ġresid": 8412,
      "Ġexclus": 8413,
      "Ġprecious": 8414,
      "Ġjoined": 8415,
      "Ġdelicious": 8416,
      "Ġsongs": 8417,
      "inery": 8418,
      "amps": 8419,
      "Ġexac": 8420,
      "Ġcomplicated": 8421,
      "inson": 8422,
      "Ġdatabases": 8423,
      "User": 8424,
      "Ġmortg": 8425,
      "43": 8426,
      "Ġ@": 8427,
      "Ġâ": 8428,
      "Ġwise": 8429,
      "ĠEqu": 8430,
      "Ġpressures": 8431,
      "ĠEmploy": 8432,
      "Ġmolecules": 8433,
      "Ġequivalent": 8434,
      "TP": 8435,
      "made": 8436,
      "oin": 8437,
      "rey": 8438,
      "Ġmixture": 8439,
      "ĠNature": 8440,
      "ĠThough": 8441,
      "Ġdesk": 8442,
      "Ġcaution": 8443,
      "Ġ1980": 8444,
      "Ġhighlighted": 8445,
      "Ġrenewable": 8446,
      "Bl": 8447,
      "Ġ;": 8448,
      "inf": 8449,
      "Ġdaughter": 8450,
      "sters": 8451,
      "Ġrenowned": 8452,
      "Ġconference": 8453,
      "ĠBill": 8454,
      "Ġtransit": 8455,
      "Ġguard": 8456,
      "ATCH": 8457,
      "Ġwindows": 8458,
      "Ġsearching": 8459,
      "Ġroutines": 8460,
      "Ġcoupled": 8461,
      "Ġvoters": 8462,
      "Ġbreath": 8463,
      "Ġlibraries": 8464,
      "Ġexcerpt": 8465,
      "Ġtall": 8466,
      "eterm": 8467,
      "ĠCur": 8468,
      "ĠItalian": 8469,
      "Ġdefensive": 8470,
      "Ġtailor": 8471,
      "Ġsatell": 8472,
      "Ġdivision": 8473,
      "ĠRecogn": 8474,
      "Ġstruggles": 8475,
      "ĠStrategies": 8476,
      "Ġexacerb": 8477,
      "zer": 8478,
      "inet": 8479,
      "Ġluck": 8480,
      "ĠFree": 8481,
      "commented": 8482,
      "Ġessentially": 8483,
      "Ġphysically": 8484,
      "Ġhyper": 8485,
      "Ġassessments": 8486,
      "paralleled": 8487,
      "rays": 8488,
      "economic": 8489,
      "Ġ32": 8490,
      "Ġrequirement": 8491,
      "Ġseverity": 8492,
      "ĠUsers": 8493,
      "Ġminute": 8494,
      "Ġmountain": 8495,
      "Ġdecreased": 8496,
      "iatric": 8497,
      "Ã¶": 8498,
      "ĠSE": 8499,
      "Ġcompounds": 8500,
      "Ġscope": 8501,
      "everal": 8502,
      "ocket": 8503,
      "Ġshowcase": 8504,
      "Ġbeloved": 8505,
      "Ġoriginally": 8506,
      "Ġassigned": 8507,
      "Ġfighting": 8508,
      "Ġinterviews": 8509,
      "cout": 8510,
      "li": 8511,
      "washing": 8512,
      "real": 8513,
      "ita": 8514,
      "alog": 8515,
      "asures": 8516,
      "Ġnit": 8517,
      "Ġrhyth": 8518,
      "Ġunparalleled": 8519,
      "Ġsyndrome": 8520,
      "Ġnewsp": 8521,
      "Ġdecor": 8522,
      "Ġ65": 8523,
      "Ġversus": 8524,
      "Ġbiggest": 8525,
      "Ġconstructive": 8526,
      "ĠSoviet": 8527,
      "Our": 8528,
      "Ġboy": 8529,
      "Ġnest": 8530,
      "Ġagent": 8531,
      "Ġdiscourse": 8532,
      "commun": 8533,
      "Ġdescribes": 8534,
      "Ġadministrative": 8535,
      "ĠVictor": 8536,
      "sen": 8537,
      "ications": 8538,
      "omin": 8539,
      "ĠCross": 8540,
      "adow": 8541,
      "ĠPan": 8542,
      "ĠOS": 8543,
      "ferent": 8544,
      "Ġexped": 8545,
      "Ġassociation": 8546,
      "Ġreasonable": 8547,
      "ĠUser": 8548,
      "!(\"": 8549,
      "oking": 8550,
      "ql": 8551,
      "sem": 8552,
      "ĠCr": 8553,
      "ĠBig": 8554,
      "oston": 8555,
      "ĠNations": 8556,
      "Ġexperiments": 8557,
      "Ġendless": 8558,
      "ĠConversely": 8559,
      "Ġfunctioning": 8560,
      "Ġthoughtfully": 8561,
      "Ġdomains": 8562,
      "Ġdemanding": 8563,
      "Ġhonor": 8564,
      "ĠGrand": 8565,
      "Ġlaunched": 8566,
      "haust": 8567,
      "Ġdrivers": 8568,
      "76": 8569,
      "85": 8570,
      "rection": 8571,
      "Ġmold": 8572,
      "Ġgro": 8573,
      "ĠOper": 8574,
      "ĊĊĊĊ": 8575,
      "Ġsafer": 8576,
      "ĠReal": 8577,
      "Ġ1998": 8578,
      "Ġcycles": 8579,
      "ĠModern": 8580,
      "Ġgranted": 8581,
      "Ġtitles": 8582,
      "Note": 8583,
      "isation": 8584,
      "Ġinhib": 8585,
      "Ġgif": 8586,
      "Ġstro": 8587,
      "ĠEp": 8588,
      "ĠEss": 8589,
      "perature": 8590,
      "ĠStudies": 8591,
      "Ġcooling": 8592,
      "Ġaspir": 8593,
      "Ġshowcases": 8594,
      "IF": 8595,
      "ULL": 8596,
      "Val": 8597,
      "Ġmail": 8598,
      "igation": 8599,
      "raq": 8600,
      "ĠTre": 8601,
      "ĠClear": 8602,
      "heric": 8603,
      "Ġconstitu": 8604,
      "Ġvector": 8605,
      "ĠSoft": 8606,
      "ĠImport": 8607,
      "aunting": 8608,
      "Ġsafely": 8609,
      ".[": 8610,
      "Ġvan": 8611,
      "Ġenzy": 8612,
      "Ġ(`": 8613,
      "ĠLim": 8614,
      "ĠON": 8615,
      "Ġrail": 8616,
      "ĠSpanish": 8617,
      "Ġrestric": 8618,
      "ĠDev": 8619,
      "Ġwarning": 8620,
      "Ġdamaged": 8621,
      "Ġtherapies": 8622,
      "Ġdiving": 8623,
      "Ġster": 8624,
      "ĠSS": 8625,
      "Ġlean": 8626,
      "Ġarmed": 8627,
      "ĠUnfortunately": 8628,
      "ĠCanadian": 8629,
      "Ġtrouble": 8630,
      "Ġcraftsmanship": 8631,
      "Ġunderstood": 8632,
      "HA": 8633,
      "Ġlob": 8634,
      "Ġnan": 8635,
      "ĠLar": 8636,
      "Ġformats": 8637,
      "Ġissued": 8638,
      "ĠScient": 8639,
      "Ġcombines": 8640,
      "Ġautomation": 8641,
      "Ġacceptance": 8642,
      "Ġrelaxation": 8643,
      "stein": 8644,
      "Ġtroops": 8645,
      "oil": 8646,
      "Ġpace": 8647,
      "Ġvend": 8648,
      "Ġadhering": 8649,
      "nson": 8650,
      "Ġapproved": 8651,
      "Ġretire": 8652,
      "Ġmarried": 8653,
      "Ġpainting": 8654,
      "Ġpackages": 8655,
      "Ġhotel": 8656,
      "44": 8657,
      "UL": 8658,
      "tem": 8659,
      "yes": 8660,
      "roat": 8661,
      "ĠMel": 8662,
      "ĠPay": 8663,
      "acc": 8664,
      "olves": 8665,
      "rehend": 8666,
      "ĠUSA": 8667,
      "Don": 8668,
      "uis": 8669,
      "Ġpets": 8670,
      "Ġine": 8671,
      "urb": 8672,
      "acher": 8673,
      "Ġcomparing": 8674,
      "Ġcontents": 8675,
      "ĠProduct": 8676,
      "anguage": 8677,
      "Ġjoining": 8678,
      "Ġthriving": 8679,
      "breaking": 8680,
      "Ġgirl": 8681,
      "ĠCarolina": 8682,
      "07": 8683,
      "vision": 8684,
      "Ġtrop": 8685,
      "imp": 8686,
      "ĠAp": 8687,
      "ĠSil": 8688,
      "ĠHun": 8689,
      "Ġsurge": 8690,
      "Ġhealthier": 8691,
      "Ġmyself": 8692,
      "Ġbranch": 8693,
      "brid": 8694,
      "Ġadaptation": 8695,
      "Ġexplained": 8696,
      "Ġenjoying": 8697,
      "ĠMusic": 8698,
      "Ġcontrolling": 8699,
      "Ġelevate": 8700,
      "ĠHenry": 8701,
      "Ġabandon": 8702,
      "Get": 8703,
      "eting": 8704,
      "ĠTool": 8705,
      "Ġchart": 8706,
      "anta": 8707,
      "iants": 8708,
      "Ġmeasuring": 8709,
      "Ġinfluential": 8710,
      "ĠApplic": 8711,
      "Ġabsence": 8712,
      "Ġencompasses": 8713,
      "ĠOrganization": 8714,
      "(`": 8715,
      "Ġmigr": 8716,
      "Ġprox": 8717,
      "ĠRom": 8718,
      "ĠRest": 8719,
      "Ġimaging": 8720,
      "ĠLever": 8721,
      "ĊĠĠĠĠĠĠĠĠĊĠĠĠĠĠĠĠ": 8722,
      "Ġcharged": 8723,
      "Ġplanned": 8724,
      "ĠAgain": 8725,
      "ĠRespons": 8726,
      "Ġillegal": 8727,
      "Ġtheology": 8728,
      "Ġcoc": 8729,
      "rog": 8730,
      "Ġharsh": 8731,
      "ĠCall": 8732,
      "ĠPakistan": 8733,
      "ĠJon": 8734,
      "Ġindul": 8735,
      "Ġeducators": 8736,
      "Ġdirected": 8737,
      "Ġsubstances": 8738,
      "Ġemphasize": 8739,
      "Ġcomparison": 8740,
      "Println": 8741,
      "BS": 8742,
      "Ġpig": 8743,
      "Ġpod": 8744,
      "ĠSand": 8745,
      "Ġaside": 8746,
      "ĠBank": 8747,
      "ĠThose": 8748,
      "Ġattitudes": 8749,
      "icted": 8750,
      "Ġfounded": 8751,
      "Ġaccessories": 8752,
      "Ġrealize": 8753,
      "ĠComput": 8754,
      "Ġwriter": 8755,
      "Ġzones": 8756,
      "ĠLeague": 8757,
      "hygiene": 8758,
      "Ġunfold": 8759,
      "Ġalgorithm": 8760,
      "ĠDigital": 8761,
      "Comm": 8762,
      "MA": 8763,
      "More": 8764,
      "Ġeco": 8765,
      "aware": 8766,
      "Ġdesignated": 8767,
      "Ġjudge": 8768,
      "Ġcriticism": 8769,
      "Ġjudgment": 8770,
      "draw": 8771,
      "hav": 8772,
      "struct": 8773,
      "ĠFire": 8774,
      "Ġspir": 8775,
      "Ġbutton": 8776,
      "ĠWho": 8777,
      "conf": 8778,
      "Ġaddressed": 8779,
      "2012": 8780,
      "ĠGuide": 8781,
      "ĠOtherwise": 8782,
      "Ġdepartments": 8783,
      "Ġmas": 8784,
      "Ġdaunting": 8785,
      "mentation": 8786,
      "ĠPop": 8787,
      "ishment": 8788,
      "Ġencryption": 8789,
      "Ġundert": 8790,
      "Ġexplos": 8791,
      "ĠAltern": 8792,
      "Ġmaintained": 8793,
      "ĠExp": 8794,
      "Ġtempor": 8795,
      "Ġprivile": 8796,
      "author": 8797,
      "Ġhydrogen": 8798,
      "Ġwedding": 8799,
      "ĠBack": 8800,
      "ĠFROM": 8801,
      "aph": 8802,
      "Ġages": 8803,
      "Ġsetup": 8804,
      "Ġcrimes": 8805,
      "Ġviewing": 8806,
      "ĊĉĊ": 8807,
      "Ġsustained": 8808,
      "Ġkinds": 8809,
      "Ġbatt": 8810,
      "ĠRobin": 8811,
      "\"\"": 8812,
      "Ġfu": 8813,
      "abil": 8814,
      "ĠHosp": 8815,
      "ĠFour": 8816,
      "izz": 8817,
      "Ġadverse": 8818,
      "Ġcommands": 8819,
      "Ġsomewhat": 8820,
      "Ġequitable": 8821,
      "Ġphotography": 8822,
      "Ġdestruction": 8823,
      "ĠImplementing": 8824,
      "Ġpregnant": 8825,
      "Ġhabitat": 8826,
      "Ġdisappoint": 8827,
      "Ġcurrency": 8828,
      "Ġfossil": 8829,
      "uh": 8830,
      "ena": 8831,
      "Ġmath": 8832,
      "Ġliver": 8833,
      "Ġnerv": 8834,
      "Ġconditional": 8835,
      "Ġevolve": 8836,
      "Ġmetab": 8837,
      "coin": 8838,
      "Ġdatas": 8839,
      "Ġsegments": 8840,
      "Ġdestroyed": 8841,
      "Ġalleviate": 8842,
      "bration": 8843,
      "da": 8844,
      "erie": 8845,
      "Ġla": 8846,
      "Ġstorm": 8847,
      "ĠCard": 8848,
      "ivered": 8849,
      "ĠRole": 8850,
      "ĠRoyal": 8851,
      "Ġuncom": 8852,
      "phones": 8853,
      "Ġprogression": 8854,
      "ĠClub": 8855,
      "Ġmusicians": 8856,
      "Ġexplains": 8857,
      "Ġspeaks": 8858,
      "eliability": 8859,
      "Ġfraud": 8860,
      "ĠAdministration": 8861,
      "Ġstopped": 8862,
      "OW": 8863,
      "iol": 8864,
      "ker": 8865,
      "arking": 8866,
      "etts": 8867,
      "Ġasc": 8868,
      "ĠMars": 8869,
      "izable": 8870,
      "ustration": 8871,
      "Ġrose": 8872,
      "ypher": 8873,
      "Ġmainly": 8874,
      "Ġretention": 8875,
      "Ġreleases": 8876,
      "Ġtowns": 8877,
      "Ġranking": 8878,
      "Ġoverlooked": 8879,
      "pany": 8880,
      "Ġbones": 8881,
      "arks": 8882,
      "ĠLog": 8883,
      "Ġrecover": 8884,
      "Ġflag": 8885,
      "Ġcritics": 8886,
      "Ġfranch": 8887,
      "Ġshaped": 8888,
      "onymous": 8889,
      "Ġcasual": 8890,
      "58": 8891,
      "Hand": 8892,
      "RL": 8893,
      "solving": 8894,
      "oric": 8895,
      "ĠUk": 8896,
      "Ġinsu": 8897,
      "Ġreturning": 8898,
      "ĠWithin": 8899,
      "Ġflowers": 8900,
      "anned": 8901,
      "ĠImpact": 8902,
      "Ġcollecting": 8903,
      "Ġpositioning": 8904,
      "Ġsuffer": 8905,
      "etheless": 8906,
      "%.": 8907,
      "59": 8908,
      "Â®": 8909,
      "ato": 8910,
      "ĠWed": 8911,
      "ĠWall": 8912,
      "ĠEffective": 8913,
      "Ġscar": 8914,
      "Ġrecruit": 8915,
      "oolean": 8916,
      "Ġsettle": 8917,
      "ĠAsian": 8918,
      "Ġlesson": 8919,
      "Ġlimiting": 8920,
      "Ġfinancing": 8921,
      "Ġfeeding": 8922,
      "Ġqualified": 8923,
      "Ġreplacement": 8924,
      "Ġaccompanied": 8925,
      "liament": 8926,
      "Ġhall": 8927,
      "Ġads": 8928,
      "Ġtrained": 8929,
      "rium": 8930,
      "Ġearned": 8931,
      "Ġ1997": 8932,
      "requency": 8933,
      "Ġencountered": 8934,
      "AA": 8935,
      "Ġcup": 8936,
      "earing": 8937,
      "----------------------------": 8938,
      "Ġfilms": 8939,
      "atching": 8940,
      "()`": 8941,
      "Ġwarming": 8942,
      "Ġpursuit": 8943,
      "Ġtransaction": 8944,
      "Ġmeticulous": 8945,
      "Ġobligations": 8946,
      "ĠPolicy": 8947,
      "Ġgratitude": 8948,
      "bar": 8949,
      "eras": 8950,
      "Ġinhab": 8951,
      "isting": 8952,
      "Ġperpet": 8953,
      "Ġproved": 8954,
      "riad": 8955,
      "Ġposes": 8956,
      "ribed": 8957,
      "Ġconfir": 8958,
      "ĠIndians": 8959,
      "azing": 8960,
      "Ġhappening": 8961,
      "Ġbalancing": 8962,
      "Ġportfol": 8963,
      "Ġaligned": 8964,
      "Ġvulnerability": 8965,
      "Ġbreathing": 8966,
      "ĠRegularly": 8967,
      "BI": 8968,
      "John": 8969,
      "Ġsending": 8970,
      "Ġstones": 8971,
      "ĠBudd": 8972,
      "uming": 8973,
      "ĠHoly": 8974,
      "forget": 8975,
      "Ġuphold": 8976,
      "Ġcreatures": 8977,
      "Ġkeys": 8978,
      ".\")": 8979,
      "Ġpassword": 8980,
      "Ġdirectory": 8981,
      "2013": 8982,
      "Ġtravelers": 8983,
      "Ġclaimed": 8984,
      "Ġirrit": 8985,
      "ĠFirstly": 8986,
      "Ġsoul": 8987,
      "Ġcompromise": 8988,
      "Ġencounters": 8989,
      "Sim": 8990,
      "ket": 8991,
      "Ġmoon": 8992,
      "Ġtom": 8993,
      "ĠMP": 8994,
      "ĠBoston": 8995,
      "Ġspons": 8996,
      "ĠLink": 8997,
      "achus": 8998,
      "Ġanywhere": 8999,
      "Ġassessing": 9000,
      "Ġremoving": 9001,
      "\"]": 9002,
      "rat": 9003,
      "alities": 9004,
      "sell": 9005,
      "Ġconvert": 9006,
      "ĠSund": 9007,
      "ĠGame": 9008,
      "ĠNor": 9009,
      "ella": 9010,
      "ounded": 9011,
      "Ġ36": 9012,
      "Ġcompletion": 9013,
      "ĠComb": 9014,
      "ĠPrint": 9015,
      "CP": 9016,
      "MI": 9017,
      "OD": 9018,
      "serv": 9019,
      "uity": 9020,
      "ĠTom": 9021,
      "irth": 9022,
      "ghan": 9023,
      "Ġkm": 9024,
      "Ġaccidents": 9025,
      "Ġ186": 9026,
      "Ġstreams": 9027,
      "ĠParis": 9028,
      "roductive": 9029,
      "May": 9030,
      "NS": 9031,
      "OM": 9032,
      "Ġprolong": 9033,
      "eling": 9034,
      "ĠPubl": 9035,
      "ĠRust": 9036,
      "rub": 9037,
      "Ġevolved": 9038,
      "ĠItaly": 9039,
      "Ġpersistent": 9040,
      "Ġcombine": 9041,
      "Ġorigins": 9042,
      "ĠContent": 9043,
      "Ġwinning": 9044,
      "Ġ1970": 9045,
      "Ġindependently": 9046,
      "Ġhospitals": 9047,
      "ispens": 9048,
      "Ġharnessing": 9049,
      "Ġinventory": 9050,
      "Ġunusual": 9051,
      ".||": 9052,
      "rated": 9053,
      "zed": 9054,
      "Ġlights": 9055,
      "utch": 9056,
      "change": 9057,
      "ĠTip": 9058,
      "Ġexhaust": 9059,
      "Ġcha": 9060,
      "ĠEU": 9061,
      "entially": 9062,
      "ancial": 9063,
      "ĠChall": 9064,
      "Ġevening": 9065,
      "Ġdemocracy": 9066,
      "Ġlegs": 9067,
      "Ġpresenting": 9068,
      "ĠEarly": 9069,
      "Ġsentence": 9070,
      "Ġvoting": 9071,
      "Ġschemes": 9072,
      "ĠLibrary": 9073,
      "achusetts": 9074,
      "ycle": 9075,
      "Ġlaid": 9076,
      "Ġnob": 9077,
      "imer": 9078,
      "ĠCost": 9079,
      "ĠMa": 9080,
      "acent": 9081,
      "ĠHygiene": 9082,
      "Ġinviting": 9083,
      "Ġbuff": 9084,
      "Ġdefining": 9085,
      "Ġbrid": 9086,
      "Ġheads": 9087,
      "Ġ1995": 9088,
      "Ġguiding": 9089,
      "ĠPrivacy": 9090,
      "Ġfavorable": 9091,
      "ĠProtection": 9092,
      "Ġisolated": 9093,
      "Ġhazard": 9094,
      "Ġnormally": 9095,
      "She": 9096,
      "Ġsale": 9097,
      "chron": 9098,
      "ĠCREATE": 9099,
      "teries": 9100,
      "Ġcustomized": 9101,
      "Ġscenes": 9102,
      "Ġaffordability": 9103,
      "Ġestimates": 9104,
      "Ġclubs": 9105,
      "Ġscheme": 9106,
      "orph": 9107,
      "ashes": 9108,
      "Ġlaser": 9109,
      "raph": 9110,
      "Ġgau": 9111,
      "Ġupl": 9112,
      "ady": 9113,
      "ĠDise": 9114,
      "ĠRock": 9115,
      "aped": 9116,
      "Ġposed": 9117,
      "Ġdetected": 9118,
[...]
